<unk>	0
<s>	0
</s>	0
ng	-0
▁t	-1
▁c	-2
▁đ	-3
nh	-4
ານ	-5
▁v	-6
▁th	-7
▁l	-8
▁ເ	-9
▁h	-10
▁b	-11
▁ch	-12
▁m	-13
ອງ	-14
▁k	-15
▁s	-16
▁tr	-17
ັນ	-18
ການ	-19
ທີ	-20
▁nh	-21
▁n	-22
ລະ	-23
ທີ່	-24
▁T	-25
▁C	-26
້າ	-27
▁ແ	-28
▁g	-29
ັບ	-30
ໍາ	-31
▁d	-32
▁kh	-33
▁p	-34
່າ	-35
▁và	-36
▁ng	-37
ác	-38
▁ສ	-39
▁ph	-40
າມ	-41
ຂອງ	-42
ັດ	-43
iệ	-44
an	-45
▁2	-46
ດ້	-47
ໃນ	-48
ông	-49
▁1	-50
er	-51
▁củ	-52
▁của	-53
in	-54
▁M	-55
▁ຄ	-56
▁S	-57
▁gi	-58
າຍ	-59
ên	-60
ິດ	-61
▁ຫ	-62
ື່	-63
ໄດ້	-64
່ງ	-65
້ນ	-66
▁ກ	-67
າດ	-68
00	-69
▁B	-70
▁N	-71
ປະ	-72
ột	-73
▁là	-74
ໍ່	-75
ົນ	-76
▁các	-77
▁r	-78
▁P	-79
ອນ	-80
ượ	-81
qu	-82
on	-83
ườ	-84
ົາ	-85
▁ພ	-86
iế	-87
▁ແລະ	-88
▁x	-89
▁ມ	-90
▁một	-91
ong	-92
ới	-93
ất	-94
ັງ	-95
▁qu	-96
▁H	-97
▁ຈ	-98
▁ນ	-99
ວາມ	-100
ch	-101
▁có	-102
່ນ	-103
າກ	-104
▁ຕ	-105
▁ການ	-106
ại	-107
ສະ	-108
▁L	-109
ັກ	-110
▁ອ	-111
▁ທີ່	-112
ວກ	-113
ວ່າ	-114
ົ້າ	-115
▁(	-116
ໃຫ	-117
▁ທ	-118
ar	-119
ຫນ	-120
▁ບ	-121
ປັນ	-122
▁ລ	-123
ược	-124
uy	-125
▁A	-126
en	-127
ôi	-128
▁D	-129
01	-130
ູ້	-131
▁được	-132
▁cho	-133
ình	-134
or	-135
es	-136
iề	-137
▁-	-138
▁V	-139
▁ຂ	-140
▁,	-141
ười	-142
່ານ	-143
at	-144
▁trong	-145
າງ	-146
▁G	-147
▁/	-148
úng	-149
▁Đ	-150
▁ໄດ້	-151
ang	-152
▁ໃນ	-153
ີ້	-154
ạn	-155
▁Ch	-156
ày	-157
ໃຫ້	-158
al	-159
▁ຊ	-160
ay	-161
iên	-162
່ວ	-163
▁K	-164
▁đã	-165
▁người	-166
▁ຂອງ	-167
▁Th	-168
ững	-169
ມີ	-170
▁với	-171
ອກ	-172
▁R	-173
ົດ	-174
ai	-175
▁ngh	-176
▁ໂ	-177
ແລະ	-178
am	-179
..	-180
ao	-181
ເຮ	-182
▁không	-183
ân	-184
iện	-185
▁tôi	-186
ຫຼ	-187
▁201	-188
ຸດ	-189
▁3	-190
iều	-191
ິນ	-192
ản	-193
ັ້ນ	-194
ູ່	-195
ải	-196
▁ຮ	-197
ướ	-198
▁những	-199
ung	-200
ື່ອ	-201
▁chúng	-202
▁Tr	-203
້ອງ	-204
ົງ	-205
▁F	-206
າວ	-207
▁để	-208
as	-209
▁họ	-210
▁ເຮ	-211
ần	-212
ຈົ້າ	-213
▁ຜ	-214
ic	-215
▁thể	-216
ຄວາມ	-217
le	-218
ມ່ນ	-219
່າງ	-220
▁ຄວາມ	-221
anh	-222
iể	-223
້ອ	-224
ành	-225
ະນ	-226
▁bạn	-227
▁ໄ	-228
ầu	-229
ực	-230
▁độ	-231
it	-232
ến	-233
ing	-234
ol	-235
ຈະ	-236
▁ho	-237
ເປັນ	-238
iết	-239
ພາ	-240
et	-241
ຢູ່	-242
▁E	-243
ິ່ງ	-244
ະລ	-245
ro	-246
ິງ	-247
ận	-248
ước	-249
ອບ	-250
uố	-251
ài	-252
ົວ	-253
ươ	-254
el	-255
່ຽ	-256
▁ສະ	-257
ac	-258
inh	-259
▁I	-260
áng	-261
ໍາລ	-262
ằng	-263
▁nă	-264
àn	-265
▁ດ	-266
ຫລ	-267
▁này	-268
▁ໃ	-269
em	-270
st	-271
▁ຫນ	-272
▁ມີ	-273
ời	-274
ức	-275
▁W	-276
ây	-277
▁5	-278
▁ປ	-279
▁ເປັນ	-280
ường	-281
▁ວ	-282
om	-283
ương	-284
ật	-285
▁ປະ	-286
້ງ	-287
▁cả	-288
ົບ	-289
áy	-290
▁4	-291
ຖື	-292
ính	-293
ເຂ	-294
▁như	-295
ື່ອງ	-296
ống	-297
▁ຈະ	-298
▁nó	-299
àng	-300
▁đó	-301
▁công	-302
ຫມ	-303
ເພ	-304
ດຍ	-305
ết	-306
ກັບ	-307
ເລ	-308
▁sự	-309
ed	-310
▁ຍ	-311
au	-312
ou	-313
áo	-314
ối	-315
ot	-316
▁ພວກ	-317
ົມ	-318
ơn	-319
▁về	-320
▁Q	-321
ຕ່	-322
▁sẽ	-323
ລິ	-324
ີນ	-325
▁làm	-326
▁ta	-327
ຈາກ	-328
▁đến	-329
▁dụ	-330
át	-331
▁từ	-332
ບໍ່	-333
▁Nh	-334
id	-335
ຊ້	-336
▁khi	-337
ấy	-338
ວນ	-339
▁ບໍ່	-340
▁nhà	-341
ập	-342
iệu	-343
▁vào	-344
oại	-345
▁ເຮົາ	-346
ີດ	-347
ູນ	-348
iệc	-349
ພວກ	-350
ງານ	-351
ặc	-352
່ມ	-353
ແມ່ນ	-354
▁ở	-355
▁ເຈົ້າ	-356
▁ra	-357
▁ໃຫ້	-358
ຖືກ	-359
້ອຍ	-360
▁ເຂ	-361
ad	-362
▁6	-363
il	-364
ເຮົາ	-365
ໍາລັບ	-366
ຸກ	-367
eo	-368
▁bị	-369
ຢ່າງ	-370
ມື	-371
▁khác	-372
▁U	-373
ເວ	-374
ັ້ງ	-375
ສາ	-376
▁ເພ	-377
ấp	-378
ích	-379
ội	-380
ລາ	-381
ter	-382
êu	-383
is	-384
້າງ	-385
▁ຜູ້	-386
▁trên	-387
▁việc	-388
ພະ	-389
ຶ່ງ	-390
າມາດ	-391
▁O	-392
ຮັບ	-393
▁J	-394
ào	-395
ໍ້	-396
ur	-397
▁ຄົນ	-398
▁thu	-399
...	-400
iến	-401
ໄປ	-402
່າວ	-403
▁điều	-404
▁mà	-405
án	-406
▁số	-407
ộc	-408
ທ່ານ	-409
▁năm	-410
▁dụng	-411
▁động	-412
ເຊ	-413
ົກ	-414
ະລິດ	-415
▁rằng	-416
ຕະ	-417
▁ກັບ	-418
oo	-419
▁8	-420
▁ວ່າ	-421
▁_	-422
ượng	-423
▁ຫຼ	-424
ền	-425
▁đầu	-426
ເທ	-427
ục	-428
ເຄ	-429
mm	-430
ເສ	-431
ia	-432
▁ທ່ານ	-433
▁máy	-434
ái	-435
ບັນ	-436
▁Ph	-437
▁.	-438
▁thành	-439
▁ຖ	-440
uất	-441
ຜູ້	-442
▁tại	-443
ມາ	-444
▁Ng	-445
ổi	-446
ùng	-447
້ວ	-448
ion	-449
ຶກ	-450
ພາບ	-451
òng	-452
▁chuy	-453
▁sản	-454
ຽງ	-455
▁X	-456
re	-457
000	-458
im	-459
▁nghiệ	-460
▁chỉ	-461
▁hàng	-462
ịch	-463
iệt	-464
ຕິ	-465
▁ຫລ	-466
ứng	-467
ảo	-468
ໃຊ້	-469
ຊີ	-470
ຸນ	-471
ເຮັດ	-472
ເຈົ້າ	-473
ag	-474
ạo	-475
▁7	-476
ັ່ງ	-477
ăng	-478
âu	-479
ຽນ	-480
and	-481
ທາງ	-482
▁hơn	-483
ánh	-484
▁...	-485
▁thế	-486
áp	-487
ຕໍ່	-488
▁Kh	-489
▁phải	-490
▁to	-491
▁ເລ	-492
▁quan	-493
ໍລິ	-494
▁gia	-495
ig	-496
▁học	-497
▁ນີ້	-498
▁0	-499
▁ແຕ່	-500
ນີ້	-501
▁y	-502
ຄົນ	-503
ảng	-504
້ານ	-505
▁10	-506
ສາມາດ	-507
▁cách	-508
▁ແມ່ນ	-509
ອດ	-510
▁$	-511
ơi	-512
us	-513
ວຍ	-514
▁ໄປ	-515
▁ຂ້າ	-516
▁Gi	-517
ắt	-518
ດີ	-519
່ອນ	-520
ຜະລິດ	-521
ạt	-522
ເຫ	-523
ồng	-524
ốc	-525
ăn	-526
ack	-527
ື່ນ	-528
20	-529
▁hình	-530
ຖິງ	-531
ặt	-532
ow	-533
▁ເຄ	-534
່ວນ	-535
uộc	-536
ບບ	-537
▁đị	-538
▁quy	-539
▁nhất	-540
▁nhiều	-541
▁sử	-542
ເຕ	-543
▁9	-544
▁ngày	-545
ເກ	-546
▁ເຊ	-547
ພວກເຮົາ	-548
▁lại	-549
ưở	-550
▁xuất	-551
▁cấp	-552
ent	-553
ách	-554
▁tiế	-555
ົ້ນ	-556
ືອນ	-557
▁ມັນ	-558
ພັນ	-559
ໍານ	-560
iển	-561
úc	-562
ũng	-563
ưởng	-564
ợp	-565
▁w	-566
▁chính	-567
eb	-568
ກະ	-569
uốc	-570
ôn	-571
▁ເຂົາ	-572
âm	-573
ຸມ	-574
▁hoặc	-575
▁ຢູ່	-576
ct	-577
iểm	-578
ສຸດ	-579
ອາ	-580
ຶ້ນ	-581
ẩm	-582
▁cao	-583
ສໍາລັບ	-584
▁do	-585
ປະກ	-586
▁ເຮັດ	-587
▁mình	-588
▁con	-589
▁ລະ	-590
ສະຫນ	-591
ວກັບ	-592
ໂດຍ	-593
ໃຈ	-594
▁lượng	-595
ູບ	-596
▁nói	-597
▁ຈາກ	-598
▁thông	-599
ຮງ	-600
ir	-601
50	-602
ess	-603
un	-604
ắc	-605
▁hợp	-606
▁cũng	-607
ip	-608
ຫາ	-609
ຖານ	-610
ມ່	-611
ấn	-612
ເນ	-613
▁nhận	-614
▁&	-615
▁in	-616
ເມ	-617
ູງ	-618
ຂະ	-619
ດ້ວຍ	-620
່າຍ	-621
▁ເວ	-622
່ຽວກັບ	-623
os	-624
ົ່ງ	-625
▁theo	-626
ອອກ	-627
▁20	-628
▁ຫມ	-629
ື້ນ	-630
▁ໂດຍ	-631
ine	-632
▁kho	-633
com	-634
ູກ	-635
▁đang	-636
ວິ	-637
ີ່ມ	-638
ọng	-639
▁Các	-640
ຍາ	-641
▁thực	-642
ທະ	-643
ếu	-644
▁thấy	-645
▁dự	-646
▁ນັ້ນ	-647
▁*	-648
ẫn	-649
▁nào	-650
ເຂົາ	-651
▁Co	-652
▁nhân	-653
້າຍ	-654
▁năng	-655
ີກ	-656
▁tin	-657
▁Y	-658
▁tuy	-659
▁phẩm	-660
▁đề	-661
ບໍລິ	-662
▁hiện	-663
້ໍາ	-664
▁St	-665
▁200	-666
▁phát	-667
▁“	-668
th	-669
▁tháng	-670
▁Trung	-671
▁biết	-672
ກໍາ	-673
ເທດ	-674
▁cuộc	-675
ຕ້ອງ	-676
▁nước	-677
ທໍາ	-678
▁Quốc	-679
▁em	-680
ືນ	-681
ໂລ	-682
▁vụ	-683
ກິດ	-684
-1	-685
um	-686
ຽກ	-687
▁ông	-688
້ມ	-689
ọc	-690
ກັນ	-691
ຫຼາຍ	-692
ởi	-693
▁+	-694
▁ສໍາ	-695
ap	-696
▁nghiệp	-697
▁viên	-698
▁f	-699
ທີ່ມີ	-700
▁loại	-701
▁–	-702
ວດ	-703
ép	-704
▁ເມ	-705
▁ເພື່ອ	-706
ຂໍ້	-707
▁thời	-708
▁điện	-709
ພິ	-710
▁phí	-711
▁bằng	-712
▁19	-713
ຕັ້ງ	-714
▁2018	-715
ຫະ	-716
ốt	-717
ມັນ	-718
ul	-719
ໄດ້ຮັບ	-720
ວິດ	-721
▁ພະ	-722
▁định	-723
▁thiết	-724
▁kết	-725
iễ	-726
ăm	-727
▁ໃຈ	-728
ແບບ	-729
▁ຂ້າພະ	-730
ວັນ	-731
▁giới	-732
▁liệu	-733
▁In	-734
▁lớ	-735
▁ເກ	-736
lo	-737
iền	-738
ເອ	-739
▁cơ	-740
ທິ	-741
▁ມາ	-742
iêu	-743
ນະ	-744
ỗi	-745
▁hành	-746
▁12	-747
ເຂົ້າ	-748
ab	-749
▁ເຄື່ອງ	-750
ເດ	-751
ຫຍ	-752
ປີ	-753
▁vì	-754
ລ້ວ	-755
▁lý	-756
▁đi	-757
ọi	-758
▁ຄໍາ	-759
ືອ	-760
op	-761
▁tiếp	-762
▁ກໍ	-763
of	-764
▁mạ	-765
▁>	-766
▁lu	-767
ຫນ້າ	-768
ິກ	-769
▁giá	-770
▁qua	-771
▁trường	-772
່ວຍ	-773
ຍ່	-774
▁ອາ	-775
▁cứ	-776
iểu	-777
iv	-778
▁ຕໍ່	-779
▁trình	-780
▁ເຫ	-781
▁cung	-782
ໄລ	-783
▁Sh	-784
êm	-785
ຖະ	-786
ະນະ	-787
▁ຫນ້າ	-788
ຕົວ	-789
ທີ່ຈະ	-790
ữa	-791
▁sau	-792
▁tạo	-793
່ຽວ	-794
ເພື່ອ	-795
ັ່ນ	-796
ບັດ	-797
ນັ້ນ	-798
▁ລາວ	-799
▁hai	-800
▁đồng	-801
▁toàn	-802
ut	-803
▁cầu	-804
▁hội	-805
ການສ	-806
▁tự	-807
ເບ	-808
ົ່ວ	-809
iễn	-810
▁ຢ	-811
່ວມ	-812
▁tế	-813
ທັງ	-814
ແນ	-815
ສັດ	-816
ໃຫຍ່	-817
ດງ	-818
▁ເດ	-819
ấu	-820
▁11	-821
ộng	-822
.0	-823
▁Chúng	-824
▁hệ	-825
▁phần	-826
ສູງ	-827
▁mới	-828
ະນາ	-829
▁ເຖິງ	-830
201	-831
ມູນ	-832
ảnh	-833
▁tất	-834
ົ່າ	-835
▁gì	-836
▁ເສ	-837
ຣະ	-838
▁tính	-839
ຜົນ	-840
ck	-841
ện	-842
▁ty	-843
▁trước	-844
▁15	-845
້ອນ	-846
▁Z	-847
ຫານ	-848
▁tu	-849
ສ່ວນ	-850
▁gian	-851
▁anh	-852
ạc	-853
▁ສໍາລັບ	-854
one	-855
▁bởi	-856
▁thứ	-857
▁ວິ	-858
▁báo	-859
.1	-860
ຕະພັນ	-861
ain	-862
ຽດ	-863
▁bộ	-864
ິ່ນ	-865
▁ເອ	-866
ເພດ	-867
ມືອງ	-868
▁lớn	-869
▁đối	-870
uốn	-871
▁liên	-872
ưa	-873
▁chất	-874
▁ສິ່ງ	-875
ຕາມ	-876
ກ່າວ	-877
▁đây	-878
ເງ	-879
ຕາ	-880
ers	-881
ຮູ້	-882
ປະເທດ	-883
▁bao	-884
▁ຮູ້	-885
▁tốt	-886
igh	-887
▁ຢ່າງ	-888
▁rất	-889
▁cùng	-890
▁kinh	-891
▁dịch	-892
ນໍາ	-893
ậy	-894
▁sống	-895
▁trang	-896
ເວລາ	-897
▁ກັນ	-898
ໃນການ	-899
ແຕ່	-900
ຸ່ມ	-901
ລົງ	-902
ỏi	-903
▁ຮັບ	-904
▁Qu	-905
▁ປີ	-906
▁bảo	-907
ສ້າງ	-908
▁cần	-909
▁ບັນ	-910
ເຫັນ	-911
ra	-912
ແກ	-913
ກ່ຽວກັບ	-914
óa	-915
ແດງ	-916
▁trọng	-917
ສໍາ	-918
òn	-919
▁Một	-920
▁Máy	-921
ເຄື່ອງ	-922
út	-923
ຊາ	-924
▁bản	-925
▁nhưng	-926
ust	-927
ìm	-928
ex	-929
ợi	-930
▁ໃດ	-931
ສິດ	-932
▁tài	-933
ie	-934
▁sinh	-935
ີຍ	-936
ວງ	-937
ອຍ	-938
ắn	-939
▁US	-940
art	-941
ຫນາດ	-942
ak	-943
▁thống	-944
ọn	-945
▁yêu	-946
ist	-947
▁nghĩ	-948
▁ທາງ	-949
▁Công	-950
ắng	-951
ພາະ	-952
▁thoại	-953
▁chủ	-954
▁ຫນຶ່ງ	-955
▁giờ	-956
est	-957
ີ່	-958
ep	-959
ືອກ	-960
30	-961
ຍັງ	-962
ອື່ນ	-963
od	-964
▁ຖືກ	-965
ảm	-966
ển	-967
óng	-968
av	-969
▁đổi	-970
ian	-971
▁cảm	-972
▁ảnh	-973
▁tổ	-974
ໄວ	-975
▁chức	-976
▁An	-977
ຮ່ວມ	-978
▁ນໍາ	-979
▁Và	-980
ướng	-981
▁cứu	-982
▁100	-983
▁ເມື່ອ	-984
▁bất	-985
▁giải	-986
ụi	-987
ຊົນ	-988
.5	-989
▁dân	-990
▁lực	-991
ື່ອນ	-992
ua	-993
ồi	-994
ຫວ	-995
10	-996
ight	-997
ຸ່ນ	-998
ino	-999
▁lên	-1000
▁ຕົວ	-1001
▁2017	-1002
ອມ	-1003
່ຽນ	-1004
▁Tháng	-1005
ອິດ	-1006
ard	-1007
ສານ	-1008
ate	-1009
▁lo	-1010
▁khu	-1011
ຫມາຍ	-1012
▁bắt	-1013
້ອມ	-1014
▁lời	-1015
if	-1016
ຄ້າ	-1017
ẩn	-1018
▁quyền	-1019
úp	-1020
▁chị	-1021
▁ກະ	-1022
▁triển	-1023
ຄໍາ	-1024
ສົມ	-1025
▁bụi	-1026
ຈັດ	-1027
co	-1028
່ອງ	-1029
▁2019	-1030
ື້	-1031
ລັດ	-1032
úi	-1033
▁dẫn	-1034
ຂຶ້ນ	-1035
ຕ່າງ	-1036
ເປ	-1037
ib	-1038
ark	-1039
ຜ່ານ	-1040
ທີ່ສຸດ	-1041
ໃຫມ່	-1042
▁quốc	-1043
▁muốn	-1044
ửa	-1045
ມະ	-1046
ສິ່ງ	-1047
▁tâm	-1048
▁ຫຼື	-1049
▁thức	-1050
ດາ	-1051
ສົ່ງ	-1052
▁30	-1053
ໂນ	-1054
▁ແນ	-1055
▁điểm	-1056
▁Pro	-1057
▁truy	-1058
▁đường	-1059
▁xe	-1060
ລາຍ	-1061
▁ເທ	-1062
).	-1063
ເຫຼ	-1064
ດ້ານ	-1065
86	-1066
▁ຊີ	-1067
▁tình	-1068
▁ຂຶ້ນ	-1069
ưu	-1070
▁ເບ	-1071
ກໍ່	-1072
▁tiền	-1073
ເຕີ	-1074
ຮູບ	-1075
▁ý	-1076
▁nên	-1077
ແຂ	-1078
ວມ	-1079
att	-1080
ລາວ	-1081
ໃດ	-1082
ວຽກ	-1083
ັດທ	-1084
▁kế	-1085
▁hiệu	-1086
▁"	-1087
▁thương	-1088
▁tìm	-1089
ຕີ	-1090
▁ແລ້ວ	-1091
▁mặt	-1092
ຈໍາ	-1093
▁ທໍາ	-1094
ແຕ	-1095
ຢູ່ໃນ	-1096
ub	-1097
ồn	-1098
▁trợ	-1099
ໂຄ	-1100
▁thuật	-1101
ét	-1102
ảy	-1103
▁ຖ້າ	-1104
.2	-1105
▁thị	-1106
ຂອງທ່ານ	-1107
80	-1108
▁Trong	-1109
ຄິດ	-1110
▁khí	-1111
▁ຂະ	-1112
▁quả	-1113
▁ໃຊ້	-1114
▁:	-1115
ໄຟ	-1116
ám	-1117
▁16	-1118
ail	-1119
▁đo	-1120
ill	-1121
asino	-1122
▁nhau	-1123
▁sáng	-1124
▁ດ້ວຍ	-1125
iz	-1126
▁ຫລາຍ	-1127
▁sách	-1128
uyên	-1129
ຂໍ້ມູນ	-1130
▁lập	-1131
▁vị	-1132
▁ດີ	-1133
▁Tôi	-1134
▁trở	-1135
ທລະ	-1136
▁ເຂົ້າ	-1137
ການປ	-1138
ຂອງພວກເຮົາ	-1139
▁nhiên	-1140
▁ທັງ	-1141
-2	-1142
og	-1143
▁tác	-1144
ຫມົດ	-1145
ອົງ	-1146
▁ứng	-1147
td	-1148
▁thường	-1149
▁vật	-1150
ຽມ	-1151
▁trị	-1152
▁ຕາມ	-1153
te	-1154
▁ຕ້ອງ	-1155
▁doanh	-1156
ຫນຶ່ງ	-1157
▁giúp	-1158
),	-1159
▁tiên	-1160
▁pháp	-1161
ວ່າງ	-1162
ຄາ	-1163
▁[	-1164
ເງິນ	-1165
ປະຕິ	-1166
ລະບ	-1167
ry	-1168
▁tư	-1169
▁ພາ	-1170
up	-1171
ation	-1172
ນາ	-1173
ສັບ	-1174
ສຶກ	-1175
▁Nam	-1176
ob	-1177
▁ລາ	-1178
▁thì	-1179
ạch	-1180
ສ່	-1181
▁ພວກເຮົາ	-1182
ກົດ	-1183
▁ລູກ	-1184
▁hoạt	-1185
▁ພຣະ	-1186
ໍານວນ	-1187
ấm	-1188
eng	-1189
ກາ	-1190
ໍາລັງ	-1191
ຕິດ	-1192
▁trực	-1193
▁trung	-1194
▁tập	-1195
▁18	-1196
▁nghiệm	-1197
▁hoàn	-1198
ດັບ	-1199
ew	-1200
ຫລາຍ	-1201
ôm	-1202
▁còn	-1203
▁vậy	-1204
ເຖິງ	-1205
▁giao	-1206
▁ấy	-1207
ຈັກ	-1208
▁ລັບ	-1209
ສອງ	-1210
oh	-1211
▁nay	-1212
ອື່ນໆ	-1213
▁24	-1214
ເຈ	-1215
▁tiêu	-1216
▁chu	-1217
ãy	-1218
60	-1219
▁vấn	-1220
ເສດ	-1221
▁25	-1222
▁vực	-1223
▁giáo	-1224
ພວກເຂົາ	-1225
▁lọc	-1226
▁bay	-1227
▁khách	-1228
ື້ອ	-1229
iê	-1230
▁ຟ	-1231
າກາດ	-1232
▁chuyển	-1233
pe	-1234
▁kỳ	-1235
ສາດ	-1236
ệnh	-1237
▁ສາ	-1238
▁đặt	-1239
ປະກອນ	-1240
ເຮັດໃຫ້	-1241
all	-1242
▁Ltd	-1243
ồm	-1244
ຸປະກອນ	-1245
▁50	-1246
ທໍາອິດ	-1247
▁ເຫັນ	-1248
ệt	-1249
▁thay	-1250
11	-1251
ຫ່ງ	-1252
ຕົ້ນ	-1253
ast	-1254
▁Bộ	-1255
ນ້ໍາ	-1256
▁Pr	-1257
ແປ	-1258
ຕອນ	-1259
ຂ້າ	-1260
▁ຫາ	-1261
▁bu	-1262
▁web	-1263
ຊາດ	-1264
▁14	-1265
iếu	-1266
▁gồm	-1267
▁tăng	-1268
▁ທຸກ	-1269
▁ສຸດ	-1270
ສິນ	-1271
ທະຍາ	-1272
ສາຫະ	-1273
ຽວ	-1274
▁ວັນ	-1275
ver	-1276
▁Nhà	-1277
99	-1278
ອາດ	-1279
▁£	-1280
▁13	-1281
ui	-1282
▁ຈີນ	-1283
▁tham	-1284
sh	-1285
▁ອອກ	-1286
ທຸກ	-1287
ມານ	-1288
ຂອງການ	-1289
າະ	-1290
se	-1291
▁ກໍາ	-1292
ໂລກ	-1293
ຫວ່າງ	-1294
ຫລດ	-1295
NG	-1296
▁nơi	-1297
oài	-1298
ຄວ	-1299
ຮຽນ	-1300
▁nghệ	-1301
ັງຈາກ	-1302
▁2016	-1303
▁ຫຼາຍ	-1304
ắp	-1305
ind	-1306
ell	-1307
▁ດາວ	-1308
ựa	-1309
ik	-1310
oft	-1311
▁bỏ	-1312
▁chế	-1313
▁phụ	-1314
▁an	-1315
ຄື	-1316
ຍະ	-1317
▁phân	-1318
lu	-1319
ce	-1320
▁chơi	-1321
ment	-1322
ແທ	-1323
▁bố	-1324
▁xem	-1325
ທິດ	-1326
▁USD	-1327
▁so	-1328
ạng	-1329
▁phố	-1330
▁17	-1331
▁mạnh	-1332
12	-1333
uối	-1334
iệm	-1335
▁ໂລ	-1336
▁ຂໍ້	-1337
ຈຸ	-1338
ຄະ	-1339
▁ເດືອນ	-1340
ຊີວິດ	-1341
ທລະສັບ	-1342
▁chứng	-1343
ຜະລິດຕະພັນ	-1344
▁ສາມາດ	-1345
▁st	-1346
ord	-1347
▁hóa	-1348
ừng	-1349
▁thủ	-1350
▁Al	-1351
▁ແຜ	-1352
ity	-1353
ຊ່ວຍ	-1354
ort	-1355
▁hay	-1356
▁chọn	-1357
▁ໄວ	-1358
1,	-1359
▁biệt	-1360
ຊຸມ	-1361
▁ăn	-1362
▁ຮູບ	-1363
ເມືອງ	-1364
ນາມ	-1365
ạm	-1366
▁tay	-1367
ໄຂ	-1368
▁nếu	-1369
ric	-1370
ey	-1371
▁#	-1372
ies	-1373
ເກີດ	-1374
▁Mỹ	-1375
ງການ	-1376
ant	-1377
▁sao	-1378
່ອຍ	-1379
▁cáo	-1380
ưới	-1381
ẳng	-1382
ູດ	-1383
iêng	-1384
▁chuyện	-1385
ຄັນ	-1386
▁phòng	-1387
▁Điện	-1388
ິວ	-1389
▁ເຊິ່ງ	-1390
▁tiết	-1391
▁cái	-1392
ín	-1393
ໂຫລດ	-1394
40	-1395
ຂ້ອຍ	-1396
▁ອີ	-1397
▁kiện	-1398
ໄຊ	-1399
ach	-1400
ສີ	-1401
▁ຫວ	-1402
óc	-1403
▁lòng	-1404
ແລ	-1405
▁mọi	-1406
ນໍາໃຊ້	-1407
ox	-1408
▁tuyến	-1409
ຕ້ອງການ	-1410
▁ອາດ	-1411
▁lần	-1412
ຽບ	-1413
▁thích	-1414
ຄ່າ	-1415
▁ທີ	-1416
▁ຄື	-1417
ly	-1418
ບານ	-1419
ສະແດງ	-1420
ຄົ້ນ	-1421
▁ຂ້າພະເຈົ້າ	-1422
ຟ້າ	-1423
▁nghiên	-1424
ກວ່າ	-1425
▁'	-1426
▁ບາງ	-1427
▁đình	-1428
▁đại	-1429
▁ຊື່	-1430
▁chiến	-1431
ຕ້	-1432
ອາກາດ	-1433
ັດທະນາ	-1434
ພື້ນ	-1435
▁phương	-1436
45	-1437
ưng	-1438
XL	-1439
▁ນາງ	-1440
▁ເບິ່ງ	-1441
▁quá	-1442
▁Châu	-1443
▁mục	-1444
▁Ho	-1445
▁sát	-1446
ເພີ່ມ	-1447
▁phục	-1448
▁miễn	-1449
ລົດ	-1450
ເຫນ	-1451
▁ສ່ວນ	-1452
ເສຍ	-1453
▁ດັ່ງ	-1454
▁kỹ	-1455
▁trí	-1456
ທັງຫມົດ	-1457
ເຊື່ອ	-1458
▁xác	-1459
pr	-1460
ạy	-1461
hi	-1462
▁quyết	-1463
.3	-1464
ທານ	-1465
▁mỗi	-1466
ຸງ	-1467
ປະຕິບັດ	-1468
ແຜ	-1469
▁ຈໍາ	-1470
▁đánh	-1471
ầm	-1472
▁sở	-1473
▁ເພາະ	-1474
▁ສີ	-1475
▁bình	-1476
ບໍລິການ	-1477
▁and	-1478
ເລືອກ	-1479
ພາກ	-1480
SO	-1481
▁hướng	-1482
ash	-1483
▁gọi	-1484
▁ba	-1485
▁Ngài	-1486
▁cụ	-1487
ook	-1488
ນ໌	-1489
uống	-1490
ຮັກ	-1491
▁Nó	-1492
ິ້ນ	-1493
▁thước	-1494
áu	-1495
per	-1496
ດິນ	-1497
iếm	-1498
ລີ	-1499
▁ຍັງ	-1500
▁ລາຍ	-1501
▁bán	-1502
▁hỏi	-1503
ແລະການ	-1504
ບາຍ	-1505
▁biến	-1506
▁Bạn	-1507
ມີຄວາມ	-1508
▁ປະເພດ	-1509
▁ເລື່ອງ	-1510
ພະຍ	-1511
▁ຝ	-1512
ຫັດ	-1513
▁Những	-1514
ນ້ອຍ	-1515
▁đưa	-1516
▁kiểm	-1517
ມ້	-1518
òa	-1519
▁đơn	-1520
ầy	-1521
ົ່ານ	-1522
ທົ່ວ	-1523
▁chi	-1524
▁Ar	-1525
▁ຮັກ	-1526
,000	-1527
ລະກິດ	-1528
attoo	-1529
▁thêm	-1530
▁trò	-1531
ພິມ	-1532
ດັ່ງ	-1533
15	-1534
ຫຼື	-1535
▁ນັກ	-1536
▁Việt	-1537
ເຮັດວຽກ	-1538
▁tra	-1539
▁ຜະລິດ	-1540
óm	-1541
ຊື່	-1542
▁phép	-1543
ໃສ່	-1544
▁dữ	-1545
ຸດສາຫະ	-1546
▁truyền	-1547
ພຽງ	-1548
▁rộng	-1549
▁bên	-1550
▁di	-1551
▁Trang	-1552
Ch	-1553
▁đạo	-1554
▁đặc	-1555
25	-1556
▁án	-1557
▁tục	-1558
ev	-1559
àu	-1560
ạnh	-1561
▁cố	-1562
▁xét	-1563
-5	-1564
ມັດ	-1565
ຽດນາມ	-1566
ຄຸນ	-1567
▁ເຕ	-1568
▁câu	-1569
▁trẻ	-1570
▁ແກ	-1571
▁tải	-1572
ແຮງ	-1573
▁hạn	-1574
▁tới	-1575
ະລັງ	-1576
ຂື້ນ	-1577
▁ຫລື	-1578
lect	-1579
▁ເອົາ	-1580
▁nhỏ	-1581
ຕັດ	-1582
▁Anh	-1583
▁áp	-1584
yl	-1585
ph	-1586
ລູກ	-1587
▁ກ່າວ	-1588
ìn	-1589
▁lã	-1590
▁Hack	-1591
▁ຂ້ອຍ	-1592
ທີການ	-1593
ນັກ	-1594
▁ເກີດ	-1595
▁ແທ	-1596
ເຂດ	-1597
zh	-1598
cm	-1599
▁vệ	-1600
▁Nếu	-1601
ສັນ	-1602
▁tích	-1603
▁ອີກ	-1604
ບໍລິສັດ	-1605
າລະ	-1606
ina	-1607
ass	-1608
ທີ່ດີ	-1609
ໄພ	-1610
ເຫດ	-1611
ທົບ	-1612
▁ເພິ່ນ	-1613
ẫu	-1614
ຄົມ	-1615
ứa	-1616
▁cảnh	-1617
▁chương	-1618
▁chuyên	-1619
ax	-1620
ປະກອບ	-1621
▁dựng	-1622
▁nữ	-1623
act	-1624
ổng	-1625
▁địa	-1626
▁gần	-1627
16	-1628
75	-1629
▁ngoài	-1630
ile	-1631
ov	-1632
▁hộ	-1633
-0	-1634
▁thanh	-1635
ໄດ້ຮັບການ	-1636
▁40	-1637
ັມ	-1638
▁ງ	-1639
▁chống	-1640
▁Điều	-1641
ຸລະກິດ	-1642
▁ແນວ	-1643
▁©	-1644
age	-1645
▁Pl	-1646
▁ຊີວິດ	-1647
▁cuối	-1648
▁tiếng	-1649
dro	-1650
19	-1651
▁ຂະຫນາດ	-1652
ຂະຫນາດ	-1653
▁chuẩn	-1654
ວາງ	-1655
▁vi	-1656
▁ເວົ້າ	-1657
ຸດສາຫະກໍາ	-1658
▁tử	-1659
ເອົາ	-1660
▁xăm	-1661
▁tiến	-1662
ff	-1663
ສະຫນອງ	-1664
▁tương	-1665
bo	-1666
ພາຍ	-1667
▁khả	-1668
eat	-1669
let	-1670
▁ຕິດ	-1671
ສົບ	-1672
▁60	-1673
ive	-1674
▁tưởng	-1675
▁ນ້ໍາ	-1676
ີມ	-1677
ຊາຍ	-1678
▁đất	-1679
ອບຄ	-1680
▁ban	-1681
▁nữa	-1682
are	-1683
▁Ro	-1684
▁ອັນ	-1685
▁ແບບ	-1686
▁màu	-1687
▁thật	-1688
ພັດທະນາ	-1689
ຍິງ	-1690
ĩnh	-1691
ຄັ້ງ	-1692
▁Col	-1693
ລັດຖະ	-1694
ide	-1695
ຶນ	-1696
▁ບໍລິ	-1697
▁cá	-1698
▁bài	-1699
ັບໄຊ	-1700
our	-1701
▁ເມືອງ	-1702
▁dài	-1703
ມີການ	-1704
▁Un	-1705
▁ກ່ຽວກັບ	-1706
.6	-1707
▁Hội	-1708
ແລ້ວ	-1709
35	-1710
ໂຮງ	-1711
ສະຫ	-1712
▁ເວລາ	-1713
▁quản	-1714
▁ອື່ນ	-1715
ặp	-1716
▁ກ່ຽວ	-1717
ah	-1718
ໂມ	-1719
▁i	-1720
▁cô	-1721
▁túi	-1722
ói	-1723
ສິ	-1724
▁Â	-1725
ທົດ	-1726
▁ຕາ	-1727
▁Đại	-1728
ich	-1729
ick	-1730
▁sĩ	-1731
▁ສ້າງ	-1732
▁ຜະລິດຕະພັນ	-1733
uyện	-1734
▁lưu	-1735
▁lịch	-1736
der	-1737
▁xây	-1738
ສະຖານ	-1739
▁đều	-1740
ຂ້າພະ	-1741
ສໍາລັບການ	-1742
▁minh	-1743
ຈໍານວນ	-1744
oc	-1745
▁ໂທລະສັບ	-1746
▁ລິ	-1747
▁ຕອນ	-1748
ໍາເນ	-1749
▁đội	-1750
▁giữa	-1751
ກໍາລັງ	-1752
ít	-1753
▁khoản	-1754
ite	-1755
ຄືນ	-1756
▁tối	-1757
ຂາຍ	-1758
ềm	-1759
▁vô	-1760
▁tuổi	-1761
▁ຄິດ	-1762
70	-1763
▁dùng	-1764
▁Con	-1765
ເບິ່ງ	-1766
▁mở	-1767
▁Khi	-1768
▁ອົງ	-1769
ຈິງ	-1770
▁bệnh	-1771
eg	-1772
ໂຕ	-1773
▁dục	-1774
▁tức	-1775
▁22	-1776
▁Cl	-1777
▁ISO	-1778
ei	-1779
ish	-1780
▁Có	-1781
▁Mark	-1782
ຂີ້	-1783
▁ງານ	-1784
▁ແມ່	-1785
13	-1786
▁sức	-1787
ກາງ	-1788
ະລັດ	-1789
ໍາເນີນ	-1790
▁2015	-1791
pt	-1792
▁<	-1793
▁ເຫດ	-1794
▁Min	-1795
ະລັງງານ	-1796
▁ໂລກ	-1797
ữu	-1798
ideo	-1799
ທຸລະກິດ	-1800
▁khoảng	-1801
ແປງ	-1802
▁ống	-1803
▁giữ	-1804
▁En	-1805
▁Casino	-1806
ຝຸ່ນ	-1807
▁tinh	-1808
ເກັບ	-1809
ລະບົບ	-1810
▁ພິ	-1811
▁lợi	-1812
ãi	-1813
ec	-1814
▁dễ	-1815
-3	-1816
ກາຍ	-1817
▁°	-1818
ກອງ	-1819
ຸ້ມ	-1820
ຮ້ອງ	-1821
▁nhìn	-1822
▁Man	-1823
▁mềm	-1824
oun	-1825
▁hỗ	-1826
▁trả	-1827
ໂອ	-1828
▁by	-1829
.000	-1830
▁cập	-1831
▁ຜົນ	-1832
ະນໍາ	-1833
ction	-1834
▁ຫມົດ	-1835
▁thép	-1836
▁mô	-1837
▁New	-1838
▁mang	-1839
▁ໂຮງ	-1840
▁Te	-1841
າຍາມ	-1842
ທຶນ	-1843
▁thư	-1844
ບາງ	-1845
▁ເຫລ	-1846
▁hôm	-1847
▁luận	-1848
ert	-1849
ສຽງ	-1850
-8	-1851
▁chí	-1852
▁thuộc	-1853
▁ເອງ	-1854
ທີ່ບໍ່	-1855
▁ຫມາຍ	-1856
ອບຄົວ	-1857
▁đóng	-1858
ຜິດ	-1859
▁hữu	-1860
ບິນ	-1861
▁tuần	-1862
ຜ່ານມາ	-1863
ສັງ	-1864
▁ເງ	-1865
ກໍ	-1866
▁ເນ	-1867
▁ngay	-1868
▁ອະ	-1869
▁ລັດ	-1870
▁hiểu	-1871
▁đầy	-1872
▁ໄວ້	-1873
▁nhiệt	-1874
▁Không	-1875
ຂ້າພະເຈົ້າ	-1876
ປະຊາ	-1877
▁nghĩa	-1878
ows	-1879
ັບສະຫນ	-1880
ຄຸມ	-1881
ວັດ	-1882
▁hết	-1883
ắm	-1884
▁giảm	-1885
ps	-1886
▁No	-1887
▁ນະ	-1888
ນີ	-1889
ູມ	-1890
ỉnh	-1891
ặng	-1892
ຣີ	-1893
▁Âu	-1894
▁phủ	-1895
ຄາດ	-1896
▁danh	-1897
▁cửa	-1898
▁văn	-1899
▁trưởng	-1900
.9	-1901
ial	-1902
oly	-1903
ửi	-1904
ອີ	-1905
ຂ່າວ	-1906
ປ່ຽນ	-1907
ປົກ	-1908
ືອບ	-1909
ເລີ່ມ	-1910
▁cộng	-1911
▁Mc	-1912
▁Fl	-1913
▁chỉnh	-1914
ss	-1915
▁lúc	-1916
.4	-1917
▁thưởng	-1918
ne	-1919
ສື	-1920
▁tranh	-1921
▁chết	-1922
▁ຈິງ	-1923
ww	-1924
▁00	-1925
▁86	-1926
▁thân	-1927
ẩu	-1928
ອັນ	-1929
▁ເປ	-1930
ໄດ້ຖືກ	-1931
▁ມາດ	-1932
▁ໂຄ	-1933
ບັນດາ	-1934
ໄລຍະ	-1935
ອີກ	-1936
▁ຄຸນ	-1937
ຈຸບັນ	-1938
ເດືອນ	-1939
he	-1940
tern	-1941
ສາມ	-1942
ằm	-1943
ສອບ	-1944
▁ໄຟ	-1945
▁Wind	-1946
àm	-1947
aser	-1948
ge	-1949
▁dây	-1950
▁2014	-1951
old	-1952
▁Ô	-1953
▁ຊຶ່ງ	-1954
200	-1955
ເອງ	-1956
▁kiếm	-1957
▁viết	-1958
ượt	-1959
ເພາະ	-1960
▁vui	-1961
▁tên	-1962
ສິດທິ	-1963
ans	-1964
▁kích	-1965
▁biểu	-1966
▁Ser	-1967
ລະຫວ່າງ	-1968
▁Sp	-1969
ຂະສິດ	-1970
▁Liên	-1971
ຶດ	-1972
▁of	-1973
▁kim	-1974
▁ມື	-1975
ສາຍ	-1976
▁j	-1977
▁nhóm	-1978
▁tuyệt	-1979
▁e	-1980
▁tù	-1981
▁ທະ	-1982
▁vẫn	-1983
▁ແຜ່ນ	-1984
▁đáng	-1985
,5	-1986
▁ຫົວ	-1987
ແຫ່ງ	-1988
ລ໌	-1989
▁khỏi	-1990
▁âm	-1991
uồn	-1992
ພົບ	-1993
▁~	-1994
ສໍາຄັນ	-1995
ດັ່ງກ່າວ	-1996
ທະຍາໄລ	-1997
ສົນ	-1998
▁ký	-1999
ເຂົາເຈົ້າ	-2000
ator	-2001
ix	-2002
▁triệu	-2003
▁cử	-2004
▁nguyên	-2005
18	-2006
900	-2007
ກ່ອນ	-2008
▁ພັນ	-2009
ຕົນ	-2010
ER	-2011
▁đồ	-2012
▁ລົງ	-2013
▁»	-2014
uro	-2015
▁Com	-2016
AN	-2017
▁Đông	-2018
ເວົ້າ	-2019
ປະເພດ	-2020
▁mạng	-2021
tr	-2022
ຫນັກ	-2023
▁ຊາຍ	-2024
ED	-2025
own	-2026
▁ai	-2027
▁23	-2028
▁vài	-2029
.00	-2030
ກ້	-2031
ẵn	-2032
່ວງ	-2033
▁kiến	-2034
▁xảy	-2035
ຮັກສາ	-2036
90	-2037
▁đủ	-2038
▁đấu	-2039
ບຄຸມ	-2040
▁nhanh	-2041
pp	-2042
▁gửi	-2043
▁ວຽກ	-2044
ແຂ່ງ	-2045
ລວມ	-2046
az	-2047
ີ້ນ	-2048
▁thúc	-2049
▁ພຽງ	-2050
iếc	-2051
▁khẩu	-2052
▁luật	-2053
▁ຕັ້ງ	-2054
ừa	-2055
▁€	-2056
▁suất	-2057
▁kể	-2058
ເຫນີ	-2059
ຸ້ນ	-2060
ເຊັ່ນ	-2061
ore	-2062
ລະດັບ	-2063
▁diễn	-2064
.8	-2065
▁sẵn	-2066
▁diện	-2067
▁Tải	-2068
▁nhập	-2069
ens	-2070
ຍາດ	-2071
▁xuống	-2072
▁xung	-2073
ດໍາເນີນ	-2074
▁Sự	-2075
▁Người	-2076
ຖາມ	-2077
24	-2078
▁yếu	-2079
ອາຍ	-2080
ຶກສາ	-2081
▁mất	-2082
▁ເຊັ່ນ	-2083
ອຸປະກອນ	-2084
23	-2085
▁Ex	-2086
▁Gr	-2087
▁dù	-2088
▁Koh	-2089
▁ຫນ້າທໍາອິດ	-2090
▁ກົດ	-2091
▁cha	-2092
tt	-2093
▁Á	-2094
ົນຕີ	-2095
▁gây	-2096
ຢາ	-2097
ber	-2098
ໂຍ	-2099
▁bóng	-2100
▁ທີ່ຢູ່	-2101
▁mức	-2102
ອັດ	-2103
▁Kích	-2104
ຊິກ	-2105
ost	-2106
ẹp	-2107
▁mẹ	-2108
lot	-2109
▁hưởng	-2110
▁35	-2111
▁ຕ່າງ	-2112
ໃຕ້	-2113
ອຽດ	-2114
▁ບ່ອນ	-2115
▁500	-2116
ນະພາບ	-2117
▁Nhưng	-2118
IN	-2119
▁Car	-2120
ແກ້	-2121
ສະພາ	-2122
▁ສາດ	-2123
▁ຂໍ	-2124
▁vận	-2125
ອອກແບບ	-2126
kg	-2127
ົາມ	-2128
ໄສ	-2129
iệp	-2130
▁Re	-2131
▁Tất	-2132
ໂດ	-2133
iềm	-2134
▁mm	-2135
▁2013	-2136
▁ຫວຽດນາມ	-2137
▁ນາ	-2138
▁đàn	-2139
ັບສະຫນູນ	-2140
ເມລິ	-2141
▁ຮູ້ສຶກ	-2142
inter	-2143
ຢືນ	-2144
▁ຕະ	-2145
icro	-2146
▁For	-2147
▁Hai	-2148
ud	-2149
▁Chủ	-2150
▁Fr	-2151
▁×	-2152
▁nhiệm	-2153
▁khó	-2154
ພັກ	-2155
▁ພໍ່	-2156
▁dưới	-2157
▁Windows	-2158
ສງ	-2159
▁Sau	-2160
▁quân	-2161
ຫົວ	-2162
ເລັດ	-2163
▁lệ	-2164
droid	-2165
17	-2166
▁luôn	-2167
▁Ad	-2168
ice	-2169
ຄອງ	-2170
▁ເຈ	-2171
▁toán	-2172
uyến	-2173
▁nội	-2174
▁ບໍ	-2175
▁tượng	-2176
▁đạt	-2177
ໂທ	-2178
ຕອບ	-2179
ຈ່າຍ	-2180
▁duy	-2181
olog	-2182
ະນຸ	-2183
▁ສາຍ	-2184
▁nghị	-2185
່ຽງ	-2186
▁ຂ່າວ	-2187
ອກະ	-2188
▁thần	-2189
▁Bl	-2190
ຫຍດ	-2191
▁ຕົນ	-2192
▁Mar	-2193
▁đa	-2194
ສະຫມ	-2195
▁tội	-2196
▁Sản	-2197
ໂຄງການ	-2198
.7	-2199
AC	-2200
ອາຫານ	-2201
ກຕ່າງ	-2202
ອົບ	-2203
ສະນະ	-2204
14	-2205
28	-2206
▁Rong	-2207
ລັກ	-2208
ແຈ	-2209
▁ວິນ	-2210
ຈີນ	-2211
▁ít	-2212
ລະອຽດ	-2213
▁xử	-2214
night	-2215
ຂັນ	-2216
▁Br	-2217
▁ໄລ	-2218
▁ນ້ອຍ	-2219
▁phía	-2220
ພຽງແຕ່	-2221
ສົງ	-2222
▁Hãy	-2223
ຄວບຄຸມ	-2224
ຍານ	-2225
▁phản	-2226
ạp	-2227
▁ແຕ	-2228
▁Android	-2229
▁Dust	-2230
ank	-2231
▁tả	-2232
ຕົກ	-2233
2018	-2234
ະນຸດ	-2235
▁ສະຫ	-2236
ໄວ້	-2237
ເປີດ	-2238
▁ຊາວ	-2239
▁thử	-2240
ເວັນ	-2241
▁ສອງ	-2242
iêm	-2243
▁ບັດ	-2244
▁ປະເທດ	-2245
NH	-2246
▁nguồn	-2247
ສູນ	-2248
▁riêng	-2249
ເມື່ອ	-2250
int	-2251
-6	-2252
▁ຖະ	-2253
ok	-2254
▁Van	-2255
ັກງານ	-2256
▁ກ່ອນ	-2257
▁Ông	-2258
▁ໃຫມ່	-2259
ນິ	-2260
ລອງ	-2261
▁CN	-2262
ậu	-2263
du	-2264
ໂນໂລ	-2265
ບົດ	-2266
▁môi	-2267
▁ອີເມ	-2268
iss	-2269
ົ່ານີ້	-2270
âng	-2271
▁Tuy	-2272
ຄອນ	-2273
▁ນອກ	-2274
-4	-2275
ກ່ຽວ	-2276
▁Họ	-2277
▁mù	-2278
▁ຈຶ່ງ	-2279
▁ອຸປະກອນ	-2280
lector	-2281
ເມລິກາ	-2282
ສິ່ງທີ່	-2283
ິບ	-2284
lock	-2285
▁tín	-2286
▁loạt	-2287
man	-2288
ush	-2289
ໍ້າ	-2290
ມາຊິກ	-2291
▁Loại	-2292
▁chiếc	-2293
ຫາກ	-2294
ເວັບໄຊ	-2295
ວກັນ	-2296
ປະຊຸມ	-2297
ure	-2298
ຫ້ອງ	-2299
▁đời	-2300
ork	-2301
ັກໂນໂລ	-2302
▁hút	-2303
coin	-2304
ປ້ອງ	-2305
▁ໃຫຍ່	-2306
ẩy	-2307
▁ແຂ	-2308
ug	-2309
ເຜ	-2310
ets	-2311
▁--	-2312
iang	-2313
▁vời	-2314
ເຊື່ອມ	-2315
ộn	-2316
▁•	-2317
ັບປ	-2318
▁ມື້	-2319
ື່ມ	-2320
▁ມະ	-2321
▁ກວ່າ	-2322
້ຽມ	-2323
▁ເຊື່ອ	-2324
▁1,	-2325
UR	-2326
ພຣະ	-2327
▁giống	-2328
ບຸກ	-2329
ສຸກ	-2330
▁Kỳ	-2331
AS	-2332
ແນວ	-2333
▁21	-2334
ຕ່າງໆ	-2335
ປອດ	-2336
▁26	-2337
pl	-2338
ວາ	-2339
ັກນ້ອຍ	-2340
▁casino	-2341
88	-2342
io	-2343
▁đô	-2344
▁thiện	-2345
▁xã	-2346
ກັດ	-2347
▁ລົດ	-2348
ນ໌ໂຫລດ	-2349
ເລື່ອງ	-2350
▁al	-2351
▁sợi	-2352
▁Vess	-2353
▁ແຫ່ງ	-2354
▁ແທ້	-2355
▁Vessoft	-2356
▁dành	-2357
▁McK	-2358
▁cải	-2359
ຫຍັງ	-2360
ແທນ	-2361
▁ສູງ	-2362
ậm	-2363
ຄານ	-2364
ໍານົດ	-2365
ບໍ່ໄດ້	-2366
ươi	-2367
ແຫນ	-2368
▁nghe	-2369
▁chung	-2370
ໂຫຍດ	-2371
▁ລັງ	-2372
úa	-2373
ດັນ	-2374
ແຂ່ງຂັນ	-2375
▁tổng	-2376
▁mại	-2377
▁phạm	-2378
ve	-2379
ອະ	-2380
line	-2381
ຽວກັນ	-2382
ຈຸດ	-2383
ສະດ	-2384
able	-2385
▁cắt	-2386
ບັບ	-2387
▁hãy	-2388
▁ຊ່ວຍ	-2389
ສະຫນາ	-2390
▁2020	-2391
▁ຜ່ານ	-2392
ủy	-2393
ກອນ	-2394
▁Am	-2395
▁áo	-2396
▁Hoa	-2397
▁Bon	-2398
▁mua	-2399
ress	-2400
end	-2401
▁đảm	-2402
▁tấm	-2403
="	-2404
ເຫລ	-2405
ester	-2406
ຕໍາ	-2407
▁Số	-2408
ກວດ	-2409
▁ghi	-2410
▁chân	-2411
▁McKnight	-2412
ແພ	-2413
33	-2414
ໄຟຟ້າ	-2415
▁Sc	-2416
່ວາ	-2417
.,	-2418
amp	-2419
▁Gu	-2420
▁start	-2421
▁lạc	-2422
aw	-2423
▁bạc	-2424
▁mặc	-2425
▁70	-2426
▁(201	-2427
▁ດາວນ໌ໂຫລດ	-2428
ຖົງ	-2429
▁độc	-2430
ັ້ມ	-2431
▁ເຫຼ	-2432
ເວລາທີ່	-2433
▁nổi	-2434
▁Đị	-2435
▁300	-2436
▁Đối	-2437
ire	-2438
oll	-2439
ກ່າວວ່າ	-2440
▁ສັນ	-2441
ລາຍງານ	-2442
ຸນາ	-2443
▁lãnh	-2444
ee	-2445
▁cây	-2446
▁dur	-2447
▁ລະບ	-2448
▁ເງິນ	-2449
ສະເຫນີ	-2450
.”	-2451
ຕະຫຼ	-2452
éo	-2453
ຫຍາຍ	-2454
▁Bản	-2455
▁ຈັກ	-2456
2,	-2457
ປະມານ	-2458
▁chưa	-2459
gle	-2460
▁Để	-2461
▁Theo	-2462
▁nhu	-2463
▁nền	-2464
▁đăng	-2465
▁ລະຫັດ	-2466
ຄວ້າ	-2467
▁ích	-2468
▁ຫ້ອງ	-2469
▁vọng	-2470
ຂອງລາວ	-2471
▁28	-2472
▁trời	-2473
attoos	-2474
ຂ້ອງ	-2475
▁ກອງ	-2476
▁ບົດ	-2477
ແກ້ໄຂ	-2478
▁ເສັ້ນ	-2479
▁Collector	-2480
▁ປົກ	-2481
74	-2482
▁ເສຍ	-2483
້າວ	-2484
▁ສັດ	-2485
ຮ້ອນ	-2486
ປອດໄພ	-2487
▁rõ	-2488
▁ສົມ	-2489
▁Ning	-2490
▁kẻ	-2491
▁Giáo	-2492
ທ໌	-2493
▁ຕິ	-2494
ກະທົບ	-2495
ower	-2496
▁Phần	-2497
ລູກຄ້າ	-2498
▁ພາຍ	-2499
▁chịu	-2500
ຄຸນນະພາບ	-2501
▁(1	-2502
ແຕກຕ່າງ	-2503
ãn	-2504
ace	-2505
▁Làm	-2506
ກະຕິ	-2507
▁gặp	-2508
af	-2509
▁thờ	-2510
▁ບໍລິສັດ	-2511
ແມ່	-2512
▁ngành	-2513
ງານຜະລິດ	-2514
22	-2515
chn	-2516
ປະຊາຊົນ	-2517
▁Vì	-2518
▁bà	-2519
ປະສົບ	-2520
ຍົກ	-2521
▁You	-2522
▁phá	-2523
▁khoa	-2524
▁trận	-2525
້ຽງ	-2526
ບໍ່ມີ	-2527
ຕູ	-2528
ỏng	-2529
▁vòng	-2530
▁ước	-2531
ຕະລ	-2532
▁Lu	-2533
▁biển	-2534
▁ຊົ່ວ	-2535
ອຸດສາຫະກໍາ	-2536
ram	-2537
▁sắc	-2538
ວ່າຈະ	-2539
▁chia	-2540
▁ປ່ຽນ	-2541
▁Tổng	-2542
▁hoạch	-2543
▁hy	-2544
▁bảng	-2545
ຄວນ	-2546
▁ພາກ	-2547
ree	-2548
▁ລວມ	-2549
eth	-2550
ool	-2551
ếp	-2552
▁Giá	-2553
Th	-2554
ont	-2555
ກວ	-2556
▁tùy	-2557
▁ຄອບຄົວ	-2558
▁ຈໍານວນ	-2559
▁viện	-2560
▁Hy	-2561
▁Air	-2562
▁mười	-2563
▁đông	-2564
ທີ່ເປັນ	-2565
ock	-2566
ຊາວ	-2567
▁ຈັດ	-2568
ຄົ້ນຄວ້າ	-2569
:/	-2570
oogle	-2571
77	-2572
▁tốc	-2573
▁ຜິດ	-2574
▁ອີເມລ໌	-2575
ບ່ອນ	-2576
▁Micro	-2577
ພະລັງງານ	-2578
▁PC	-2579
▁ສົ່ງ	-2580
▁ອິດ	-2581
▁ຮຽນ	-2582
▁ບ້ານ	-2583
iếng	-2584
▁ລາຄາ	-2585
▁Thiết	-2586
▁ພາບ	-2587
▁đá	-2588
ology	-2589
2)	-2590
▁ເພີ່ມ	-2591
▁ເລືອກ	-2592
ົາມີ	-2593
ຊື້	-2594
▁=	-2595
ຫມາະ	-2596
▁khai	-2597
://	-2598
▁Với	-2599
▁phong	-2600
org	-2601
▁ຄວນ	-2602
▁Main	-2603
▁tấn	-2604
▁bàn	-2605
▁Ningbo	-2606
▁gói	-2607
▁nối	-2608
▁phút	-2609
▁ວິດ	-2610
ກ່ຽວຂ້ອງ	-2611
▁hồ	-2612
▁Sam	-2613
▁ນັບ	-2614
▁nhựa	-2615
▁lẽ	-2616
▁lỗi	-2617
▁buổi	-2618
ốn	-2619
ປັດ	-2620
▁phù	-2621
ສະຫະລັດ	-2622
້ນີ້	-2623
▁Đây	-2624
ພູມ	-2625
iếp	-2626
▁Sol	-2627
ເລກ	-2628
▁ngôn	-2629
▁nhật	-2630
▁đoàn	-2631
▁du	-2632
▁CH	-2633
ủng	-2634
ກ່ວາ	-2635
▁giả	-2636
▁Val	-2637
ຕອງ	-2638
▁tiện	-2639
▁Slot	-2640
ton	-2641
▁ແປ	-2642
▁bang	-2643
▁thấp	-2644
▁2,	-2645
rypt	-2646
▁trái	-2647
ະນຸຍາດ	-2648
▁(3	-2649
▁CO	-2650
ຖະກິດ	-2651
ອາດຈະ	-2652
ຊອບ	-2653
ທັນ	-2654
China	-2655
ອກາດ	-2656
▁dàng	-2657
ຂີ້ຝຸ່ນ	-2658
ພາຍໃນ	-2659
▁Euro	-2660
▁lễ	-2661
▁ánh	-2662
ໂປ	-2663
▁thất	-2664
▁ເກມ	-2665
▁chiều	-2666
EC	-2667
ອນໄລ	-2668
▁ຫຍັງ	-2669
ຕ້ານ	-2670
▁Can	-2671
▁thảo	-2672
ເຂົ້າຮ່ວມ	-2673
ແຍ	-2674
▁ຮ່ວມ	-2675
▁Hol	-2676
▁the	-2677
ແນະນໍາ	-2678
▁ກໍາລັງ	-2679
▁la	-2680
ເຕີມ	-2681
ທັບ	-2682
ໃນປີ	-2683
▁cực	-2684
▁linh	-2685
▁vùng	-2686
▁ປະຕິ	-2687
26	-2688
▁27	-2689
ຫນົນ	-2690
ase	-2691
▁dạng	-2692
ເຄື່ອນ	-2693
ກິ	-2694
▁nhớ	-2695
ວິທີການ	-2696
ຊານ	-2697
▁thủy	-2698
▁video	-2699
ary	-2700
OS	-2701
eal	-2702
▁dạy	-2703
VC	-2704
ຖ້າ	-2705
itcoin	-2706
press	-2707
ated	-2708
▁ສະແດງ	-2709
ຊີບ	-2710
ກຸ່ມ	-2711
▁Mười	-2712
ທ້າຍ	-2713
ood	-2714
▁Equ	-2715
▁htt	-2716
▁gắng	-2717
ເຊຍ	-2718
ລາຄາ	-2719
▁Ind	-2720
▁Nhận	-2721
▁Cr	-2722
▁nhạc	-2723
▁ລ້ານ	-2724
▁tuyên	-2725
▁Trước	-2726
TD	-2727
ແນນ	-2728
eel	-2729
▁The	-2730
ທີ່ທ່ານ	-2731
ຂໍ	-2732
ear	-2733
▁sơ	-2734
▁mối	-2735
ແລນ	-2736
▁vv	-2737
▁mật	-2738
ເສັ້ນ	-2739
▁Bắc	-2740
▁Tây	-2741
ວັນທີ	-2742
ທົ່ວໄປ	-2743
▁Bonus	-2744
▁chấp	-2745
land	-2746
▁ເລີ່ມ	-2747
ຍາກ	-2748
▁lấy	-2749
▁mẫu	-2750
▁chạy	-2751
▁email	-2752
▁tho	-2753
õi	-2754
▁TNH	-2755
▁Địa	-2756
▁Mach	-2757
▁dung	-2758
ທີ່ຖືກ	-2759
▁đẹp	-2760
ưỡ	-2761
....	-2762
▁thi	-2763
▁nạn	-2764
▁TNHH	-2765
▁ວິທີ	-2766
ດຽວກັນ	-2767
ທາງການ	-2768
ທຶກ	-2769
▁ນິ	-2770
▁lựa	-2771
ມົນຕີ	-2772
▁nặng	-2773
orm	-2774
▁Em	-2775
ບັນຫາ	-2776
▁Lan	-2777
ຂະຫຍາຍ	-2778
▁hack	-2779
ະນັກງານ	-2780
ET	-2781
▁sang	-2782
▁ລິຂະສິດ	-2783
▁Độ	-2784
:00	-2785
▁ຍານ	-2786
ld	-2787
ue	-2788
▁thiệu	-2789
ຝຶກ	-2790
ST	-2791
ປົວ	-2792
▁45	-2793
▁xin	-2794
ທະຍາສາດ	-2795
▁ດັ່ງນັ້ນ	-2796
èn	-2797
ີບ	-2798
ube	-2799
ໄມ້	-2800
▁dầu	-2801
▁GB	-2802
▁ຕັດ	-2803
ຫນາ	-2804
▁80	-2805
ອນໄລນ໌	-2806
EM	-2807
▁a	-2808
ebei	-2809
▁Bot	-2810
▁giảng	-2811
ພະຍາຍາມ	-2812
ipp	-2813
▁kính	-2814
ມື້ນີ້	-2815
ສູ່	-2816
ເຟ	-2817
ame	-2818
ບ່ງ	-2819
▁ທັນ	-2820
▁ຕົ້ນ	-2821
ປະທານ	-2822
▁ລະບົບ	-2823
▁ບັງ	-2824
ຈາກການ	-2825
▁thắng	-2826
ກົດຫມາຍ	-2827
ໃຫ້ເຫັນ	-2828
ອາເມລິກາ	-2829
95	-2830
ຂະນະ	-2831
▁ຈຸດ	-2832
36	-2833
ມາດ	-2834
▁ແກ່	-2835
de	-2836
ins	-2837
ສາກ	-2838
▁tỉnh	-2839
▁thuốc	-2840
ລັດຖະບານ	-2841
ical	-2842
ຢັນ	-2843
▁từng	-2844
▁vải	-2845
▁đau	-2846
▁giám	-2847
▁khiển	-2848
ຕິດຕໍ່	-2849
▁gái	-2850
▁1000	-2851
ການຜະລິດ	-2852
AM	-2853
ith	-2854
▁Blu	-2855
▁Thời	-2856
▁niên	-2857
▁ຫຼັງຈາກ	-2858
▁hồi	-2859
▁soát	-2860
▁Prote	-2861
ão	-2862
▁LED	-2863
▁ຈົນ	-2864
▁ພ້ອມ	-2865
ຫນ້າທີ່	-2866
ຄົງ	-2867
ບາດ	-2868
ອັງ	-2869
▁đôi	-2870
ສະຫນັບສະຫນູນ	-2871
ລົງທຶນ	-2872
ແຂງ	-2873
ເຫຼືອ	-2874
▁ຈົ່ງ	-2875
▁EUR	-2876
▁ຄ່າ	-2877
ປະກັນ	-2878
▁ອາທິດ	-2879
ໃບ	-2880
rom	-2881
ized	-2882
▁phúc	-2883
▁thiên	-2884
▁trách	-2885
▁Chính	-2886
ອິນ	-2887
ີໂອ	-2888
uan	-2889
▁150	-2890
▁buộc	-2891
ປາ	-2892
ປະໂຫຍດ	-2893
▁ດຽວ	-2894
ຕະຖານ	-2895
ງ່າຍ	-2896
ບໍ	-2897
▁ກໍ່	-2898
ipment	-2899
▁Printer	-2900
enc	-2901
▁tịch	-2902
▁đứng	-2903
ພາດ	-2904
85	-2905
ບູນ	-2906
▁Đó	-2907
▁thiếu	-2908
ຈາລະ	-2909
▁Ngh	-2910
▁đẩy	-2911
▁cm	-2912
▁ເທົ່າ	-2913
AR	-2914
ໂກ	-2915
▁Do	-2916
▁lớp	-2917
▁chắc	-2918
ຮ່າງ	-2919
ຊອກ	-2920
▁hòa	-2921
▁TH	-2922
ັບປຸງ	-2923
▁Ngày	-2924
▁ຕ່າງໆ	-2925
ແທ້	-2926
ສໍາເລັດ	-2927
ting	-2928
▁nằm	-2929
ສິດທິພາບ	-2930
ຄູ່	-2931
▁suy	-2932
ໂຍບາຍ	-2933
ັ່ນຕອງ	-2934
ົ່ມ	-2935
ຢັ້ງ	-2936
▁tàu	-2937
ທີມ	-2938
▁ສອນ	-2939
▁ສາມ	-2940
▁ແລະອື່ນໆ	-2941
▁29	-2942
ຄະເນ	-2943
ແຕ່ງ	-2944
▁nam	-2945
ຕໍ່ໄປ	-2946
▁nguyện	-2947
ວະ	-2948
▁xa	-2949
▁Danh	-2950
▁ສະຫນ	-2951
ກໍານົດ	-2952
▁ເຫດການ	-2953
▁càng	-2954
▁mùa	-2955
▁sư	-2956
uyết	-2957
▁thuận	-2958
▁Intern	-2959
▁Tag	-2960
ກ່ຽວກັບການ	-2961
ລົມ	-2962
▁Chúa	-2963
ິ່ນປົວ	-2964
ູ້ນ	-2965
▁ngoại	-2966
▁ຣ	-2967
ເຮົາມີ	-2968
▁ເທື່ອ	-2969
ons	-2970
ຮ້າຍ	-2971
▁ໂທ	-2972
ແຈ້ງ	-2973
▁ຄືນ	-2974
▁90	-2975
▁tỷ	-2976
▁Equipment	-2977
21	-2978
”.	-2979
▁ປະກ	-2980
ames	-2981
ater	-2982
chnology	-2983
DF	-2984
ຊະນະ	-2985
ສະເພາະ	-2986
ium	-2987
▁1.	-2988
zhou	-2989
ທົດລອງ	-2990
▁giản	-2991
ເສດຖະກິດ	-2992
cl	-2993
▁ຄາ	-2994
uyền	-2995
ໃຊ້ເວລາ	-2996
▁xúc	-2997
▁ແຮງ	-2998
ກັບການ	-2999
▁ວັດ	-3000
ສະຫມັກ	-3001
load	-3002
ືດ	-3003
▁ຢາກ	-3004
▁Or	-3005
້ອງຖ	-3006
ຕັດສິນ	-3007
ON	-3008
log	-3009
▁bầu	-3010
ແຮ	-3011
▁mắt	-3012
▁đáp	-3013
▁Europe	-3014
han	-3015
▁sẻ	-3016
▁xu	-3017
▁ຫາກ	-3018
ຕະຫຼາດ	-3019
▁Sup	-3020
▁ຍີ່	-3021
▁2011	-3022
nes	-3023
iron	-3024
▁cạnh	-3025
▁AP	-3026
▁ກຸ່ມ	-3027
ແລະຄວາມ	-3028
AT	-3029
ສະພາບ	-3030
້ານີ້	-3031
▁Poly	-3032
▁đoạn	-3033
ເສີມ	-3034
າງວັນ	-3035
ond	-3036
ຮອງ	-3037
py	-3038
ຍາວ	-3039
▁gh	-3040
ກັ່ນຕອງ	-3041
ແຜນ	-3042
▁ສານ	-3043
ຫາຍ	-3044
▁ນ້ອງ	-3045
▁ບັນດາ	-3046
65	-3047
ຮົມ	-3048
ຂ້າງ	-3049
▁hại	-3050
ຮູບແບບ	-3051
▁LTD	-3052
ຂອງພວກເຂົາ	-3053
▁đứa	-3054
▁giấy	-3055
ຕົວຢ່າງ	-3056
ota	-3057
ເຫຼົ່ານີ້	-3058
ຄາດຄະເນ	-3059
▁bày	-3060
▁phối	-3061
ery	-3062
▁mai	-3063
▁bé	-3064
▁sáu	-3065
▁ຊອບ	-3066
▁ສະພາບ	-3067
ອະນຸຍາດ	-3068
94	-3069
oot	-3070
▁đúng	-3071
▁ໄດ້ຮັບ	-3072
GH	-3073
ຂົນ	-3074
ານາ	-3075
▁ແລ	-3076
ຫນັງ	-3077
▁ຕອບ	-3078
ພື້ນຖານ	-3079
ble	-3080
ໂມງ	-3081
▁100%	-3082
▁quanh	-3083
▁Env	-3084
mental	-3085
▁ຍາ	-3086
aric	-3087
ແຕກຕ່າງກັນ	-3088
quot	-3089
▁bánh	-3090
ົ່ານັ້ນ	-3091
▁ໂມ	-3092
▁đốc	-3093
▁phim	-3094
▁ທີ່ຜ່ານມາ	-3095
▁ໃສ່	-3096
ແກ່	-3097
ilic	-3098
2.	-3099
ທະນາ	-3100
ດູ	-3101
▁sp	-3102
່ນອນ	-3103
▁XL	-3104
ຢັ້ງຢືນ	-3105
▁ພວກເຂົາ	-3106
by	-3107
▁họp	-3108
▁On	-3109
ື້ອຍ	-3110
ຂາວ	-3111
▁Túi	-3112
ັກໂນໂລຊີ	-3113
ທີ່ດີທີ່ສຸດ	-3114
▁Dav	-3115
▁Kho	-3116
▁Protection	-3117
▁bây	-3118
▁cam	-3119
▁xanh	-3120
enn	-3121
▁kỷ	-3122
▁ơn	-3123
ພາສາ	-3124
ຫນ້ອຍ	-3125
▁Road	-3126
ການຄ້າ	-3127
▁Google	-3128
ທີ່ມີຄວາມ	-3129
▁khóa	-3130
▁ໃນການ	-3131
ome	-3132
▁75	-3133
ເຄາະ	-3134
ເພີ່ມເຕີມ	-3135
ແສງ	-3136
ອົບຮົມ	-3137
ink	-3138
ເບີດ	-3139
▁chắn	-3140
▁sạch	-3141
▁Chiều	-3142
ີນທາງ	-3143
ene	-3144
76	-3145
▁ຊຸດ	-3146
▁khăn	-3147
▁ເຮືອນ	-3148
IC	-3149
lex	-3150
ບວນ	-3151
▁Ba	-3152
ຄະນະ	-3153
▁ຖົງ	-3154
ວ່າທ່ານ	-3155
▁co	-3156
▁Bag	-3157
▁dòng	-3158
▁ເຮັດໃຫ້	-3159
ຕໍ	-3160
▁đỡ	-3161
▁App	-3162
▁trai	-3163
ຮ່ວມມື	-3164
ຜົນກະທົບ	-3165
ສະຖານທີ່	-3166
be	-3167
min	-3168
ສອນ	-3169
ຫວັດ	-3170
▁ຄູ່	-3171
ຮູ້ສຶກ	-3172
ການປ່ຽນ	-3173
▁Sk	-3174
▁đọc	-3175
ier	-3176
▁ເປີດ	-3177
▁ສະຖານ	-3178
▁Dr	-3179
▁ຄັ້ງ	-3180
▁ດາວໂຫລດ	-3181
iber	-3182
▁cấu	-3183
ປ້ອງກັນ	-3184
ade	-3185
▁sh	-3186
▁xo	-3187
▁Ban	-3188
▁băng	-3189
▁phi	-3190
ຶງ	-3191
▁ຕາຍ	-3192
ເສຍຊີວິດ	-3193
ຂຽນ	-3194
▁AC	-3195
▁Be	-3196
ຂັ້ນ	-3197
▁Tin	-3198
obile	-3199
▁Environ	-3200
▁Mã	-3201
▁ສິດ	-3202
▁phổ	-3203
▁quay	-3204
▁Botou	-3205
ເກມ	-3206
ພິເສດ	-3207
▁ràng	-3208
uôi	-3209
▁dấu	-3210
▁châu	-3211
▁Phi	-3212
▁mừng	-3213
ຈາລະນາ	-3214
ກົງ	-3215
ໄຫວ	-3216
atch	-3217
orn	-3218
▁Forex	-3219
cr	-3220
▁ຍິນ	-3221
າບ	-3222
▁Wh	-3223
▁Tại	-3224
▁ສົນ	-3225
ຫຼັງຈາກ	-3226
▁Environmental	-3227
MP	-3228
ຫຼວດ	-3229
ຄະແນນ	-3230
ຄວາມຄິດ	-3231
▁chuyến	-3232
▁lao	-3233
▁ສັງ	-3234
ຂອງຕົນ	-3235
ຫໍ້	-3236
▁bước	-3237
ປົກກະຕິ	-3238
▁ຮູບພາບ	-3239
Ph	-3240
▁dựa	-3241
--	-3242
29	-3243
ບ້ານ	-3244
▁rồi	-3245
ກວ້າງ	-3246
ຫມັ້ນ	-3247
ເລີ່ມຕົ້ນ	-3248
▁đích	-3249
ຕາເວັນ	-3250
ມັກ	-3251
າວິ	-3252
ຫຸ້ມ	-3253
▁IP	-3254
ເຫຼັກ	-3255
▁ແຜ່ນດິນ	-3256
▁ຫນາ	-3257
▁ຍົກ	-3258
▁ພະຍ	-3259
ຂະນະທີ່	-3260
ເລດ	-3261
▁mong	-3262
▁thăm	-3263
▁Cam	-3264
▁Fil	-3265
ຮູບພາບ	-3266
8,	-3267
lic	-3268
ອາທິດ	-3269
▁lĩnh	-3270
▁for	-3271
▁Thông	-3272
ເອກະ	-3273
ແຜ່ນ	-3274
▁ກາຍ	-3275
uf	-3276
ເກດ	-3277
▁gỉ	-3278
ຕາລີ	-3279
▁ຊອກ	-3280
ເຮືອນ	-3281
▁ຕໍ່ໄປ	-3282
ອາຍຸ	-3283
ID	-3284
ມືຖື	-3285
▁ngữ	-3286
▁ພຣະອົງ	-3287
cc	-3288
ໃກ້	-3289
▁ຖານ	-3290
▁ບອກ	-3291
▁ອັດ	-3292
▁ຮ້າຍ	-3293
▁chẳng	-3294
ຝຶກອົບຮົມ	-3295
arn	-3296
▁ຜ້າ	-3297
▁ພື້ນ	-3298
▁hầu	-3299
ມະຊາດ	-3300
ການສຶກສາ	-3301
ປັດຈຸບັນ	-3302
ໂຣ	-3303
▁dõi	-3304
▁CNC	-3305
▁pro	-3306
▁Việc	-3307
▁Bitcoin	-3308
ml	-3309
▁Top	-3310
▁Thành	-3311
▁ເພື່ອນ	-3312
▁ພະອົງ	-3313
▁ສໍາຄັນ	-3314
▁ổ	-3315
▁ກິດ	-3316
▁nâng	-3317
ົ້ມ	-3318
Hebei	-3319
▁Từ	-3320
▁cổ	-3321
▁thú	-3322
▁tôn	-3323
ສັງຄົມ	-3324
ead	-3325
▁lâu	-3326
▁ອຸດສາຫະກໍາ	-3327
▁PVC	-3328
▁giác	-3329
▁ເນື່ອງ	-3330
▁Cơ	-3331
ໍານາດ	-3332
▁trạng	-3333
▁mã	-3334
▁trữ	-3335
ຢາມ	-3336
▁hơi	-3337
ໂນມັດ	-3338
▁nóng	-3339
89	-3340
ໄຫມ	-3341
ỏa	-3342
oid	-3343
▁ປະຕິບັດ	-3344
ກໍາມະ	-3345
ຫນ້ານີ້	-3346
ເມີ	-3347
ສັ່ງ	-3348
▁van	-3349
▁phiếu	-3350
ຈັນ	-3351
ບຸກຄົນ	-3352
SE	-3353
▁phê	-3354
▁tòa	-3355
▁City	-3356
ສົ່ງອອກ	-3357
100	-3358
▁ວິທີການ	-3359
ót	-3360
her	-3361
▁vũ	-3362
▁ທົ່ວ	-3363
ຊະ	-3364
ວ່າມັນ	-3365
ຸ່ງ	-3366
▁un	-3367
▁đào	-3368
▁ພົບ	-3369
chain	-3370
▁Steel	-3371
ຫຼັກ	-3372
▁chú	-3373
້ຽມຢາມ	-3374
uit	-3375
ນາງ	-3376
▁Is	-3377
▁xếp	-3378
ໃຊ້ຈ່າຍ	-3379
ຸ້ງ	-3380
▁nỗ	-3381
▁lành	-3382
ພື້ນທີ່	-3383
ມື້	-3384
orld	-3385
▁quý	-3386
▁trì	-3387
▁Power	-3388
TC	-3389
ille	-3390
▁Thứ	-3391
ane	-3392
▁sân	-3393
▁Minnes	-3394
duct	-3395
cs	-3396
ຫະພູມ	-3397
▁ອາຍ	-3398
ເທິງ	-3399
ທີ່ກ່ຽວຂ້ອງ	-3400
ລ້ອມ	-3401
ກໍ່ສ້າງ	-3402
ສາກົນ	-3403
▁Tw	-3404
▁vàng	-3405
▁ເຄີຍ	-3406
ເປັນການ	-3407
AL	-3408
soft	-3409
ຜ່ອນ	-3410
ໂລຫະ	-3411
▁tắc	-3412
▁Thái	-3413
ຂອງຜູ້	-3414
ics	-3415
▁Năm	-3416
ແວ	-3417
ưỡng	-3418
້ຍ	-3419
uốt	-3420
▁Nhật	-3421
ຕະໂນມັດ	-3422
óp	-3423
out	-3424
ount	-3425
ຸນຫະພູມ	-3426
RE	-3427
ada	-3428
ory	-3429
ຂອບ	-3430
▁Khu	-3431
▁niềm	-3432
▁thập	-3433
ທີ່ຢູ່	-3434
▁lửa	-3435
▁sâu	-3436
▁ຖະຫນົນ	-3437
IL	-3438
PS	-3439
▁Sm	-3440
▁kéo	-3441
ສົນໃຈ	-3442
▁Đức	-3443
▁thậm	-3444
ໂຈ	-3445
ທໍ່	-3446
ອັງກິດ	-3447
ຂັບ	-3448
▁sửa	-3449
▁thẻ	-3450
▁Web	-3451
▁ລັດຖະ	-3452
39	-3453
ron	-3454
ທົນ	-3455
ພິວ	-3456
ເຫມາະ	-3457
▁David	-3458
▁hôn	-3459
ຈໍາເປັນ	-3460
ວິທະຍາສາດ	-3461
uk	-3462
ບອກ	-3463
ື່ງ	-3464
otor	-3465
▁0086	-3466
▁Trên	-3467
▁Laser	-3468
55	-3469
▁IT	-3470
ຊັ້ນ	-3471
44	-3472
▁ໄມ້	-3473
ທາງດ້ານ	-3474
▁bốn	-3475
▁ຫນັງ	-3476
▁Trọng	-3477
ເວັບໄຊທ໌	-3478
▁Technology	-3479
▁32	-3480
▁et	-3481
ໂທລະສັບ	-3482
ign	-3483
▁ສິນ	-3484
▁thao	-3485
▁HD	-3486
rict	-3487
ໂອກາດ	-3488
lockchain	-3489
▁ໂຮງງານຜະລິດ	-3490
▁Dist	-3491
▁nuôi	-3492
▁)	-3493
bon	-3494
▁ສຽງ	-3495
ats	-3496
irt	-3497
ຕັນ	-3498
▁đêm	-3499
▁Black	-3500
▁phiên	-3501
ຈັດຕັ້ງ	-3502
ຊວງ	-3503
uang	-3504
▁màn	-3505
▁mát	-3506
▁Holm	-3507
ປະສົບການ	-3508
▁ນ້ໍາຫນັກ	-3509
▁vẻ	-3510
ath	-3511
▁ac	-3512
ຫຼຸດ	-3513
▁lái	-3514
ສຶກສາ	-3515
▁ຄວາມຄິດ	-3516
ຊີ້	-3517
▁Par	-3518
▁hộp	-3519
ສົມບູນ	-3520
ພໍ	-3521
▁hiểm	-3522
▁ຂໍ້ມູນ	-3523
▁ໂຕ	-3524
່ຽວຊານ	-3525
ການປ່ຽນແປງ	-3526
pro	-3527
ລະນີ	-3528
▁hủy	-3529
▁Minnesota	-3530
▁ໃບ	-3531
▁hậu	-3532
▁ປະທານ	-3533
27	-3534
ຕ່ໍາ	-3535
▁ສິງ	-3536
▁ແຜນ	-3537
ri	-3538
ux	-3539
▁ຍິງ	-3540
ມະນຸດ	-3541
ບໍ່ສາມາດ	-3542
ຣາ	-3543
▁?	-3544
▁gỗ	-3545
ີດໍາ	-3546
ເຫນືອ	-3547
▁ອື່ນໆ	-3548
▁ພະຍາຍາມ	-3549
ໄກ	-3550
ສັນຍາ	-3551
):	-3552
67	-3553
▁ມູນ	-3554
▁trắng	-3555
▁ຂຽນ	-3556
ອມພິວ	-3557
CL	-3558
ແຄ	-3559
້ອງຖິ່ນ	-3560
▁3,	-3561
▁ສູນ	-3562
▁ຫນຸ່ມ	-3563
3,	-3564
ເດຍ	-3565
ສະດຸ	-3566
▁khổ	-3567
▁ອິນ	-3568
▁chóng	-3569
▁thánh	-3570
▁su	-3571
▁2010	-3572
▁ຊ່ອຍ	-3573
ວ່າການ	-3574
▁Ú	-3575
▁ຖື	-3576
ebook	-3577
ແຫຼ	-3578
ຫວຽດນາມ	-3579
ເຊື່ອມຕໍ່	-3580
ທ່ອງ	-3581
▁thí	-3582
ທິບາຍ	-3583
▁Cách	-3584
▁trao	-3585
ື່ອນໄຂ	-3586
▁vợ	-3587
ເຂັ້ມ	-3588
ອິ	-3589
ặn	-3590
ult	-3591
ແວດ	-3592
▁DC	-3593
▁hạt	-3594
▁Màu	-3595
ບັນຊີ	-3596
ປະກາດ	-3597
▁laser	-3598
▁Pet	-3599
▁sai	-3600
go	-3601
òi	-3602
ັສ	-3603
ustr	-3604
▁Hải	-3605
▁né	-3606
▁Úc	-3607
▁ປາ	-3608
ໄປໃນ	-3609
ຂົນສົ່ງ	-3610
ຸຂະ	-3611
sm	-3612
▁UV	-3613
▁Phụ	-3614
ໍາລາຍ	-3615
ຄວາມເປັນ	-3616
ohn	-3617
▁ad	-3618
▁ຊາ	-3619
▁ອຸ	-3620
▁khắp	-3621
▁Microsoft	-3622
ຍົມ	-3623
▁Gl	-3624
▁ấn	-3625
ທ່ຽວ	-3626
▁ສຸກ	-3627
▁ຕິດຕໍ່	-3628
les	-3629
ອາຊີບ	-3630
▁ບໍ່ມີ	-3631
und	-3632
ຊອກຫາ	-3633
ະນັ້ນ	-3634
▁2000	-3635
▁khiến	-3636
▁on	-3637
ufact	-3638
ແວດລ້ອມ	-3639
4,	-3640
US	-3641
▁de	-3642
▁Inst	-3643
▁đảo	-3644
CH	-3645
▁CS	-3646
ທາລະ	-3647
ເຈັບ	-3648
▁2006	-3649
▁phận	-3650
▁ອ່ານ	-3651
▁Cheat	-3652
▁ແຈ	-3653
ວິທີ	-3654
▁sạn	-3655
ເຮືອ	-3656
itter	-3657
ປະຈໍາ	-3658
▁cận	-3659
▁chữa	-3660
ເນື່ອງ	-3661
ner	-3662
ຊັບ	-3663
ຈໍາກັດ	-3664
ສະມາຊິກ	-3665
ລິກ	-3666
▁CE	-3667
-20	-3668
▁bức	-3669
ູ້ນໍາ	-3670
▁nghi	-3671
ປະສິດທິພາບ	-3672
▁ສໍາລັບການ	-3673
ສວນ	-3674
▁trải	-3675
ຕັ້ງແຕ່	-3676
ơm	-3677
▁trụ	-3678
▁Char	-3679
▁ການປ	-3680
▁ວິທະຍາໄລ	-3681
▁tảng	-3682
ບັນທຶກ	-3683
ເດີນທາງ	-3684
ືອງ	-3685
▁nghỉ	-3686
▁Zh	-3687
▁ຟັງ	-3688
ໃນໄລຍະ	-3689
ufactur	-3690
ເຫມາະສົມ	-3691
▁PH	-3692
▁hoa	-3693
ຜິດຊອບ	-3694
▁Valve	-3695
▁World	-3696
ອອນໄລນ໌	-3697
▁ລາຍລະອຽດ	-3698
ລຸ	-3699
ຂ່າຍ	-3700
▁Blue	-3701
▁thải	-3702
ສູງສຸດ	-3703
▁Hà	-3704
▁Long	-3705
▁miêu	-3706
ລັດຖະມົນຕີ	-3707
fl	-3708
ຂາດ	-3709
ອັບ	-3710
▁tố	-3711
38	-3712
96	-3713
ນິກ	-3714
▁120	-3715
▁ມັກ	-3716
▁ກາ	-3717
▁600	-3718
▁Sy	-3719
ited	-3720
ຫວັງ	-3721
▁ພະລັງງານ	-3722
ull	-3723
▁Bài	-3724
34	-3725
▁mẽ	-3726
▁Pay	-3727
▁vai	-3728
▁ເຕີ	-3729
▁ທ່ານສາມາດ	-3730
▁31	-3731
▁tệ	-3732
ມາຈາກ	-3733
ະລຸນາ	-3734
▁ນີ້ແມ່ນ	-3735
ຈິ	-3736
▁ພັກ	-3737
ຂະຫນາດໃຫຍ່	-3738
-10	-3739
ຊຸດ	-3740
▁TR	-3741
ຄຸ້ມ	-3742
ຫລັບ	-3743
ັງກອນ	-3744
ຸຂະພາບ	-3745
ບໍລິຫານ	-3746
ເປັນຜູ້	-3747
ແດ	-3748
▁Pre	-3749
▁suốt	-3750
▁đoán	-3751
▁ສາດສະຫນາ	-3752
PC	-3753
ound	-3754
ເຜີຍ	-3755
ຊ່ຽວຊານ	-3756
▁36	-3757
▁Hệ	-3758
▁ລໍາ	-3759
▁cứng	-3760
▁ຜູ້ຜະລິດ	-3761
ley	-3762
▁Met	-3763
ອົງການ	-3764
ener	-3765
erts	-3766
ໂຊ	-3767
ake	-3768
ຈັບ	-3769
▁ô	-3770
າທີ	-3771
ale	-3772
ero	-3773
▁Jet	-3774
▁may	-3775
▁thách	-3776
AD	-3777
ous	-3778
ຜ້າ	-3779
າກອນ	-3780
▁góp	-3781
▁ເຂດ	-3782
▁da	-3783
▁ex	-3784
ເຕັມ	-3785
▁nỗi	-3786
▁tai	-3787
▁ຕົວຢ່າງ	-3788
ຢາງ	-3789
▁bổ	-3790
▁cư	-3791
ຫລາດ	-3792
net	-3793
▁ຄະນະ	-3794
ຕ່າງປະເທດ	-3795
!!	-3796
▁Bu	-3797
ເຊິ່ງ	-3798
ຈັດການ	-3799
ລະເບີດ	-3800
ທົ່ວໂລກ	-3801
ຂອງເຂົາເຈົ້າ	-3802
Tr	-3803
ອຸ	-3804
ຂວາງ	-3805
ພ້ອມ	-3806
ເຄີຍ	-3807
▁250	-3808
▁thuê	-3809
▁ສະນັ້ນ	-3810
▁bảy	-3811
▁Quảng	-3812
ກອງປະຊຸມ	-3813
:5	-3814
ເຣ	-3815
▁≤	-3816
▁District	-3817
▁Free	-3818
ຕອນນີ້	-3819
37	-3820
▁ມິ	-3821
▁1500	-3822
▁cánh	-3823
▁khảo	-3824
▁phán	-3825
▁vượt	-3826
ເຫດການ	-3827
▁Mobile	-3828
ສະຫຼ	-3829
▁Res	-3830
▁khắc	-3831
ທີ່ໄດ້	-3832
ept	-3833
▁ນີ	-3834
▁800	-3835
▁sắp	-3836
▁đức	-3837
ຫໍ່	-3838
▁lai	-3839
ອອກຈາກ	-3840
ຄວາມປອດໄພ	-3841
▁De	-3842
▁ưu	-3843
▁ກິ	-3844
ເກີດຂື້ນ	-3845
▁ຕົກ	-3846
ສະບັບ	-3847
▁Video	-3848
▁chiếu	-3849
▁Shen	-3850
▁ໂອ	-3851
▁+86	-3852
-7	-3853
ສະຖ	-3854
ທີ່ແຕກຕ່າງກັນ	-3855
IS	-3856
ອ່ານ	-3857
ການສໍາ	-3858
ຢາກ	-3859
ວົງ	-3860
▁fl	-3861
▁bào	-3862
▁ຫລັງ	-3863
urr	-3864
ງາມ	-3865
ະນິດ	-3866
▁ຫມູ່	-3867
ufacturer	-3868
ual	-3869
ຫລື	-3870
air	-3871
▁Bo	-3872
▁Gre	-3873
IT	-3874
▁ແດງ	-3875
ແຫນ່ງ	-3876
▁Ả	-3877
▁khuyến	-3878
32	-3879
fo	-3880
▁Mac	-3881
▁sàng	-3882
▁Ngoài	-3883
acebook	-3884
▁Sw	-3885
less	-3886
▁ແຕ່ງ	-3887
ທ້ອງຖິ່ນ	-3888
ຫ້າ	-3889
▁pl	-3890
ວິຊາ	-3891
ẹn	-3892
ນອກ	-3893
▁ngo	-3894
▁tiểu	-3895
ພີ	-3896
osh	-3897
ງົບ	-3898
ຕະລາງ	-3899
ທົດສອບ	-3900
ọt	-3901
ຈອນ	-3902
▁Le	-3903
▁trăm	-3904
▁ເດັກ	-3905
CC	-3906
OR	-3907
▁La	-3908
ຂາ	-3909
ducts	-3910
ordpress	-3911
5)	-3912
ໃສ	-3913
▁sứ	-3914
▁ພາສາ	-3915
▁Series	-3916
ຫຼາຍກວ່າ	-3917
ດານ	-3918
ົດສະ	-3919
▁chứa	-3920
▁ngươi	-3921
ເຄື່ອນໄຫວ	-3922
1%	-3923
ise	-3924
▁PR	-3925
▁nông	-3926
▁trúc	-3927
▁ຍ້ອນ	-3928
▁ປ້ອງ	-3929
ເລືອກຕັ້ງ	-3930
47	-3931
ດາວ	-3932
▁ngăn	-3933
▁Đảng	-3934
ແທ້ຈິງ	-3935
ທີ່ສໍາຄັນ	-3936
den	-3937
▁ເລີຍ	-3938
eld	-3939
ຄັບ	-3940
ầng	-3941
▁Rou	-3942
▁John	-3943
ແຫ່ງຊາດ	-3944
ດຽວ	-3945
ພົນ	-3946
/201	-3947
▁Vào	-3948
▁±	-3949
▁400	-3950
ແນວໃດ	-3951
▁ngôi	-3952
▁nhằm	-3953
ທັດ	-3954
່ໍາ	-3955
▁cl	-3956
▁cs	-3957
▁cu	-3958
▁ງ່າຍ	-3959
ກົດດັນ	-3960
ລັກສະນະ	-3961
ເພື່ອໃຫ້	-3962
▁ຄວາມຄິດເຫັນ	-3963
▁sợ	-3964
ency	-3965
▁Hình	-3966
ການສ້າງ	-3967
▁kê	-3968
ware	-3969
▁Pal	-3970
▁ມັນເປັນ	-3971
ກິລາ	-3972
▁ເຕັມ	-3973
▁luyện	-3974
ທີ່ຜ່ານມາ	-3975
ລໍາ	-3976
▁ທິ	-3977
▁mái	-3978
▁Comp	-3979
▁niệm	-3980
ownload	-3981
ຄຸ້ມຄອງ	-3982
ຊ່ວຍເຫຼືອ	-3983
98	-3984
ປະສົງ	-3985
ດໍາເນີນການ	-3986
In	-3987
OT	-3988
ີຣ	-3989
ໂພ	-3990
500	-3991
ລາດ	-3992
▁Lin	-3993
▁ອີງ	-3994
▁2005	-3995
▁Tiếp	-3996
ບວນການ	-3997
▁ປະສົບ	-3998
ກ່ອນຫນ້ານີ້	-3999
68	-4000
ode	-4001
▁As	-4002
ulse	-4003
▁ຂອບ	-4004
jiang	-4005
▁thái	-4006
▁ເວັບໄຊ	-4007
▁2.	-4008
ສະນາ	-4009
▁Sơn	-4010
ແຕ່ລະ	-4011
▁lược	-4012
ສິນຄ້າ	-4013
ຽກຮ້ອງ	-4014
ger	-4015
▁Gh	-4016
▁ví	-4017
ອີເມ	-4018
▁hát	-4019
▁ແທນ	-4020
ເທົ່າ	-4021
▁lưới	-4022
▁Copy	-4023
▁FX	-4024
▁lệnh	-4025
▁than	-4026
▁ສະມາຊິກ	-4027
ella	-4028
▁can	-4029
ກໍ່ຕາມ	-4030
▁lắp	-4031
▁Live	-4032
▁crypt	-4033
">	-4034
▁o	-4035
▁ກະລຸນາ	-4036
▁Manufacturer	-4037
▁Ac	-4038
▁xứ	-4039
▁PDF	-4040
▁ຕໍາ	-4041
9,	-4042
ect	-4043
▁Nga	-4044
ສາຫະກິດ	-4045
▁Chất	-4046
▁Ý	-4047
▁bì	-4048
▁pm	-4049
▁Thể	-4050
▁hàn	-4051
ຶດສະພາ	-4052
ບໍ່ແມ່ນ	-4053
ime	-4054
ຸລາ	-4055
ແບ່ງ	-4056
ທະຫານ	-4057
▁xuyên	-4058
▁ມະນຸດ	-4059
ສືບ	-4060
▁RF	-4061
port	-4062
ເຊື້ອ	-4063
ເວົ້າວ່າ	-4064
son	-4065
ແພດ	-4066
▁ຄັນ	-4067
▁Kinh	-4068
▁Tư	-4069
ທ່ອງທ່ຽວ	-4070
▁ທັງຫມົດ	-4071
ỏe	-4072
▁Dis	-4073
▁nguy	-4074
ón	-4075
ປະຕູ	-4076
▁Net	-4077
▁Thanh	-4078
31	-4079
ifi	-4080
▁lá	-4081
▁ໄພ	-4082
▁ເຫນ	-4083
▁khỏe	-4084
ດອນ	-4085
ຮອບ	-4086
▁am	-4087
rist	-4088
▁Slots	-4089
ເຂົ້າໃຈ	-4090
▁Cy	-4091
▁Xin	-4092
lette	-4093
▁Pháp	-4094
ipt	-4095
▁hu	-4096
ຄອບຄົວ	-4097
▁ຍີ່ຫໍ້	-4098
▁nổ	-4099
▁nhẹ	-4100
ັດທະນະ	-4101
ເຫມີ	-4102
▁chăm	-4103
▁phun	-4104
ປ່ຽນແປງ	-4105
▁MH	-4106
ສ່ຽງ	-4107
▁Thượng	-4108
:0	-4109
ເຫຍ	-4110
ໂຈມ	-4111
ນເລດ	-4112
ສິໂນ	-4113
ຊຸມຊົນ	-4114
▁Thiên	-4115
▁bột	-4116
▁cân	-4117
▁Dịch	-4118
▁Ấ	-4119
▁nhôm	-4120
ເດັກນ້ອຍ	-4121
ùn	-4122
zhen	-4123
▁Mặc	-4124
▁ຄາດ	-4125
▁Giới	-4126
▁khởi	-4127
ຮູ້ວ່າ	-4128
▁Filter	-4129
EN	-4130
OM	-4131
▁@	-4132
arm	-4133
▁Thủ	-4134
▁XXL	-4135
oss	-4136
-201	-4137
ແອ	-4138
ຈິກ	-4139
ທຽບ	-4140
ສູ້	-4141
▁ດົນ	-4142
▁Park	-4143
▁trục	-4144
▁ລ້ຽງ	-4145
ສູດ	-4146
▁70%	-4147
ຫຸ້ມຫໍ່	-4148
ຈິດ	-4149
hình	-4150
ສະຫະ	-4151
ເນັດ	-4152
▁OEM	-4153
▁ủng	-4154
້ອນຮັບ	-4155
▁ຊື້	-4156
9001,	-4157
ລິຂະສິດ	-4158
▁www	-4159
▁ນາຍ	-4160
▁ປະກາດ	-4161
ຕິດຕັ້ງ	-4162
▁thuyết	-4163
ype	-4164
▁cr	-4165
▁núi	-4166
▁đám	-4167
▁ຍອມ	-4168
▁Port	-4169
▁ຂະນະ	-4170
ດາຍ	-4171
ືອດ	-4172
▁nghiêm	-4173
ທວນ	-4174
ingd	-4175
▁20%	-4176
▁cài	-4177
▁ຊັ້ນ	-4178
ພະນັກງານ	-4179
▁lò	-4180
ສະຫນາມ	-4181
ແມ່ນວ່າ	-4182
▁01	-4183
ster	-4184
▁Tên	-4185
▁ສົງ	-4186
ສົມບັດ	-4187
▁tướng	-4188
▁ຖ້າຫາກ	-4189
ider	-4190
▁Heng	-4191
ເອກະສານ	-4192
▁dày	-4193
ລາຍການ	-4194
ົ້າຫມາຍ	-4195
▁Online	-4196
ດິ	-4197
ເຈນ	-4198
▁Chỉ	-4199
▁Nội	-4200
ຢູ່ທີ່	-4201
urg	-4202
▁To	-4203
ເພື່ອນ	-4204
▁Chang	-4205
▁Nhiều	-4206
▁ບັນຫາ	-4207
▁ສີດໍາ	-4208
SM	-4209
ລົບ	-4210
▁Ấn	-4211
ຫນື່ງ	-4212
ເອີ້ນ	-4213
▁giết	-4214
▁ngân	-4215
▁ຫວັງ	-4216
iao	-4217
ບຽນ	-4218
▁XX	-4219
▁ổn	-4220
ື້ອງ	-4221
▁Rel	-4222
▁ຫນ່ວຍ	-4223
ວີ	-4224
ຣິດ	-4225
ຫຼວງ	-4226
▁com	-4227
▁uống	-4228
ສາທາລະ	-4229
ຊົມ	-4230
▁đen	-4231
▁ວາງ	-4232
▁lạnh	-4233
▁ngắn	-4234
ກວດສອບ	-4235
▁ທີ່ມີ	-4236
ຮັບປະກັນ	-4237
ນາຍ	-4238
▁sóng	-4239
▁cường	-4240
ຕັ້ງຂຶ້ນ	-4241
▁Lo	-4242
▁ພີ	-4243
ions	-4244
▁gốc	-4245
▁vừa	-4246
▁ລັກ	-4247
▁ຂັ້ນ	-4248
▁quang	-4249
▁quảng	-4250
IF	-4251
iew	-4252
ຍອມ	-4253
ແລກ	-4254
▁ໄດ້ຖືກ	-4255
7,	-4256
ສີ່	-4257
▁khối	-4258
ational	-4259
BS	-4260
anc	-4261
gen	-4262
istan	-4263
▁tận	-4264
▁Phát	-4265
▁ຮ່າງ	-4266
ນີ້ແມ່ນ	-4267
▁ລວມທັງ	-4268
AP	-4269
ts	-4270
▁War	-4271
▁ຍິ່ງ	-4272
▁ປະຊາ	-4273
▁khuyên	-4274
▁Polyester	-4275
ຸບ	-4276
ford	-4277
▁Đăng	-4278
▁ອາຍຸ	-4279
▁ໃນປີ	-4280
▁Phòng	-4281
▁chuyền	-4282
ສັກ	-4283
▁ຖາມ	-4284
▁tường	-4285
lug	-4286
ຊໍາ	-4287
ປິດ	-4288
▁Sch	-4289
▁ແສງ	-4290
▁ເຈັບ	-4291
▁ອາຫານ	-4292
▁tattoos	-4293
ere	-4294
lim	-4295
ຈານ	-4296
▁55	-4297
▁Mai	-4298
▁East	-4299
▁http	-4300
▁poly	-4301
▁ຫນັກ	-4302
▁chồng	-4303
ຫນຶ່ງໃນ	-4304
ຊິ	-4305
▁z	-4306
ຟຣີ	-4307
▁Hot	-4308
ating	-4309
▁quần	-4310
ມິດ	-4311
ໍລະ	-4312
ຫາວິ	-4313
▁Word	-4314
pcs	-4315
▁Str	-4316
▁ຄົ້ນ	-4317
▁ຫນູນ	-4318
ຄອມພິວ	-4319
CS	-4320
mp	-4321
ອານາ	-4322
▁bại	-4323
▁sóc	-4324
▁loài	-4325
▁thẳng	-4326
ນະໂຍບາຍ	-4327
ົວພັນ	-4328
▁khuôn	-4329
cel	-4330
▁Sử	-4331
▁ຢາ	-4332
ຸມພາ	-4333
▁ຟຣີ	-4334
ໄປໄດ້	-4335
▁ຊື່ງ	-4336
ສຸດທ້າຍ	-4337
▁ພວກເຮົາມີ	-4338
ເດີ	-4339
ຄ້າຍ	-4340
▁đèn	-4341
ລະຫັດ	-4342
lin	-4343
ຄວາມຕ້ອງການ	-4344
▁kêu	-4345
▁you	-4346
eet	-4347
▁Du	-4348
▁gió	-4349
row	-4350
▁lộ	-4351
▁Quỹ	-4352
▁chỗ	-4353
▁Dong	-4354
ມາດຕະຖານ	-4355
BC	-4356
ES	-4357
▁ເຫລົ່າ	-4358
ົດສະຕາລີ	-4359
ເຕັກໂນໂລຊີ	-4360
9)	-4361
iver	-4362
▁Thế	-4363
abric	-4364
▁ໄລຍະ	-4365
ບັງ	-4366
▁Ir	-4367
ໂດຍການ	-4368
46	-4369
rop	-4370
ຫລັງ	-4371
▁đua	-4372
ປະສົມ	-4373
ທົບທວນ	-4374
ໂຄສະນາ	-4375
ວິນ	-4376
ania	-4377
▁bác	-4378
▁căn	-4379
ຈະກໍາ	-4380
▁khung	-4381
▁ສະບັບ	-4382
èo	-4383
ales	-4384
orth	-4385
▁Post	-4386
4)	-4387
St	-4388
app	-4389
▁ແຫນ	-4390
▁Kế	-4391
▁đổ	-4392
ປຸ່ນ	-4393
▁lắng	-4394
▁ເອກະ	-4395
▁khích	-4396
ເຂັ້ມແຂງ	-4397
ດູດ	-4398
▁Des	-4399
▁đền	-4400
▁2012	-4401
ປະຈຸບັນ	-4402
xy	-4403
ຍຸດ	-4404
▁ທີມ	-4405
▁XXXL	-4406
▁ຮ້ອງ	-4407
▁ຕ້ອງການ	-4408
▁Products	-4409
ys	-4410
▁ຍາກ	-4411
ອີງ	-4412
▁ໂສ	-4413
▁HGH	-4414
▁ninh	-4415
▁tránh	-4416
▁ຜູ້ຄົນ	-4417
ເຊີ	-4418
ເອກ	-4419
▁Af	-4420
ຂ້າມ	-4421
▁hoá	-4422
▁thụ	-4423
ສະອາດ	-4424
▁vĩnh	-4425
ຮຽນຮູ້	-4426
▁phước	-4427
ືມ	-4428
້ວນ	-4429
ຫນຸ່ມ	-4430
ແຫ	-4431
300	-4432
rid	-4433
▁dị	-4434
▁hảo	-4435
ustom	-4436
ຕິດຕາມ	-4437
ພົວພັນ	-4438
ແມ່ນການ	-4439
ໄອ	-4440
www	-4441
ລະປະ	-4442
▁Red	-4443
▁tạp	-4444
▁ທໍ່	-4445
esh	-4446
ville	-4447
ຸນແຮງ	-4448
ຫວັດສາດ	-4449
ໃຫ້ທ່ານ	-4450
▁05	-4451
▁All	-4452
▁ໃກ້	-4453
▁Stre	-4454
▁tuân	-4455
▁(5	-4456
▁Sáu	-4457
▁tri	-4458
▁ທົດ	-4459
▁ສຶກ	-4460
▁2008	-4461
▁ຫນ້ອຍ	-4462
▁nghiền	-4463
ຄາມ	-4464
▁Up	-4465
ຍິ່ງ	-4466
ຖຸນາ	-4467
hai	-4468
ຫລອດ	-4469
ລາງວັນ	-4470
▁tattoo	-4471
ັດທະນະທໍາ	-4472
ໄຮ	-4473
ụp	-4474
ເນຍ	-4475
loem	-4476
▁USB	-4477
Phone	-4478
▁thiệt	-4479
jian	-4480
▁Yêu	-4481
▁tầm	-4482
▁ມັງກອນ	-4483
ຕັດສິນໃຈ	-4484
▁Shenzhen	-4485
ໂຄງ	-4486
▁0,	-4487
▁sung	-4488
▁phóng	-4489
3)	-4490
ຊູ	-4491
ẹo	-4492
ủi	-4493
ອາວ	-4494
▁tỏ	-4495
ແຕນເລດ	-4496
▁ສັນຍາ	-4497
ທະບຽນ	-4498
ືອຂ່າຍ	-4499
▁Chương	-4500
ພິຈາລະນາ	-4501
66	-4502
LC	-4503
ose	-4504
edust	-4505
▁hạnh	-4506
ອາກາດໃນ	-4507
▁ຂອງທ່ານ	-4508
ແຮມ	-4509
ກາຍເປັນ	-4510
atic	-4511
olor	-4512
▁Cộng	-4513
▁Miss	-4514
▁ຫຼິ້ນ	-4515
ເຕີເນັດ	-4516
ຜູ້ຜະລິດ	-4517
ke	-4518
ru	-4519
ໂບ	-4520
isa	-4521
▁4,	-4522
▁ຕີ	-4523
▁mời	-4524
▁ເທດ	-4525
utter	-4526
ຖືກຕ້ອງ	-4527
▁ວິນາທີ	-4528
▁ແລະການ	-4529
ເກີດຂຶ້ນ	-4530
3.	-4531
ແຜ່	-4532
▁37	-4533
▁bơm	-4534
▁ເທິງ	-4535
to	-4536
ລິນ	-4537
▁cà	-4538
ປ່ອຍ	-4539
ອາໄສ	-4540
ຕົ້ນຕໍ	-4541
ໃນປະເທດ	-4542
▁Machin	-4543
▁Samloem	-4544
ays	-4545
ີຣົບ	-4546
▁min	-4547
ບັນຈຸ	-4548
ສະແດງໃຫ້ເຫັນ	-4549
ຍ້າຍ	-4550
▁cháy	-4551
▁Giang	-4552
ໃດກໍ່ຕາມ	-4553
▁móc	-4554
▁ເສດ	-4555
▁ຕັດສິນ	-4556
97	-4557
aj	-4558
ft	-4559
ປັບ	-4560
▁3.	-4561
▁Bảo	-4562
ຄວາມຮ້ອນ	-4563
▁Dương	-4564
ຄົດ	-4565
▁hạ	-4566
ເດັກ	-4567
▁Off	-4568
▁ບຸກ	-4569
▁ໂຄງການ	-4570
▁Uk	-4571
ນໍ້າ	-4572
▁ເພດ	-4573
▁cuốn	-4574
▁vững	-4575
ຕ້ອນຮັບ	-4576
▁Me	-4577
ຊົ່ວ	-4578
▁ກິນ	-4579
▁buồn	-4580
ກໍາມະການ	-4581
ຄັດ	-4582
▁1:	-4583
▁ຂາຍ	-4584
▁chặn	-4585
ຕໍາແຫນ່ງ	-4586
Hz	-4587
▁họa	-4588
▁Được	-4589
ộp	-4590
▁ox	-4591
▁ຈິດ	-4592
agram	-4593
ໃນວັນ	-4594
▁ສິງຫາ	-4595
ໄມ	-4596
ທິບໍ	-4597
ລ້ຽງ	-4598
▁mực	-4599
▁tái	-4600
ບັນລຸ	-4601
▁hạng	-4602
▁ການຄາດຄະເນ	-4603
Sh	-4604
▁Bel	-4605
▁Tám	-4606
▁Dòng	-4607
▁diệt	-4608
▁hiển	-4609
ເຫຍື້ອ	-4610
ຂອງຂ້ອຍ	-4611
ການປິ່ນປົວ	-4612
ອັດຕະໂນມັດ	-4613
▁ໃນຂະນະທີ່	-4614
▁໌	-4615
▁sổ	-4616
ຫລວດ	-4617
▁Rob	-4618
▁hấp	-4619
▁trừ	-4620
▁ຊາດ	-4621
ocurr	-4622
▁ngồi	-4623
▁ຂ້າງ	-4624
▁ເຫລືອ	-4625
sk	-4626
▁Ab	-4627
ury	-4628
▁ແຍ	-4629
▁Kit	-4630
ຈະເປັນ	-4631
ຮັບຜິດຊອບ	-4632
ຈໍ	-4633
▁PM	-4634
▁Win	-4635
▁ມີຄວາມ	-4636
ເພີ່ມຂຶ້ນ	-4637
▁ແພ	-4638
Tube	-4639
edia	-4640
ຊໍາລະ	-4641
▁Tool	-4642
▁Canada	-4643
erv	-4644
ຮ່າງກາຍ	-4645
ເງົາ	-4646
▁ລົມ	-4647
▁https	-4648
່ຍ	-4649
▁Mẫu	-4650
ລິມານ	-4651
ຄ່າໃຊ້ຈ່າຍ	-4652
ແຊ	-4653
ớm	-4654
▁El	-4655
ຄະດີ	-4656
ຊ່ວງ	-4657
▁ກາງ	-4658
ສາທາລະນະ	-4659
ຕາຍ	-4660
▁Se	-4661
▁ép	-4662
▁cậy	-4663
ໂຮງຮຽນ	-4664
ວ່າເປັນ	-4665
▁Internet	-4666
ump	-4667
ເທີ	-4668
▁Ed	-4669
ibbe	-4670
ເຊີນ	-4671
▁ຊົມ	-4672
ຜູ້ທີ່	-4673
▁ແກ້	-4674
▁Giải	-4675
▁ຢ້ານ	-4676
con	-4677
ouble	-4678
ຫນັງສື	-4679
▁ລາວໄດ້	-4680
TA	-4681
▁ເນື່ອງຈາກ	-4682
ດິດ	-4683
ຕິກ	-4684
້ວງ	-4685
ylon	-4686
▁tộc	-4687
ລະກົດ	-4688
▁tĩnh	-4689
▁lương	-4690
ໂທດ	-4691
▁Ang	-4692
▁Xem	-4693
▁ngủ	-4694
▁ຊົນ	-4695
▁Home	-4696
ĩa	-4697
ຖືງ	-4698
ອະນາ	-4699
▁sắt	-4700
▁Play	-4701
▁Star	-4702
▁ຝ່າຍ	-4703
ທິບໍດີ	-4704
▁ນອກຈາກ	-4705
84	-4706
ນິວ	-4707
▁nén	-4708
▁Gold	-4709
▁''	-4710
ings	-4711
▁Ben	-4712
▁Khoa	-4713
ຜູ້ຊາຍ	-4714
ສຸຂະພາບ	-4715
▁ປະເພດທຸລະກິດ	-4716
OB	-4717
ma	-4718
any	-4719
els	-4720
▁re	-4721
ates	-4722
ther	-4723
▁ພອນ	-4724
▁cược	-4725
▁ສີຂາວ	-4726
▁220	-4727
▁Cor	-4728
▁ສະຫະລັດ	-4729
▁ຜູ້ສົ່ງອອກ	-4730
▁PP	-4731
ence	-4732
ເລັກ	-4733
ຕະລາຍ	-4734
▁Cuộc	-4735
▁ດ້ານ	-4736
▁Chứng	-4737
▁ປະຊຸມ	-4738
ຫລັງຈາກ	-4739
ụy	-4740
aph	-4741
▁ຄະ	-4742
▁Wik	-4743
.2018	-4744
▁kháng	-4745
▁khủng	-4746
ມືອາຊີບ	-4747
▁iPhone	-4748
▁Soft	-4749
▁Fiber	-4750
▁giành	-4751
ຄັ້ງທໍາອິດ	-4752
EL	-4753
umb	-4754
shop	-4755
ທະເລ	-4756
▁Bar	-4757
▁ສິບ	-4758
ຫຼາຍກ່ວາ	-4759
CN	-4760
MS	-4761
-15	-4762
ườn	-4763
▁ເຟ	-4764
▁Bao	-4765
▁tồn	-4766
▁ຫນັບ	-4767
▁ຊົ່ວໂມງ	-4768
TF	-4769
ຍົນ	-4770
▁CD	-4771
ອ້າງ	-4772
ເຕືອນ	-4773
▁cuộn	-4774
▁ລັດຖະບານ	-4775
nc	-4776
▁bè	-4777
▁Fit	-4778
▁Kết	-4779
▁Mal	-4780
▁não	-4781
▁West	-4782
▁kiệm	-4783
▁Elect	-4784
ກວ້າງຂວາງ	-4785
▁>>	-4786
▁môn	-4787
ຕໍ່ຕ້ານ	-4788
ຢ້ຽມຢາມ	-4789
ãng	-4790
ລັງ	-4791
ໂຈມຕີ	-4792
▁Jack	-4793
▁Trường	-4794
▁ອີງຕາມ	-4795
▁6,	-4796
▁cờ	-4797
▁ໂບ	-4798
▁Cal	-4799
▁đâu	-4800
▁cook	-4801
ທັງສອງ	-4802
ເຂົ້າໄປໃນ	-4803
▁wordpress	-4804
ໄຕ	-4805
ງວນ	-4806
າດາ	-4807
▁Gal	-4808
ຄວາມໄວ	-4809
▁thiêng	-4810
ທາງເລືອກ	-4811
ຟ້າອາກາດ	-4812
ເຄື່ອງມື	-4813
6)	-4814
ຈົນ	-4815
perb	-4816
▁Như	-4817
▁sớm	-4818
▁Light	-4819
perbaric	-4820
/0	-4821
▁cơn	-4822
ທຸກຄົນ	-4823
▁trích	-4824
▁Blockchain	-4825
▁bề	-4826
▁Bas	-4827
Tiếng	-4828
ກະຊວງ	-4829
▁ປ່ອຍ	-4830
MC	-4831
າບັນ	-4832
▁Giê	-4833
▁lẫn	-4834
▁xấu	-4835
▁ຢືນ	-4836
▁Facebook	-4837
ນັບ	-4838
▁vua	-4839
▁Chín	-4840
▁phỏng	-4841
▁ຫມັ້ນ	-4842
ຮຽກຮ້ອງ	-4843
ເຂົ້າເຖິງ	-4844
▁ໃນເວລາທີ່	-4845
IA	-4846
ML	-4847
lt	-4848
ຍິນ	-4849
ແດນ	-4850
astic	-4851
▁Sing	-4852
▁đỉnh	-4853
SP	-4854
ແຍກ	-4855
▁Hồ	-4856
▁ແດ	-4857
ເກີນ	-4858
ເລີດ	-4859
▁lục	-4860
ຮຸນແຮງ	-4861
ໃຫ້ແກ່	-4862
▁ລະຫວ່າງ	-4863
▁ເພາະວ່າ	-4864
ດິນຟ້າອາກາດ	-4865
ຢູ	-4866
ann	-4867
▁Max	-4868
ເທື່ອ	-4869
ເນື້ອ	-4870
▁ຫລວງ	-4871
▁ລະດັບ	-4872
ຜ່າ	-4873
▁đỏ	-4874
eric	-4875
ກ້າວ	-4876
▁ສູ່	-4877
enoid	-4878
ຄວາມສາມາດ	-4879
ຂະຫນາດນ້ອຍ	-4880
ສິບ	-4881
▁iOS	-4882
▁tán	-4883
▁Tags	-4884
▁ບັນຊີ	-4885
iam	-4886
ott	-4887
ທາດ	-4888
▁ຄູ	-4889
▁ໂດ	-4890
fish	-4891
▁biên	-4892
▁Press	-4893
IP	-4894
oph	-4895
▁ác	-4896
ກໍລະນີ	-4897
▁YouTube	-4898
ທີ່ພວກເຮົາ	-4899
ລັບ	-4900
▁ດິນ	-4901
ibbean	-4902
▁—	-4903
▁Bán	-4904
ຫຼິ້ນ	-4905
▁Thương	-4906
▁ແນ່ນອນ	-4907
ຂີ້ເຫຍື້ອ	-4908
ຣິ	-4909
ຄ້າຍຄື	-4910
▁Caribbean	-4911
ote	-4912
▁sc	-4913
▁ດາ	-4914
▁coi	-4915
▁đợi	-4916
ຫນ່ວຍ	-4917
ວິດີໂອ	-4918
▁ເສົ້າ	-4919
ື້ມ	-4920
▁1.5	-4921
▁Spe	-4922
ການບິນ	-4923
ເຄື່ອງຈັກ	-4924
ING	-4925
▁thác	-4926
ແມ່ຍິງ	-4927
▁liêng	-4928
▁Machine	-4929
ຂອງຂ້າພະເຈົ້າ	-4930
rui	-4931
ຕິງ	-4932
▁kg	-4933
aster	-4934
ອະທິບາຍ	-4935
▁ເດັກນ້ອຍ	-4936
▁Nê	-4937
ຝ່າຍ	-4938
▁Báo	-4939
▁Mid	-4940
▁Vậy	-4941
▁game	-4942
UM	-4943
acc	-4944
▁QR	-4945
▁19,	-4946
▁ງາມ	-4947
48	-4948
.10	-4949
▁CP	-4950
▁dệt	-4951
ສູນກາງ	-4952
ງ່າຍດາຍ	-4953
App	-4954
eed	-4955
ຫມໍ	-4956
▁Ap	-4957
read	-4958
▁info	-4959
▁Suppl	-4960
▁Dedust	-4961
▁ອໍານາດ	-4962
▁ອຸປະກອນການ	-4963
ange	-4964
▁San	-4965
▁khám	-4966
▁siêu	-4967
▁đảng	-4968
ຂະບວນການ	-4969
▁ສະຫນັບສະຫນູນ	-4970
▁·	-4971
ikoo	-4972
▁Vải	-4973
▁ແປງ	-4974
ພະຍາດ	-4975
ອີເມວ	-4976
▁ຄວາມໄວ	-4977
ໂສ	-4978
ໃຊ	-4979
ari	-4980
ify	-4981
uông	-4982
▁(1)	-4983
▁Gro	-4984
▁đột	-4985
ivers	-4986
▁2007	-4987
▁tầng	-4988
▁ຂຶ້ນຄື	-4989
ຊໍາລະເງິນ	-4990
ໃນເວລາທີ່	-4991
1)	-4992
oud	-4993
▁Su	-4994
▁rút	-4995
ລະບຽບ	-4996
▁Mich	-4997
▁ແນະນໍາ	-4998
SS	-4999
kw	-5000
ico	-5001
▁33	-5002
▁rep	-5003
▁ນວນ	-5004
▁tách	-5005
▁ເກັບ	-5006
▁dưỡng	-5007
ແລກປ່ຽນ	-5008
ẽm	-5009
lor	-5010
▁ຫນາດ	-5011
▁ເຄື່ອງພິມ	-5012
▁38	-5013
▁48	-5014
▁7,	-5015
▁ຢ່າ	-5016
▁hiệp	-5017
▁ນາທີ	-5018
▁Pulse	-5019
ມິ	-5020
▁{	-5021
▁bền	-5022
▁hối	-5023
▁hồn	-5024
1.	-5025
ເວນ	-5026
▁Hướng	-5027
ການພັດທະນາ	-5028
shan	-5029
▁Bởi	-5030
ສ່ວນຕົວ	-5031
ທົບທວນຄືນ	-5032
▁ພະນັກງານ	-5033
ການເຮັດວຽກ	-5034
345	-5035
ape	-5036
een	-5037
▁65	-5038
▁ໂປ	-5039
▁Cho	-5040
▁car	-5041
▁ghế	-5042
▁ngờ	-5043
board	-5044
ຈິຕອນ	-5045
ocurrency	-5046
raz	-5047
ຂັດ	-5048
▁tô	-5049
ouse	-5050
້ວາງ	-5051
▁rãi	-5052
ຄໍາຖາມ	-5053
ọa	-5054
▁ID	-5055
▁Về	-5056
▁ດູ	-5057
wide	-5058
ຖ່າຍ	-5059
▁Mini	-5060
ips	-5061
ຊັດ	-5062
ຮອດ	-5063
▁Dự	-5064
▁FS	-5065
▁ແຂງ	-5066
ຈະບໍ່	-5067
▁nhiễ	-5068
▁ເຫຼົ່າ	-5069
ຫາວິທະຍາໄລ	-5070
72	-5071
ເຢ	-5072
ພະນ	-5073
idth	-5074
ຣັ່ງ	-5075
▁cầm	-5076
▁huy	-5077
▁ພຶດສະພາ	-5078
ếm	-5079
pot	-5080
▁Hu	-5081
▁ໍາ	-5082
▁ສາວ	-5083
▁ຫມາກ	-5084
▁ຄໍາຖາມ	-5085
HS	-5086
ສົດ	-5087
▁8,	-5088
▁ẩn	-5089
ົງເຂດ	-5090
ເຕັ້ນ	-5091
ho	-5092
▁5,	-5093
▁ໄຊ	-5094
▁Nước	-5095
▁inch	-5096
▁ອ້າຍ	-5097
ຄິດວ່າ	-5098
▁Twitter	-5099
▁ປະຊາຊົນ	-5100
ຈໍານວນຫຼາຍ	-5101
ara	-5102
▁PCB	-5103
▁Hiệp	-5104
ຕອບສະຫນອງ	-5105
ứt	-5106
ize	-5107
▁ca	-5108
▁0.1	-5109
▁110	-5110
▁tắt	-5111
ໍາລົງ	-5112
▁ຮັກສາ	-5113
ອານາຈັກ	-5114
ເພງ	-5115
▁Bi	-5116
▁at	-5117
▁en	-5118
ling	-5119
ະການ	-5120
ເຕີບ	-5121
ສັງເກດ	-5122
ຮູ້ຈັກ	-5123
▁ກັນຍາ	-5124
ທໍາມະຊາດ	-5125
▁ກົດຫມາຍ	-5126
▁ສະພາບອາກາດໃນ	-5127
▁\	-5128
ສະກ	-5129
uyển	-5130
ຫຼັງ	-5131
▁Văn	-5132
ສະດວກ	-5133
▁chút	-5134
▁mươi	-5135
ຊື່ສຽງ	-5136
uổi	-5137
ັອດ	-5138
▁Si	-5139
▁mét	-5140
▁Đảo	-5141
▁86-5	-5142
▁Thực	-5143
ustrial	-5144
▁Download	-5145
▁Eng	-5146
▁vân	-5147
rew	-5148
ວຽນ	-5149
ຫລັກ	-5150
▁61%	-5151
Press	-5152
ນິຍົມ	-5153
▁ເຊີນ	-5154
ເປົ້າຫມາຍ	-5155
ນ້	-5156
▁ແອ	-5157
mail	-5158
ອັນດັບ	-5159
▁North	-5160
▁Đường	-5161
▁ເອີ້ນ	-5162
▁Ở	-5163
olt	-5164
ital	-5165
▁rơi	-5166
▁Đen	-5167
▁ຫຼັກ	-5168
▁thiểu	-5169
▁Worldwide	-5170
▁Hỗ	-5171
▁ແຫ	-5172
ance	-5173
oint	-5174
▁Mon	-5175
▁che	-5176
ື່ສານ	-5177
▁nhấn	-5178
▁ອົງການ	-5179
▁→	-5180
▁Nha	-5181
▁mãi	-5182
▁giai	-5183
▁ແທ້ໆ	-5184
raw	-5185
▁tờ	-5186
▁ມມ	-5187
▁mod	-5188
▁Đầu	-5189
ຄົນທີ່	-5190
ສ່ວນໃຫຍ່	-5191
▁ວັດສະດຸ	-5192
byg	-5193
ຫັນ	-5194
ິ້ມ	-5195
▁Hengrui	-5196
OP	-5197
▁34	-5198
▁OD	-5199
▁Mục	-5200
ໄປສູ່	-5201
▁dường	-5202
▁ພຽງແຕ່	-5203
ໂຮງງານຜະລິດ	-5204
▁Ví	-5205
▁ຫຍ	-5206
▁ເຜ	-5207
ເຢັນ	-5208
▁Tài	-5209
▁Vật	-5210
້ອື່ນ	-5211
▁ຈ່າຍ	-5212
▁Guang	-5213
ຂັ້ນຕອນ	-5214
▁International	-5215
▁ຄວາມຄິດເຫັນທີ່	-5216
1-	-5217
92	-5218
ແມ	-5219
ựng	-5220
▁ພໍ	-5221
▁bật	-5222
▁ráp	-5223
▁tắm	-5224
▁ນໍ້າ	-5225
ການນໍາໃຊ້	-5226
ການແຂ່ງຂັນ	-5227
▁Mod	-5228
▁ປວດ	-5229
bygden	-5230
ຂອງພຣະ	-5231
era	-5232
ຢຸດ	-5233
rael	-5234
ຮ້ານ	-5235
ີນີ້	-5236
ເກືອບ	-5237
ikoooo	-5238
ຮ້ອງສະຫມັກ	-5239
▁ການນໍາໃຊ້	-5240
ava	-5241
▁Mô	-5242
▁Câu	-5243
cript	-5244
ໃນຕອນ	-5245
▁sông	-5246
▁ມີນາ	-5247
ແນ່ນອນ	-5248
▁duyệt	-5249
▁Hyperbaric	-5250
ການຝຶກອົບຮົມ	-5251
ສ໌	-5252
▁xi	-5253
▁Ant	-5254
▁cáp	-5255
ຕົນເອງ	-5256
ເງື່ອນໄຂ	-5257
ພັດ	-5258
▁ຄວ	-5259
▁gắn	-5260
ເຫລືອ	-5261
▁Bằng	-5262
▁ສັ່ງ	-5263
▁thoát	-5264
▁Charter	-5265
TT	-5266
dr	-5267
▁Ge	-5268
▁Tự	-5269
▁pr	-5270
▁Zhe	-5271
້າສຸດ	-5272
▁York	-5273
▁chào	-5274
ສະເຫມີ	-5275
oz	-5276
ateg	-5277
ified	-5278
ໍານວຍ	-5279
ຈາຍ	-5280
ເຮົ	-5281
▁ly	-5282
▁ບາ	-5283
▁ໂຍ	-5284
▁ໂຮ	-5285
▁khá	-5286
▁ngài	-5287
▁tiềm	-5288
▁ຫຼັງ	-5289
▁Shang	-5290
4.	-5291
OL	-5292
ໃຍ	-5293
▁ໂຈ	-5294
▁17,	-5295
▁rời	-5296
ພະນັນ	-5297
▁Line	-5298
▁Thẻ	-5299
▁ບາບ	-5300
▁Hàng	-5301
▁tùng	-5302
ém	-5303
ຍລະ	-5304
▁9:	-5305
▁NO	-5306
work	-5307
▁ດໍາ	-5308
ມື້ອື່ນ	-5309
ượu	-5310
▁ແຄ	-5311
ones	-5312
ສະວະ	-5313
▁Bur	-5314
▁Ảnh	-5315
▁Ủ	-5316
ກິນ	-5317
ຫີນ	-5318
▁4.	-5319
ເຕີ້	-5320
▁nhờ	-5321
ຂົງເຂດ	-5322
ໃນປັດຈຸບັນ	-5323
iet	-5324
mer	-5325
ຣັກ	-5326
▁Art	-5327
▁chữ	-5328
ປັບປຸງ	-5329
▁Quyến	-5330
▁ຫລັງຈາກ	-5331
ທີ່ແທ້ຈິງ	-5332
mg	-5333
sp	-5334
▁is	-5335
acks	-5336
ະພາບ	-5337
▁ASE	-5338
▁chờ	-5339
▁phó	-5340
▁ພິມ	-5341
▁Whats	-5342
ສໍາຫລັບ	-5343
ປະທ	-5344
ຣິກ	-5345
▁cú	-5346
▁11%	-5347
▁pha	-5348
▁ນອນ	-5349
clone	-5350
▁Tian	-5351
▁trông	-5352
▁Chuyển	-5353
▁ປະເພດຜະລິດຕະພັນ	-5354
6,	-5355
ym	-5356
-12	-5357
▁My	-5358
▁bão	-5359
▁liệt	-5360
ແຮງງານ	-5361
▁ASEAN	-5362
▁Thánh	-5363
▁cheat	-5364
▁vuông	-5365
▁ວັນທີ	-5366
ທີ່ຫນ້າ	-5367
ພາກສ່ວນ	-5368
▁Tattoos	-5369
▁Youjian	-5370
▁Holmbygden	-5371
box	-5372
uch	-5373
tain	-5374
ເມີນ	-5375
▁nửa	-5376
▁vốn	-5377
▁ປັດ	-5378
limited	-5379
ການສົ່ງ	-5380
ອຸນຫະພູມ	-5381
ຂອງບໍລິສັດ	-5382
9.	-5383
AMI	-5384
uss	-5385
vent	-5386
▁mòn	-5387
▁ແບ່ງ	-5388
▁ngược	-5389
ການບໍລິການ	-5390
▁ເຂົາເຈົ້າ	-5391
ືບ	-5392
▁Ma	-5393
▁ໄຂ	-5394
▁Bảy	-5395
▁ອ່ອນ	-5396
▁ເຮືອ	-5397
ເບື້ອງ	-5398
▁chăng	-5399
ຄໍາສັ່ງ	-5400
▁Israel	-5401
QS	-5402
da	-5403
ໂຮ	-5404
ave	-5405
▁ໂຊ	-5406
ader	-5407
▁Aut	-5408
▁Tur	-5409
▁Tìm	-5410
▁hài	-5411
▁Thâm	-5412
ilicon	-5413
▁thang	-5414
ວິທະຍາໄລ	-5415
▁ເຄື່ອງມື	-5416
▁ma	-5417
▁tiêm	-5418
ການປົກ	-5419
oy	-5420
▁as	-5421
▁kẽm	-5422
irect	-5423
▁Nhân	-5424
ວິຊາການ	-5425
▁Instagram	-5426
ປາກ	-5427
▁tụ	-5428
ເຊັນ	-5429
▁ທິດ	-5430
ition	-5431
▁thẩm	-5432
▁Americ	-5433
ເທົ່ານັ້ນ	-5434
8)	-5435
9002	-5436
ຫມູ່	-5437
ບັງຄັບ	-5438
ຜູ້ນໍາ	-5439
ຕາເວັນອອກ	-5440
ອິນເຕີເນັດ	-5441
na	-5442
the	-5443
▁8:	-5444
▁Pe	-5445
▁bê	-5446
▁Ủy	-5447
▁cửu	-5448
▁góc	-5449
-2018	-5450
elash	-5451
ເຊົ້າ	-5452
ພາຍໃຕ້	-5453
ບາງຢ່າງ	-5454
top	-5455
ອ່ອນ	-5456
▁đĩa	-5457
▁buôn	-5458
ingdao	-5459
78	-5460
ute	-5461
ຍີ່	-5462
▁Sn	-5463
▁điệp	-5464
ຂ່າວສານ	-5465
▁($	-5466
▁(2	-5467
▁rào	-5468
▁ທົນ	-5469
▁FAMI	-5470
▁csgo	-5471
▁chiếm	-5472
ເຈົ້າຫນ້າທີ່	-5473
TS	-5474
ລື	-5475
▁bắn	-5476
▁sánh	-5477
ຍລະມັນ	-5478
ດິຈິຕອນ	-5479
ຄຸນນະພາບສູງ	-5480
ors	-5481
▁CF	-5482
▁hắn	-5483
▁Quản	-5484
ຸ້ງຍາກ	-5485
ຜົນປະໂຫຍດ	-5486
aul	-5487
oto	-5488
uck	-5489
▁Cô	-5490
▁ລີ	-5491
▁ໂຣ	-5492
▁And	-5493
▁Box	-5494
▁lầm	-5495
▁mắc	-5496
▁Chơi	-5497
▁ຕຸລາ	-5498
▁Thường	-5499
ການກັ່ນຕອງ	-5500
PE	-5501
▁ro	-5502
ooth	-5503
ແກ້ວ	-5504
▁ຫ້າ	-5505
color	-5506
ຈະຖືກ	-5507
ມາຄົມ	-5508
▁ຕາຕະລາງ	-5509
▁ຖ້າທ່ານ	-5510
▁Roulette	-5511
ໃຫຍ່ທີ່ສຸດ	-5512
%.	-5513
ຊິດ	-5514
▁ngũ	-5515
▁Tiền	-5516
ແລະອື່ນໆ	-5517
ໃຫ້ພວກເຮົາ	-5518
inj	-5519
ular	-5520
▁thù	-5521
▁đòi	-5522
ທະສາດ	-5523
ສືບຕໍ່	-5524
ບາດເຈັບ	-5525
▁Street	-5526
▁Markets	-5527
▁ທໍາມະຊາດ	-5528
ສໍາລັບມື້ນີ້	-5529
REE	-5530
ett	-5531
ຈົດ	-5532
iers	-5533
▁Mỗi	-5534
▁ຊີ້	-5535
▁ທ້າຍ	-5536
▁dương	-5537
▁lạ	-5538
▁ໂກ	-5539
▁ໄມ	-5540
▁Blog	-5541
▁Giao	-5542
▁trần	-5543
▁ເມສາ	-5544
▁ໄຟຟ້າ	-5545
▁Qingdao	-5546
▁ຫຼັງຈາກນັ້ນ	-5547
ext	-5548
▁hoang	-5549
▁Christ	-5550
ທີ່ສາມາດ	-5551
▁95	-5552
▁ໄສ	-5553
ວນີ້	-5554
▁rối	-5555
ຕົກລົງ	-5556
▁ຮູ້ຈັກ	-5557
yn	-5558
▁2:	-5559
▁Bill	-5560
ຍອມຮັບ	-5561
▁WordPress	-5562
su	-5563
ốm	-5564
ama	-5565
ກຽມ	-5566
ແຂວງ	-5567
▁Cao	-5568
▁tóc	-5569
oster	-5570
▁ກ່ອງ	-5571
▁ແຈ້ງ	-5572
▁ກຸມພາ	-5573
ຂອງຄວາມ	-5574
KW	-5575
ati	-5576
ພໍ່	-5577
▁SP	-5578
ໂດລາ	-5579
▁900	-5580
raine	-5581
▁chối	-5582
ອໍານວຍ	-5583
aricella	-5584
ພູ	-5585
alk	-5586
ຄ້ວ	-5587
ຝາກ	-5588
ນະຄອນ	-5589
ເກົ່າ	-5590
▁Xanh	-5591
▁kiểu	-5592
▁ngạc	-5593
▁ຫນັງສື	-5594
64	-5595
Máy	-5596
iff	-5597
itch	-5598
ລະດູ	-5599
▁Har	-5600
▁Rep	-5601
▁Tòa	-5602
▁ຄອບ	-5603
▁Viện	-5604
▁đựng	-5605
▁nhiễm	-5606
▁Server	-5607
▁ສະຖານທີ່	-5608
▁ການຫຸ້ມຫໍ່	-5609
amb	-5610
▁ໃຜ	-5611
ຈຶ່ງ	-5612
▁20,	-5613
▁Pan	-5614
▁Thị	-5615
▁lãm	-5616
▁máu	-5617
▁Bình	-5618
▁Quận	-5619
▁mạch	-5620
▁tặng	-5621
755	-5622
ລານ	-5623
pring	-5624
GS	-5625
ສຸມ	-5626
ໂທລະ	-5627
▁10%	-5628
▁ຕື່ມ	-5629
▁ນິ້ວ	-5630
ຮັບຮອງ	-5631
▁Trans	-5632
▁phẳng	-5633
▁ປະຈໍາ	-5634
▁ເຊື້ອ	-5635
ສະຫວ່າງ	-5636
ັກໂນໂລຢ	-5637
ທາຍ	-5638
ລາມ	-5639
▁NH	-5640
▁ບານ	-5641
arton	-5642
ແລະມີ	-5643
▁Town	-5644
▁Games	-5645
GO	-5646
ດີດ	-5647
reak	-5648
ທຸກໆ	-5649
▁ໂສກ	-5650
ັອດຕິງ	-5651
▁hương	-5652
ບາ	-5653
▁Dây	-5654
▁khô	-5655
▁tim	-5656
▁ມານ	-5657
▁ອົດ	-5658
▁FREE	-5659
▁Thụy	-5660
▁trại	-5661
▁ເລັດ	-5662
▁ເຫດຜົນ	-5663
ພິດ	-5664
▁64	-5665
▁MB	-5666
ແກັສ	-5667
right	-5668
▁ເກີນ	-5669
▁ພະຈິກ	-5670
ຮ່ວມງານ	-5671
ອົດສະຕາລີ	-5672
7)	-5673
ໄທ	-5674
xin	-5675
▁(0	-5676
anta	-5677
ລະບຸ	-5678
▁1.0	-5679
▁hẹn	-5680
▁khử	-5681
▁đuổi	-5682
▁Email	-5683
▁ເອື້ອຍ	-5684
ລັນ	-5685
▁We	-5686
▁Gia	-5687
▁quà	-5688
▁ຢາງ	-5689
ethyl	-5690
ທິການ	-5691
ການເງິນ	-5692
69	-5693
ij	-5694
sung	-5695
ຍ້ອນ	-5696
▁Ber	-5697
▁ຈັບ	-5698
ທໍາລາຍ	-5699
▁ພວກເຮົາໄດ້	-5700
ົ້ວ	-5701
.0.2	-5702
▁Bột	-5703
▁Cap	-5704
▁hứa	-5705
▁đốt	-5706
▁List	-5707
▁ມັນແມ່ນ	-5708
ດີຕ້ອນຮັບ	-5709
5,	-5710
61	-5711
kh	-5712
ວົນ	-5713
▁1/	-5714
▁Tổ	-5715
▁2.5	-5716
▁Lưu	-5717
ໃນໂລກ	-5718
▁Hiện	-5719
▁Tour	-5720
▁thấm	-5721
▁ແຫນ້ນ	-5722
ນ້ໍາມັນ	-5723
▁ຄາສິໂນ	-5724
▁Varicella	-5725
pm	-5726
eck	-5727
▁ແຕກ	-5728
ເຫດຜົນ	-5729
ຄູ	-5730
▁thô	-5731
ຂອບໃຈ	-5732
▁Seal	-5733
▁Wall	-5734
▁lỏng	-5735
ຊື້ຂາຍ	-5736
ວິສາຫະກິດ	-5737
ya	-5738
ບອນ	-5739
ແນ່	-5740
▁39	-5741
▁ກັດ	-5742
▁ຄົງ	-5743
▁ສັກ	-5744
▁Nhãn	-5745
▁ຕ້ານ	-5746
ເສຍຫາຍ	-5747
▁ເຫມາະ	-5748
ຄໍາແນະນໍາ	-5749
ros	-5750
▁(4	-5751
▁85	-5752
ສິ້ນ	-5753
▁ຄົວ	-5754
▁Giám	-5755
▁thỏa	-5756
▁ໂລຫະ	-5757
▁ສະຫວັນ	-5758
ຫຼຸດຜ່ອນ	-5759
▁ມາດຕະຖານ	-5760
▁ຂອງພວກເຮົາ	-5761
▁ໂທລະສັບມືຖື	-5762
ົ໋	-5763
▁Tu	-5764
dong	-5765
ຮ້ອຍ	-5766
▁10,	-5767
▁Ref	-5768
▁chụp	-5769
ປະທ້ວງ	-5770
▁Industrial	-5771
gl	-5772
ກະຕ	-5773
ດົນ	-5774
▁ພີ່	-5775
▁ເພງ	-5776
ທິຖານ	-5777
▁miền	-5778
▁nhuận	-5779
▁ທັນວາ	-5780
ໃນເດືອນ	-5781
▁ພັດທະນາ	-5782
▁ອຸນຫະພູມ	-5783
ສິ່ງແວດລ້ອມ	-5784
ano	-5785
ໂຕ້	-5786
▁0.	-5787
▁DN	-5788
▁MT	-5789
azon	-5790
▁ກວດ	-5791
ເລກທີ	-5792
▁Flat	-5793
ກັບຄືນ	-5794
▁Dress	-5795
▁ທ່ານຈະ	-5796
▁ຮ່າງກາຍ	-5797
ຄອມພິວເຕີ	-5798
ຢ່າງກວ້າງຂວາງ	-5799
ven	-5800
▁mỏ	-5801
ific	-5802
ວ່ານ	-5803
▁Kim	-5804
▁quỹ	-5805
▁ຂັບ	-5806
ປັນຍາ	-5807
ເວັ້ນ	-5808
▁nhắc	-5809
▁ຫລັກ	-5810
▁ປະມານ	-5811
▁Ukraine	-5812
▁ກ່າວວ່າ	-5813
DA	-5814
GB	-5815
ນັ່ງ	-5816
▁(1,	-5817
▁món	-5818
▁3000	-5819
▁Tiêu	-5820
▁trưng	-5821
▁thượng	-5822
▁ຮູບແບບ	-5823
ດີທີ່ສຸດ	-5824
▁Zhejiang	-5825
vey	-5826
ກູ້	-5827
ອດຄ	-5828
ໃດໆ	-5829
▁Hi	-5830
▁xả	-5831
atal	-5832
ຖານະ	-5833
ຫ່າງ	-5834
▁11,	-5835
▁ຂັດ	-5836
ອັດຕາ	-5837
ວິເຄາະ	-5838
▁ຄວາມຫນາ	-5839
ໃຫ້ບໍລິການ	-5840
ແນກ	-5841
▁5:	-5842
▁ສັບ	-5843
▁Miễn	-5844
ວາງສະແດງ	-5845
ເດດ	-5846
▁3:	-5847
▁hò	-5848
▁Hơn	-5849
▁đúc	-5850
ກໍຕາມ	-5851
▁Camp	-5852
▁Mill	-5853
ັກໂນໂລຢີ	-5854
ớn	-5855
itt	-5856
ແພງ	-5857
ຄຣິດ	-5858
▁ໃຕ້	-5859
▁FXCL	-5860
ຂອງມັນ	-5861
▁chủng	-5862
▁ພະຍານ	-5863
CD	-5864
eta	-5865
ild	-5866
ມາກ	-5867
▁9,	-5868
▁ຍຸ	-5869
▁Thư	-5870
▁ວົງ	-5871
▁răng	-5872
▁ສິ້ນ	-5873
▁ເຂັ້ມ	-5874
ຂອງປະເທດ	-5875
ພວກເຮົາມີ	-5876
800	-5877
▁Mua	-5878
▁oxy	-5879
▁ກອນ	-5880
▁khẩn	-5881
gan	-5882
ged	-5883
▁Mag	-5884
▁ກົງ	-5885
▁ໂຄງ	-5886
enter	-5887
▁Tiến	-5888
▁ngại	-5889
▁ເດີນ	-5890
▁Trắng	-5891
▁ngừng	-5892
ປະຕິບັດການ	-5893
▁Machinery	-5894
▁Suppliers	-5895
4:	-5896
ness	-5897
▁loạn	-5898
▁ປະກອບ	-5899
ຍິ່ງໃຫຍ່	-5900
▁ຫົວຫນ້າ	-5901
ວັດທະນະທໍາ	-5902
ຍຸ	-5903
600	-5904
ali	-5905
alt	-5906
uts	-5907
▁AT	-5908
▁Đã	-5909
▁ໄກ	-5910
ເຄມີ	-5911
▁Bàn	-5912
▁Cas	-5913
▁Chiết	-5914
▁tuyển	-5915
?—	-5916
ຫຼດ	-5917
ເວີ	-5918
▁chó	-5919
ື້ອຍໆ	-5920
▁Thật	-5921
▁Gener	-5922
ທີ່ບໍ່ມີ	-5923
SD	-5924
ka	-5925
203	-5926
ກາກ	-5927
▁03	-5928
▁cũ	-5929
▁iP	-5930
▁pin	-5931
▁căng	-5932
▁ເວັບ	-5933
ເອີຣົບ	-5934
▁xương	-5935
▁ຕະຫລອດ	-5936
ປະກອບດ້ວຍ	-5937
.)	-5938
MA	-5939
isc	-5940
▁Pat	-5941
▁ລໍ້	-5942
▁Giấy	-5943
▁Copyshop	-5944
oon	-5945
▁Inc	-5946
▁Tim	-5947
▁ມອບ	-5948
▁biện	-5949
▁trượt	-5950
▁ກໍລະກົດ	-5951
va	-5952
ney	-5953
ຊຽນ	-5954
ຫນົດ	-5955
▁Led	-5956
▁ໂມງ	-5957
ຕໍ່ສູ້	-5958
▁ສິ່ງທີ່	-5959
▁ການບໍລິການ	-5960
▁ẩm	-5961
▁Per	-5962
▁tổn	-5963
▁ປັບ	-5964
ading	-5965
▁Thay	-5966
▁chảy	-5967
ສໍາພັນ	-5968
ຫົວຂໍ້	-5969
▁Tattoo	-5970
ເຄືອຂ່າຍ	-5971
ata	-5972
ນອນ	-5973
ອຸດ	-5974
▁Là	-5975
-200	-5976
▁Arm	-5977
▁Bây	-5978
▁cắm	-5979
▁ຊຸມ	-5980
ative	-5981
ັງວົນ	-5982
▁(200	-5983
▁xách	-5984
▁Đánh	-5985
▁Nhiệt	-5986
▁ngang	-5987
ຈຸດປະສົງ	-5988
▁ສໍາເລັດ	-5989
ຈໍາເປັນຕ້ອງ	-5990
ຖຸ	-5991
ces	-5992
raq	-5993
van	-5994
▁Opt	-5995
▁Trò	-5996
▁lan	-5997
▁ສີ່	-5998
ກະທໍາ	-5999
▁Vacc	-6000
▁cổng	-6001
▁nhắn	-6002
▁Rikoooo	-6003
dle	-6004
ຊື່ງ	-6005
ແມັດ	-6006
▁0.0	-6007
ຫຼີ້ນ	-6008
▁thảm	-6009
▁ປະຕູ	-6010
▁Motor	-6011
▁Samsung	-6012
▁ການອອກແບບ	-6013
ຫຼັງຈາກນັ້ນ	-6014
82	-6015
ຄ້ວາ	-6016
າຍັງ	-6017
▁Ide	-6018
▁bom	-6019
▁đai	-6020
▁ສອບ	-6021
▁ຫານ	-6022
▁ຍ່າງ	-6023
ແບ	-6024
★★	-6025
ike	-6026
▁Squ	-6027
▁nắm	-6028
▁ບາດ	-6029
▁ປອດ	-6030
▁chặt	-6031
▁ສໍານ	-6032
▁ຮ້ອນ	-6033
▁ມີການ	-6034
▁ໃນວັນ	-6035
ຂໍ້ຄວາມ	-6036
ສະແຕນເລດ	-6037
ເປັນເຈົ້າ	-6038
▁ວາ	-6039
umin	-6040
ລ້ານ	-6041
▁dâm	-6042
▁dọc	-6043
▁đón	-6044
ຫມືອນ	-6045
▁Asia	-6046
▁Best	-6047
▁Phil	-6048
▁huấn	-6049
ອໍານາດ	-6050
ແລະຜູ້	-6051
▁Khách	-6052
▁Cyclone	-6053
ຊະອານາຈັກ	-6054
ຫຼາຍທີ່ສຸດ	-6055
▁cryptocurrency	-6056
ພຶດ	-6057
ເບີ	-6058
izer	-6059
▁bạo	-6060
▁res	-6061
orr	-6062
ນັດ	-6063
▁Cuối	-6064
▁Iraq	-6065
▁ngàn	-6066
▁trống	-6067
ບໍ່ມີການ	-6068
èm	-6069
lob	-6070
ໂພກ	-6071
▁Key	-6072
irtual	-6073
▁ກະສັດ	-6074
73	-6075
IR	-6076
]:	-6077
ແຮ່	-6078
▁KH	-6079
▁Li	-6080
▁Dân	-6081
ເອກະລ	-6082
ໃຈໃສ່	-6083
▁Bảng	-6084
▁Minh	-6085
▁Mold	-6086
▁mảnh	-6087
▁điển	-6088
ຕົວແທນ	-6089
▁Apple	-6090
ປະຫວັດສາດ	-6091
▁ພວກເຂົາເຈົ້າ	-6092
ໃຜ	-6093
່ອມ	-6094
▁MP	-6095
ຈະມີ	-6096
▁Sim	-6097
▁Thu	-6098
▁phạt	-6099
ຂອງລັດ	-6100
Nh	-6101
ເຍ	-6102
▁At	-6103
▁ເຍ	-6104
▁tám	-6105
▁ກາດ	-6106
▁giận	-6107
▁Green	-6108
▁CR	-6109
ield	-6110
▁kia	-6111
▁rượu	-6112
▁ຝຸ່ນ	-6113
ກ່າວຫາ	-6114
▁Group	-6115
63	-6116
OW	-6117
-01	-6118
axy	-6119
ເຕະ	-6120
▁gỡ	-6121
olis	-6122
▁Mat	-6123
▁ຍາມ	-6124
▁ມົນ	-6125
▁Super	-6126
▁admin	-6127
▁ໂອກາດ	-6128
▁ທໍາລາຍ	-6129
▁ຄວາມສຸກ	-6130
ົກລັດຖະມົນຕີ	-6131
OC	-6132
ki	-6133
ືກ	-6134
ໄຈ	-6135
ago	-6136
emo	-6137
coot	-6138
ບັນຍ	-6139
▁2.0	-6140
▁Bow	-6141
▁Cập	-6142
▁ຕື້	-6143
▁nghề	-6144
▁trấn	-6145
ໂຮງງານ	-6146
▁certs	-6147
gh	-6148
▁≥	-6149
ລິດ	-6150
▁Bul	-6151
▁bùn	-6152
ຕິທໍາ	-6153
▁Luật	-6154
▁Paul	-6155
▁ມິຖຸນາ	-6156
ທ່າ	-6157
ສູບ	-6158
▁5.	-6159
▁II	-6160
▁Lời	-6161
ວນຊົນ	-6162
ວຽກງານ	-6163
ອະນາຄົດ	-6164
ໂດຍຜ່ານ	-6165
▁ກ່ຽວກັບພວກເຮົາ	-6166
eme	-6167
▁130	-6168
▁Cle	-6169
▁des	-6170
ເຄິ່ງ	-6171
ແຫຼ່ງ	-6172
▁thận	-6173
▁Vương	-6174
ໃດກໍຕາມ	-6175
▁fabric	-6176
▁thuyền	-6177
▁ວິດີໂອ	-6178
▁ຫົວຂໍ້	-6179
▁ໃນໄລຍະ	-6180
ກິດຈະກໍາ	-6181
ການປັບປຸງ	-6182
ເກັບຮັກສາ	-6183
91	-6184
yan	-6185
ກ້າ	-6186
ຄຸກ	-6187
ຍູ້	-6188
▁vết	-6189
▁ຊັບ	-6190
rylic	-6191
▁Sand	-6192
▁quen	-6193
ປະເມີນ	-6194
▁ທະຫານ	-6195
▁Plastic	-6196
▁Related	-6197
ole	-6198
ກົນ	-6199
▁06	-6200
aint	-6201
rick	-6202
▁12,	-6203
▁Cast	-6204
▁Chào	-6205
ມູນຄ່າ	-6206
ຂອງພວກເຮົາແມ່ນ	-6207
MM	-6208
▁u	-6209
stR	-6210
uri	-6211
▁be	-6212
▁bí	-6213
▁dần	-6214
▁súng	-6215
▁ເຫນີ	-6216
ໂດຍກົງ	-6217
▁ເກືອບ	-6218
stRider	-6219
ຫມັ້ນຄົງ	-6220
71	-6221
▁gr	-6222
▁lẻ	-6223
ພາສີ	-6224
▁Sou	-6225
ທີສອງ	-6226
ລົດໄຟ	-6227
▁Cage	-6228
▁Test	-6229
▁lính	-6230
▁nhãn	-6231
ຄົ້ນຫາ	-6232
ốp	-6233
ພືດ	-6234
ມົນ	-6235
ອັກ	-6236
▁PE	-6237
form	-6238
olone	-6239
ອອກມາ	-6240
▁chín	-6241
▁ພິຈາລະນາ	-6242
ພວກເຂົາເຈົ້າ	-6243
▁380	-6244
▁ປາກ	-6245
▁Kiểm	-6246
▁ຕະຫຼ	-6247
▁ເສື້ອ	-6248
ທີ່ເຫມາະສົມ	-6249
ປິນ	-6250
ວັງ	-6251
ໄລ່	-6252
▁ເຢ	-6253
vers	-6254
ເປົ໋	-6255
▁(2)	-6256
▁kém	-6257
▁sơn	-6258
▁ບິນ	-6259
ກະຈາຍ	-6260
ເຄືອບ	-6261
▁binh	-6262
ໃຫ້ກັບ	-6263
▁Nylon	-6264
▁ບັນທຶກ	-6265
▁ຈໍາເປັນ	-6266
▁WhatsApp	-6267
▁ເຖິງແມ່ນວ່າ	-6268
ຟູ	-6269
ຟັງ	-6270
▁ap	-6271
irus	-6272
ouch	-6273
posh	-6274
▁24,	-6275
▁Fer	-6276
▁ອອນ	-6277
ໍລະມານ	-6278
ໃດຫນຶ່ງ	-6279
ເສັ້ນທາງ	-6280
ຍູ	-6281
ສາວ	-6282
▁ủy	-6283
▁sol	-6284
ແນ່ໃຈ	-6285
▁ແຂວງ	-6286
▁ຢູ່ໃນ	-6287
ປະຕິເສດ	-6288
di	-6289
aff	-6290
eph	-6291
▁09	-6292
▁Hôm	-6293
▁Med	-6294
▁ຈື່	-6295
້າທາຍ	-6296
▁Shop	-6297
▁Amazon	-6298
CE	-6299
TFE	-6300
ael	-6301
way	-6302
ໄຫຼ	-6303
▁vỡ	-6304
▁Học	-6305
▁Roy	-6306
ຽບທຽບ	-6307
▁Zone	-6308
▁hãng	-6309
▁quán	-6310
ການເມືອງ	-6311
▁ຢ້ຽມຢາມ	-6312
▁ການທົບທວນຄືນ	-6313
ky	-6314
▁21,	-6315
▁Gen	-6316
▁Oce	-6317
▁Đội	-6318
ທີ່ໃຊ້	-6319
osterone	-6320
▁ບໍລິການ	-6321
An	-6322
▁າ	-6323
ຂຽວ	-6324
▁Ly	-6325
▁PL	-6326
▁125	-6327
ພົນລະ	-6328
▁Arch	-6329
▁lông	-6330
▁thuế	-6331
▁ແຕ່ລະ	-6332
ກໍາຫນົດ	-6333
ເຮັດໄດ້	-6334
▁ກອງທັບ	-6335
li	-6336
ộm	-6337
ມອບ	-6338
▁4:	-6339
▁bi	-6340
ສັ້ນ	-6341
ໃຫ້ນ	-6342
▁Hàn	-6343
▁Tai	-6344
▁ຂີ້	-6345
ement	-6346
ປະທັບ	-6347
▁Thêm	-6348
▁trộn	-6349
▁ເຄື່ອງຈັກ	-6350
▁Ứ	-6351
omb	-6352
rum	-6353
ຶ້ມ	-6354
▁Di	-6355
ສໍານ	-6356
▁lối	-6357
▁nhị	-6358
▁Pack	-6359
▁phức	-6360
▁ກິລາ	-6361
▁Glass	-6362
▁chuỗi	-6363
ani	-6364
ars	-6365
ໄປຫາ	-6366
▁lừa	-6367
▁ອໍາ	-6368
ືອບິນ	-6369
ແຫນ້ນ	-6370
▁tràn	-6371
▁tuyết	-6372
▁ຫວ່າງ	-6373
▁ຜູ້ທີ່	-6374
▁Vaccine	-6375
▁ເງື່ອນໄຂ	-6376
ຈີ	-6377
urn	-6378
▁AM	-6379
▁dã	-6380
ທ້ອນ	-6381
▁đạp	-6382
▁ສວນ	-6383
ealand	-6384
ຄົນອື່ນ	-6385
-9	-6386
hy	-6387
ye	-6388
▁AU	-6389
▁SD	-6390
ຍ່ອຍ	-6391
ເງີນ	-6392
▁Dub	-6393
▁ປິດ	-6394
▁Serv	-6395
▁đương	-6396
▁ທໍາອິດ	-6397
▁ສັງຄົມ	-6398
ເລຍ	-6399
▁lỗ	-6400
▁đài	-6401
▁ຕູ້	-6402
▁ແຫຼ	-6403
▁Khóa	-6404
▁PTFE	-6405
▁giây	-6406
▁ngọn	-6407
▁ທີ່ຈະ	-6408
ເອີ້ນວ່າ	-6409
1:	-6410
ùa	-6411
▁฿	-6412
ສວຍ	-6413
ໂຕຣ	-6414
aper	-6415
ນິທິ	-6416
ເສີນ	-6417
ຝຣັ່ງ	-6418
▁lượt	-6419
ອດຄ່ອງ	-6420
ເຕີບໂຕ	-6421
▁khẳng	-6422
ບໍລິໂພກ	-6423
▁ອອນໄລນ໌	-6424
ພວກເຮົາຈະ	-6425
VD	-6426
ms	-6427
ựu	-6428
stem	-6429
xury	-6430
▁Bay	-6431
ໃນເຂດ	-6432
▁Zealand	-6433
▁ເຈົ້າຫນ້າທີ່	-6434
CO	-6435
SA	-6436
ds	-6437
▁ar	-6438
char	-6439
▁Cảm	-6440
▁tàn	-6441
ສະຖາບັນ	-6442
ທີ່ມີການ	-6443
IV	-6444
IỆ	-6445
QL	-6446
xi	-6447
Pro	-6448
ທະນ	-6449
▁MI	-6450
▁ແມ	-6451
ູມິນ	-6452
▁18,	-6453
▁Pin	-6454
▁uốn	-6455
▁ຮ້ານ	-6456
actory	-6457
ategor	-6458
ຕໍ່ການ	-6459
ລາຍຊື່	-6460
ຫຼຸດລົງ	-6461
▁ຜູ້ນໍາ	-6462
ື່ມວນຊົນ	-6463
,,	-6464
62	-6465
ặm	-6466
key	-6467
▁ແຮ	-6468
ແຫ້ງ	-6469
▁23,	-6470
▁Cân	-6471
▁lốc	-6472
▁đáo	-6473
▁ອັງ	-6474
▁Mult	-6475
▁tròn	-6476
▁chuột	-6477
▁ພິເສດ	-6478
........	-6479
▁ລັກສະນະ	-6480
ສ່ວນບຸກຄົນ	-6481
ຕ້ອງການທີ່ຈະ	-6482
we	-6483
▁44	-6484
▁DM	-6485
▁GI	-6486
▁ax	-6487
▁28,	-6488
▁Phó	-6489
▁bơi	-6490
lugin	-6491
ວ່າມີ	-6492
ເວລາດ	-6493
▁Sinh	-6494
▁jack	-6495
▁kiên	-6496
▁ແມັດ	-6497
cooter	-6498
ທີ່ນີ້	-6499
ສິລະປະ	-6500
ຟື້ນ	-6501
▁gal	-6502
▁ແດ່	-6503
ທັນທີ	-6504
▁Ngân	-6505
▁xuân	-6506
▁Đồng	-6507
▁thùng	-6508
ຊົ່ວໂມງ	-6509
ຊ່ວຍໃຫ້	-6510
ປະເພດຂອງ	-6511
pa	-6512
ສະຕ	-6513
ịnh	-6514
▁ຊະ	-6515
ລົ້ມ	-6516
▁Mel	-6517
▁trú	-6518
▁ຕຽມ	-6519
▁Ứng	-6520
▁Chọn	-6521
▁viễn	-6522
ລວມທັງ	-6523
ເຄື່ອງພິມ	-6524
ເນື່ອງຈາກ	-6525
▁HP	-6526
▁TV	-6527
▁ໂນ	-6528
▁Rot	-6529
▁ສູ້	-6530
▁Hong	-6531
▁xoáy	-6532
ຖະຫນົນ	-6533
51	-6534
▁BS	-6535
▁OS	-6536
▁ແວ	-6537
▁ໃສ	-6538
ຢ້ຽມ	-6539
▁Dig	-6540
▁gốm	-6541
▁ມັດ	-6542
▁High	-6543
▁cháu	-6544
▁2018,	-6545
ທະນາຄານ	-6546
ສົມບູນແບບ	-6547
▁ການກັ່ນຕອງ	-6548
ãnh	-6549
ສົກ	-6550
ເສບ	-6551
▁58	-6552
▁DR	-6553
▁bl	-6554
▁cặp	-6555
▁Ngay	-6556
▁Thép	-6557
▁thôi	-6558
▁Chiến	-6559
ພະຍາກອນ	-6560
▁ນະໂຍບາຍ	-6561
▁Shanghai	-6562
BA	-6563
vc	-6564
its	-6565
unn	-6566
▁ຈຸ	-6567
amin	-6568
▁180	-6569
▁May	-6570
▁One	-6571
▁gấp	-6572
▁ເດີ	-6573
▁ແນະ	-6574
ature	-6575
ສະໄຫມ	-6576
▁Quan	-6577
▁reply	-6578
ຮ່ວມກັນ	-6579
▁ປະໂຫຍດ	-6580
▁ລູກຄ້າ	-6581
ຄົ້ນຄ້ວາ	-6582
ຫນຶ່ງຂອງ	-6583
sc	-6584
ຜິວ	-6585
ເຈີ	-6586
▁49	-6587
▁ຍາດ	-6588
ender	-6589
ining	-6590
ກວດກາ	-6591
ປຶກສາ	-6592
▁Linux	-6593
▁gương	-6594
ອັນຕະລາຍ	-6595
ປານ	-6596
▁02	-6597
▁tỉ	-6598
udio	-6599
▁bắc	-6600
▁lăn	-6601
ເດັ່ນ	-6602
▁vinh	-6603
ລາຍລະອຽດ	-6604
▁ດໍາເນີນ	-6605
ດຽວກັນກັບ	-6606
LE	-6607
ham	-6608
ướm	-6609
ຕູນ	-6610
▁ST	-6611
▁or	-6612
ສິກໍາ	-6613
▁lồng	-6614
ຂອງນັກ	-6615
ຍຸດທະສາດ	-6616
ຂອງລູກຄ້າ	-6617
VAC	-6618
ướp	-6619
ຂຸດ	-6620
ຊ່ອງ	-6621
▁22,	-6622
▁Set	-6623
▁ສະຖ	-6624
ພຽງພໍ	-6625
▁chép	-6626
▁ລາວກ	-6627
▁Double	-6628
oundation	-6629
ຄະນະກໍາມະການ	-6630
ອານ	-6631
▁SH	-6632
▁SM	-6633
▁TP	-6634
atin	-6635
ippi	-6636
jack	-6637
▁450	-6638
▁Jan	-6639
▁cấm	-6640
▁tan	-6641
▁Trời	-6642
▁giàu	-6643
▁thừa	-6644
ສູນເສຍ	-6645
ູມິນຽມ	-6646
ປົກປ້ອງ	-6647
ພາກພື້ນ	-6648
▁ຈໍາກັດ	-6649
▁ສະເຫນີ	-6650
ລົງຄະແນນ	-6651
▁ພວກເຮົາຈະ	-6652
fr	-6653
zz	-6654
ớp	-6655
▁Φ	-6656
cam	-6657
ປັກ	-6658
▁HB	-6659
ຕື່ນ	-6660
▁FSX	-6661
▁sàn	-6662
▁ຍາວ	-6663
▁ທຸກໆ	-6664
▁khiêu	-6665
▁ສີແດງ	-6666
▁Square	-6667
ຂອງມະນຸດ	-6668
ຂະຫຍາຍຕົວ	-6669
▁ເວັບໄຊທ໌	-6670
ງວນລິຂະສິດ	-6671
ji	-6672
que	-6673
ກະດ	-6674
ປ່າ	-6675
໊ອກ	-6676
▁42	-6677
▁mũ	-6678
▁Bro	-6679
▁ວາວ	-6680
▁Nhóm	-6681
▁giày	-6682
▁vườn	-6683
▁trùng	-6684
▁ນະຄອນ	-6685
issippi	-6686
ຄົ້ນພົບ	-6687
ເກັບກໍາ	-6688
▁ແຕ່ວ່າ	-6689
ຕໍ່ເນື່ອງ	-6690
▁ກອງປະຊຸມ	-6691
ele	-6692
ຖອນ	-6693
ັອກ	-6694
ິຕິ	-6695
ຈ້າງ	-6696
ລ້າງ	-6697
ເອັດ	-6698
▁Ass	-6699
▁cán	-6700
▁Đặc	-6701
▁ລິດ	-6702
▁Coin	-6703
▁ຮຸ່ນ	-6704
ອິນເດຍ	-6705
▁ເກົ້າ	-6706
▁ອາເມລິກາ	-6707
▁ເສັ້ນທາງ	-6708
ຜົນສໍາເລັດ	-6709
▁Bà	-6710
▁Jo	-6711
▁Ox	-6712
ince	-6713
▁Tập	-6714
▁đem	-6715
▁sòng	-6716
▁thoải	-6717
▁Custom	-6718
UN	-6719
ງ່	-6720
erm	-6721
ids	-6722
ເວັບ	-6723
▁1.2	-6724
▁cát	-6725
▁gsm	-6726
▁ກ້າ	-6727
▁đừng	-6728
▁Basel	-6729
▁motor	-6730
ອໍານວຍການ	-6731
▁‘	-6732
▁By	-6733
ແຕ້ມ	-6734
▁Hua	-6735
▁Lim	-6736
▁ແນ່	-6737
ປະສານ	-6738
▁dừng	-6739
ວັດສະດຸ	-6740
ດັ່ງນັ້ນ	-6741
ນາທິບໍດີ	-6742
ເກັບຂີ້ຝຸ່ນ	-6743
ຂໍ້ມູນຂ່າວສານ	-6744
ient	-6745
ເລິກ	-6746
▁FOB	-6747
▁Lào	-6748
▁bãi	-6749
▁ser	-6750
oller	-6751
ເລກຸນ	-6752
ກັງວົນ	-6753
ຜິດພາດ	-6754
ແບ່ງປັນ	-6755
ຖືກນໍາໃຊ້	-6756
ມວນ	-6757
▁66	-6758
▁CB	-6759
▁SK	-6760
▁rẻ	-6761
▁ຜະ	-6762
burg	-6763
▁2009	-6764
▁chai	-6765
apolis	-6766
ຕໍາຫລວດ	-6767
ເປີດເຜີຍ	-6768
ທີ່ໃຊ້ເວລາ	-6769
▁ໂດຍສະເພາະ	-6770
);	-6771
RP	-6772
ທູດ	-6773
▁IN	-6774
▁SE	-6775
▁Áp	-6776
▁ແບ	-6777
ເຕົາ	-6778
▁Bất	-6779
▁Đọc	-6780
▁Java	-6781
▁hồng	-6782
▁ຊື່ນ	-6783
ຖ້າຫາກ	-6784
ປະກອບມີ	-6785
▁ຕິດຕາມ	-6786
▁ເຊື່ອມ	-6787
inecolor	-6788
ການຄວບຄຸມ	-6789
43	-6790
-30	-6791
cer	-6792
oop	-6793
▁EN	-6794
ream	-6795
▁Chu	-6796
▁Đặt	-6797
▁ສູດ	-6798
ຊອບແວ	-6799
ຊະນິດ	-6800
ລັນດອນ	-6801
ໃນຂະນະທີ່	-6802
79	-6803
-18	-6804
ຕີນ	-6805
ປາຍ	-6806
▁Er	-6807
▁ân	-6808
▁ພູ	-6809
amic	-6810
ມະດາ	-6811
▁Giờ	-6812
▁rủi	-6813
▁ຈົດ	-6814
▁Bang	-6815
▁Cook	-6816
▁Kitô	-6817
ulator	-6818
▁ລາຍການ	-6819
ການປະຕິບັດ	-6820
41	-6821
FF	-6822
▁●	-6823
gsm	-6824
▁dỗ	-6825
ເມີດ	-6826
▁3.0	-6827
▁sót	-6828
▁Cent	-6829
▁Cảnh	-6830
▁News	-6831
ຕະຫຼອດ	-6832
ໂຮງແຮມ	-6833
▁Excel	-6834
▁ໂດຍການ	-6835
▁ເປັນຫຍັງ	-6836
▁ໃບຢັ້ງຢືນ	-6837
▁ການພັດທະນາ	-6838
▁ຖ້າຫາກວ່າທ່ານ	-6839
ສະຫະລັດອາເມລິກາ	-6840
km	-6841
ls	-6842
113	-6843
▁lồ	-6844
isco	-6845
oney	-6846
▁16,	-6847
▁350	-6848
▁Rev	-6849
▁Rom	-6850
▁Đơn	-6851
▁ດັບ	-6852
▁ຜົງ	-6853
iforn	-6854
▁King	-6855
▁Dubai	-6856
ຈາ	-6857
”,	-6858
ຈົບ	-6859
ລິມ	-6860
ຍ່າງ	-6861
ທໍານ	-6862
▁pre	-6863
▁ທ່າ	-6864
▁ພັດ	-6865
ຊັດເຈນ	-6866
▁ເນື້ອ	-6867
▁ລາງວັນ	-6868
ສາດສະຫນາ	-6869
42	-6870
ເສົາ	-6871
▁10:	-6872
▁Nói	-6873
▁ກ້າວ	-6874
▁Crack	-6875
▁ກະທໍາ	-6876
ifornia	-6877
ສ້າງສັນ	-6878
▁ໃນເດືອນ	-6879
nam	-6880
ora	-6881
▁..	-6882
▁.:	-6883
▁Az	-6884
▁Fo	-6885
▁Hợp	-6886
▁bữa	-6887
▁kín	-6888
▁Hand	-6889
ອີງໃສ່	-6890
▁ເກົ່າ	-6891
ເຊື່ອຖື	-6892
▁Flight	-6893
ທີ່ໃຫຍ່ທີ່ສຸດ	-6894
**	-6895
ຣດ	-6896
-19	-6897
ຍອດ	-6898
ives	-6899
▁ຮອງ	-6900
usher	-6901
▁ITIL	-6902
▁khôn	-6903
andard	-6904
ຂອບເຂດ	-6905
▁ປົກຄອງ	-6906
▁ຄຸນນະພາບ	-6907
ກີ	-6908
pal	-6909
str	-6910
ກາດ	-6911
ຊົງ	-6912
▁MS	-6913
▁NY	-6914
ager	-6915
heel	-6916
ປື້ມ	-6917
ຫຍັດ	-6918
▁14,	-6919
▁Mos	-6920
▁dặm	-6921
ສະຕິກ	-6922
▁cười	-6923
▁xoắn	-6924
ວາງແຜນ	-6925
ໃຫ້ການ	-6926
▁Beach	-6927
▁Certs	-6928
▁ການຜະລິດ	-6929
▁ເຕັກໂນໂລຊີ	-6930
ớt	-6931
ola	-6932
ບຸນ	-6933
ụng	-6934
▁6:	-6935
▁ອິ	-6936
ລຸ້ນ	-6937
▁Aria	-6938
ormone	-6939
eyelash	-6940
ສົ່ງເສີມ	-6941
▁ເວົ້າວ່າ	-6942
▁California	-6943
93	-6944
CP	-6945
ca	-6946
ຄໍ	-6947
▁EV	-6948
▁Im	-6949
▁Đào	-6950
▁1200	-6951
▁Nguy	-6952
▁Thom	-6953
▁Vill	-6954
▁nhẫn	-6955
ຢືນຢັນ	-6956
ຮັບຮູ້	-6957
▁12345	-6958
▁khoan	-6959
▁Nghiên	-6960
ຄວາມສະອາດ	-6961
▁ການປ່ຽນແປງ	-6962
ÔNG	-6963
▁SS	-6964
▁lũ	-6965
▁mê	-6966
▁mơ	-6967
lish	-6968
▁4.0	-6969
ເປົ໋າ	-6970
▁Nghệ	-6971
▁cướp	-6972
▁hùng	-6973
▁ngẫu	-6974
▁tông	-6975
ສ່ວນຮ່ວມ	-6976
ັບສະຫນຸນ	-6977
▁ປົກກະຕິ	-6978
ìa	-6979
aki	-6980
ili	-6981
ເລີຍ	-6982
razil	-6983
▁Hang	-6984
▁dược	-6985
▁10000	-6986
OG	-6987
ເອວ	-6988
▁43	-6989
pson	-6990
rome	-6991
ື່ອກ	-6992
▁RFC	-6993
▁cản	-6994
▁nút	-6995
▁ທັດ	-6996
▁Tính	-6997
▁ສະພາ	-6998
▁ອ້ອມ	-6999
▁Factory	-7000
▁ຖືກຕ້ອງ	-7001
ທີ່ໄດ້ຮັບ	-7002
Bet	-7003
ict	-7004
▁FA	-7005
▁Ne	-7006
▁hè	-7007
▁ảo	-7008
▁Rad	-7009
eless	-7010
▁Page	-7011
▁ແກ້ວ	-7012
tainer	-7013
▁China	-7014
▁Cheats	-7015
▁Galaxy	-7016
າຊ	-7017
▁;	-7018
▁້	-7019
fly	-7020
▁Od	-7021
▁UN	-7022
▁Gas	-7023
▁Int	-7024
▁Ray	-7025
▁yên	-7026
▁ຮອບ	-7027
lobal	-7028
▁thịt	-7029
▁ເນີນ	-7030
ທ້າທາຍ	-7031
▁Tiếng	-7032
▁ອາກາດ	-7033
▁ອາຄານ	-7034
▁ລາຍງານ	-7035
ການເຄື່ອນໄຫວ	-7036
RO	-7037
▁ໆ	-7038
elt	-7039
▁UK	-7040
▁bờ	-7041
▁mu	-7042
▁mưa	-7043
▁ຮອດ	-7044
ights	-7045
່ນ້ອງ	-7046
▁Iran	-7047
▁Tube	-7048
ຂັບລົດ	-7049
ສະຖານະການ	-7050
ການສໍາຫຼວດ	-7051
ດໍາເນີນງານ	-7052
▁ປະຕິບັດຕາມ	-7053
▁ຕິດຕໍ່ຕອນນີ້	-7054
AY	-7055
ເຖ	-7056
▁51	-7057
▁JW	-7058
ເທີງ	-7059
▁Alb	-7060
▁lận	-7061
ໍາລຸງ	-7062
ທາງເພດ	-7063
▁Zhong	-7064
▁ເຫຼັກ	-7065
ເປັນທີ່	-7066
▁ເອກະຊົນ	-7067
ການອອກແບບ	-7068
ategorized	-7069
ຄວາມກົດດັນ	-7070
ມະຫາວິທະຍາໄລ	-7071
-40	-7072
400	-7073
ướt	-7074
▁ຫະ	-7075
ເລີກ	-7076
▁0.5	-7077
▁rou	-7078
▁ກຽດ	-7079
▁ໂທລະ	-7080
ຂອງໂລກ	-7081
ຕະຫລາດ	-7082
ainless	-7083
▁ອະທິບາຍ	-7084
ທີ່ດີເລີດ	-7085
▁Software	-7086
▁ຍິນດີຕ້ອນຮັບ	-7087
cn	-7088
The	-7089
lay	-7090
▁ແຊ	-7091
ally	-7092
▁Hồi	-7093
▁chở	-7094
▁ທາດ	-7095
▁ຝູງ	-7096
▁ສົບ	-7097
ອາວຸດ	-7098
ໃນວັນທີ	-7099
ເຕັກໂນໂລຢີ	-7100
▁ອັດຕະໂນມັດ	-7101
yr	-7102
ida	-7103
ler	-7104
ແອວ	-7105
ໂອນ	-7106
▁km	-7107
▁ໄຮ	-7108
ເຜົາ	-7109
▁API	-7110
▁Hat	-7111
ຸກຍູ້	-7112
▁ເຜີຍ	-7113
▁Solom	-7114
▁ພັນທະ	-7115
▁Center	-7116
▁ເຄື່ອງຕັດ	-7117
ສ້າງຕັ້ງຂຶ້ນ	-7118
LL	-7119
250	-7120
ຊ້າ	-7121
ston	-7122
▁cất	-7123
▁tha	-7124
▁vít	-7125
▁ພາດ	-7126
▁ໂຍນ	-7127
▁nhảy	-7128
▁ນັ່ງ	-7129
verter	-7130
ສົງຄາມ	-7131
ຮ້ອງຂໍ	-7132
▁Inter	-7133
▁Phone	-7134
▁ngoan	-7135
▁ສະຫນອງ	-7136
▁Foundation	-7137
osm	-7138
▁ສຸ	-7139
▁Sar	-7140
ridge	-7141
▁chấm	-7142
▁đẳng	-7143
ໃນເວລາ	-7144
▁nhánh	-7145
▁Tagged	-7146
▁ໃນຖານະ	-7147
ທີ່ຍິ່ງໃຫຍ່	-7148
▁	-7149
ird	-7150
onic	-7151
ຕະນາ	-7152
▁ດັດ	-7153
▁ສືບ	-7154
▁Will	-7155
ຕົວເອງ	-7156
▁ເຫນືອ	-7157
ຮູບເງົາ	-7158
▁ຄວາມສູງ	-7159
ສະຫນັບສະຫນຸນ	-7160
ລໍ	-7161
ênh	-7162
▁CA	-7163
▁op	-7164
gram	-7165
▁gom	-7166
▁ກະຕ	-7167
▁ທັບ	-7168
▁ລອງ	-7169
▁màng	-7170
▁ເມັດ	-7171
ໃນຊ່ວງ	-7172
ຫົວຫນ້າ	-7173
ໄດ້ຢ່າງ	-7174
▁Brazil	-7175
▁ທົດລອງ	-7176
▁ພາກສ່ວນ	-7177
▁Solenoid	-7178
▁ປະສົບການ	-7179
ຄໍາຮ້ອງສະຫມັກ	-7180
ແສ	-7181
USD	-7182
ຕູ້	-7183
▁kr	-7184
▁ຢູ	-7185
osit	-7186
ກາເຟ	-7187
ຫລວງ	-7188
▁lặp	-7189
▁rắn	-7190
▁ໄຫມ	-7191
ສະການ	-7192
▁lãng	-7193
▁măng	-7194
ington	-7195
ເຂົ້າມາ	-7196
▁Middle	-7197
▁carton	-7198
interest	-7199
▁ຍີ່ປຸ່ນ	-7200
▁ເຈົ້າຈະ	-7201
FC	-7202
pen	-7203
▁TS	-7204
ines	-7205
ross	-7206
ຫ້າມ	-7207
▁jet	-7208
▁ປາດ	-7209
store	-7210
ກັບຄວາມ	-7211
▁giường	-7212
ອະນຸຍາດໃຫ້	-7213
ອຸປະກອນການ	-7214
▁ຫນ້າທາງການ	-7215
▁Mississippi	-7216
ony	-7217
ຄຽງ	-7218
ອອນ	-7219
▁ga	-7220
berg	-7221
oard	-7222
ລຸ່ມ	-7223
ສບຸກ	-7224
▁30%	-7225
▁rao	-7226
▁str	-7227
▁tây	-7228
▁ທາຍ	-7229
00:00	-7230
▁Quần	-7231
▁ngập	-7232
▁ເຕືອນ	-7233
ປະລິມານ	-7234
▁Single	-7235
▁ເຮັດວຽກ	-7236
bs	-7237
ໄນ	-7238
ẫm	-7239
▁im	-7240
ສະຫລ	-7241
▁dọa	-7242
ຖະແຫຼ	-7243
▁củng	-7244
▁lanh	-7245
ຜູ້ໃຊ້	-7246
▁ກໍານົດ	-7247
ທາງອາກາດ	-7248
▁ພື້ນທີ່	-7249
▁ປະສິດທິພາບ	-7250
▁ຢ່າງໃດກໍຕາມ	-7251
ຂອງຜະລິດຕະພັນ	-7252
gy	-7253
-00	-7254
.99	-7255
ini	-7256
ưỡi	-7257
ຜົມ	-7258
▁04	-7259
▁AR	-7260
▁TG	-7261
lymp	-7262
▁Bly	-7263
▁Cốc	-7264
▁Ham	-7265
▁Lao	-7266
▁Sức	-7267
ivate	-7268
ກວ່ານ	-7269
▁Card	-7270
▁kênh	-7271
+00:00	-7272
▁trans	-7273
▁width	-7274
▁ສຶກສາ	-7275
ສົນທະນາ	-7276
ຫ້ອງການ	-7277
▁ບໍ່ແມ່ນ	-7278
▁Generator	-7279
ll	-7280
ACK	-7281
bag	-7282
lam	-7283
ດຶງ	-7284
ປືນ	-7285
▁tw	-7286
ible	-7287
ຣິກາ	-7288
່າໂນ	-7289
▁Scot	-7290
▁bướm	-7291
ສວຍງາມ	-7292
▁Count	-7293
▁Crypt	-7294
▁ເຕັ້ນ	-7295
OD	-7296
je	-7297
ía	-7298
ເຈຍ	-7299
▁11:	-7300
▁GBP	-7301
▁mến	-7302
ຊີແລນ	-7303
ສະບາຍ	-7304
ເລືອດ	-7305
▁hứng	-7306
ການສອບ	-7307
ຍັງບໍ່	-7308
່າໂນ້ຍ	-7309
▁ແຫຼ່ງ	-7310
ກັນຂ້າມ	-7311
ຕາຕະລາງ	-7312
▁ໂຮງຮຽນ	-7313
▁ບົດຄວາມ	-7314
-25	-7315
une	-7316
ແຫລ	-7317
▁Kn	-7318
▁sa	-7319
anda	-7320
ປ່ຽງ	-7321
ຫລິ້ນ	-7322
▁Comm	-7323
▁Phân	-7324
▁quận	-7325
▁cookie	-7326
ຫຍຸ້ງຍາກ	-7327
▁xămhình	-7328
ຊ່ວຍເຫລືອ	-7329
ຕາເວັນຕົກ	-7330
-86	-7331
ana	-7332
ເກີ	-7333
ໂຍງ	-7334
▁52	-7335
▁Ai	-7336
▁It	-7337
▁ấm	-7338
guan	-7339
ເຊີຍ	-7340
▁15,	-7341
▁Sun	-7342
▁cậu	-7343
▁dậy	-7344
▁ຂາດ	-7345
▁ຫມໍ	-7346
ປະດິດ	-7347
▁Flor	-7348
▁ngựa	-7349
ກອງທັບ	-7350
▁Giáng	-7351
▁khổng	-7352
ຄວາມຈິງ	-7353
▁carbon	-7354
ປະກອບສ່ວນ	-7355
ພົນລະເມືອງ	-7356
ຂອງລັດຖະບານ	-7357
ໂທລະສັບມືຖື	-7358
▁ສະບັບເລກທີ	-7359
ụt	-7360
ຊິນ	-7361
▁08	-7362
▁PU	-7363
▁Ru	-7364
▁ລໍ	-7365
inyl	-7366
ເກາະ	-7367
▁ben	-7368
▁mây	-7369
▁ຫາຍ	-7370
ເປົ່າ	-7371
▁blog	-7372
▁ລູກໆ	-7373
▁ໂຫລດ	-7374
▁Smart	-7375
ຮ້າຍແຮງ	-7376
ຫລາຍກວ່າ	-7377
▁Fitting	-7378
ນໍາສະເຫນີ	-7379
ການຊໍາລະເງິນ	-7380
Kh	-7381
WS	-7382
▁đe	-7383
ນຸ່ງ	-7384
▁Tấm	-7385
▁kèm	-7386
▁ບົບ	-7387
▁ລອດ	-7388
thank	-7389
▁Type	-7390
▁tour	-7391
ternet	-7392
ຍັງຄົງ	-7393
ທີ່ລາວ	-7394
▁James	-7395
▁ຕາເວັນ	-7396
▁Deduster	-7397
▁ການສຶກສາ	-7398
ປະຕິບັດຕາມ	-7399
KG	-7400
ແກນ	-7401
▁7:	-7402
▁Xe	-7403
rica	-7404
ໂຫຼດ	-7405
▁Dec	-7406
ສົງໄສ	-7407
ທີມງານ	-7408
ລະເມີດ	-7409
ລັດເຊຍ	-7410
ອັບເດດ	-7411
▁Golden	-7412
neapolis	-7413
ລົງທະບຽນ	-7414
ອາດສາມາດ	-7415
iger	-7416
raft	-7417
ບັນດ	-7418
ເທົາ	-7419
ເວທີ	-7420
ແລ່ນ	-7421
▁ABS	-7422
▁mạc	-7423
▁sup	-7424
▁Đài	-7425
ທີ່ສູງ	-7426
▁nhiêu	-7427
▁ອະທິຖານ	-7428
▁Pinterest	-7429
ບູ	-7430
ais	-7431
led	-7432
▁us	-7433
▁vỏ	-7434
▁170	-7435
▁700	-7436
▁Chi	-7437
▁Cup	-7438
▁Nov	-7439
▁tia	-7440
▁tạm	-7441
▁ຢຸດ	-7442
ເຊົ່າ	-7443
▁Visa	-7444
▁card	-7445
▁chạm	-7446
▁giam	-7447
ການປ່ອຍ	-7448
ສື່ມວນຊົນ	-7449
ໃນທົ່ວໂລກ	-7450
sul	-7451
ລິບ	-7452
▁JP	-7453
▁le	-7454
▁sw	-7455
ເສັງ	-7456
ເອັນ	-7457
▁360	-7458
▁ngừa	-7459
▁quên	-7460
ຂອງນາງ	-7461
▁Cloud	-7462
▁trồng	-7463
▁ຊະນິດ	-7464
▁ສິດທິ	-7465
ອາຍແກັສ	-7466
ນາຍົກລັດຖະມົນຕີ	-7467
gi	-7468
ຊັນ	-7469
▁dò	-7470
▁ກູ	-7471
ໄຟລ໌	-7472
▁0.2	-7473
▁sưu	-7474
ຖະຫນາ	-7475
ຫນ່າຍ	-7476
▁Rock	-7477
▁Đóng	-7478
ສຸມໃສ່	-7479
▁Mount	-7480
▁Triển	-7481
▁nghèo	-7482
▁ສາດສະ	-7483
ສິ້ນສຸດ	-7484
utterfly	-7485
ຫມາຍຄວາມ	-7486
ລາຍງານວ່າ	-7487
▁(6	-7488
▁RN	-7489
▁Áo	-7490
2019	-7491
▁101	-7492
▁sấy	-7493
▁ໄລ່	-7494
▁kịch	-7495
▁with	-7496
▁Đừng	-7497
ຊີ້ຂາດ	-7498
▁sales	-7499
▁ອາຊຽນ	-7500
▁ປະລິມານ	-7501
81	-7502
PP	-7503
emb	-7504
ໄກ່	-7505
▁MC	-7506
alia	-7507
very	-7508
ສະນີ	-7509
▁Chí	-7510
▁cám	-7511
▁lâm	-7512
▁ຫນີ	-7513
▁Băng	-7514
▁Cũng	-7515
▁Năng	-7516
▁Part	-7517
ວມເອົາ	-7518
▁hoàng	-7519
▁Univers	-7520
▁Minneapolis	-7521
/5	-7522
ald	-7523
ເບຍ	-7524
▁Cu	-7525
ping	-7526
▁25,	-7527
▁Lọc	-7528
▁chứ	-7529
ອອກໄປ	-7530
▁Case	-7531
▁ເລັກ	-7532
້ວາງໃຈ	-7533
▁System	-7534
▁ແຮງດັນ	-7535
▁ໄດ້ຮັບການ	-7536
▁ໃນປັດຈຸບັນ	-7537
ຜະ	-7538
▁ne	-7539
▁160	-7540
▁Mặt	-7541
▁Đôi	-7542
▁ນິວ	-7543
▁ຫັດ	-7544
otrop	-7545
▁Nghị	-7546
▁Plus	-7547
▁Prov	-7548
▁Sáng	-7549
▁chăn	-7550
▁iPad	-7551
▁ຂ້າມ	-7552
▁ຊະນະ	-7553
ທົນທານ	-7554
່ານຫີນ	-7555
▁Olymp	-7556
▁Solut	-7557
▁micro	-7558
▁ອັດຕາ	-7559
▁ຜູ້ສະຫນອງ	-7560
OV	-7561
Jar	-7562
olf	-7563
ຕານ	-7564
alls	-7565
ຢ້ານ	-7566
▁Jin	-7567
▁Thổ	-7568
▁hãi	-7569
leton	-7570
ຈະນໍາ	-7571
ມີແສງ	-7572
▁Wire	-7573
▁ສະຫະ	-7574
ເສບຕິດ	-7575
ເຜີຍແຜ່	-7576
ໂຄງສ້າງ	-7577
▁ເຫມືອນ	-7578
ທີ່ພວກເຂົາ	-7579
▁ການປະຕິບັດ	-7580
▁ການເດີນທາງ	-7581
▁ນັບຕັ້ງແຕ່	-7582
150	-7583
ຍືນ	-7584
ບົນ	-7585
ໂຣກ	-7586
▁ເຖ	-7587
ters	-7588
ະນຸມ	-7589
▁ກົວ	-7590
▁ດອກ	-7591
▁ຝຶກ	-7592
allow	-7593
▁Bush	-7594
▁Cung	-7595
ສອງຄົນ	-7596
▁Theme	-7597
ສັງເຄາະ	-7598
▁ເສັ້ນໃຍ	-7599
▁Solomons	-7600
▁ລັດຖະມົນຕີ	-7601
Qu	-7602
ife	-7603
ປີກ	-7604
▁vĩ	-7605
▁Dep	-7606
▁chợ	-7607
▁đếm	-7608
▁ຄ້າ	-7609
▁ນົດ	-7610
ocket	-7611
່ອງໄວ	-7612
ການສົນ	-7613
ຍີ່ຫໍ້	-7614
ທີ່ຂ້ອຍ	-7615
▁Africa	-7616
49	-7617
fu	-7618
inc	-7619
rag	-7620
ຊິງ	-7621
ດອກ	-7622
ດັດ	-7623
ທຽມ	-7624
▁Rd	-7625
▁mộ	-7626
▁(10	-7627
▁thổ	-7628
ຍັງມີ	-7629
▁Brow	-7630
▁Last	-7631
▁ương	-7632
▁ຊ່ອງ	-7633
▁ປຶ້ມ	-7634
ທົດແທນ	-7635
ຕໍາຫຼວດ	-7636
ສະມາຄົມ	-7637
▁SlotJar	-7638
ທີ່ມີຊື່ສຽງ	-7639
SI	-7640
uc	-7641
ậc	-7642
ລໍ້	-7643
ຫົກ	-7644
ແທກ	-7645
▁46	-7646
▁Ag	-7647
▁Sa	-7648
▁mg	-7649
-100	-7650
ຫມາກ	-7651
allet	-7652
ອາຄານ	-7653
▁ພະລັງ	-7654
vanized	-7655
ປະຊາຊາດ	-7656
ພົບເຫັນ	-7657
ຫຼ້າສຸດ	-7658
ເປັນເວລາ	-7659
▁ເພື່ອໃຫ້	-7660
ໄດ້ກ່າວວ່າ	-7661
la	-7662
ຍົງ	-7663
▁EU	-7664
▁mi	-7665
eter	-7666
ຊ້ອນ	-7667
ອາຊີ	-7668
ື້ອມ	-7669
▁12:	-7670
▁240	-7671
▁Nhĩ	-7672
▁Pok	-7673
▁dán	-7674
ember	-7675
ປະກົດ	-7676
▁ຄ້າຍ	-7677
▁2018.	-7678
▁ກະຊວງ	-7679
ບໍລິເວນ	-7680
ທ່ານສາມາດ	-7681
▁Unlimited	-7682
Bộ	-7683
ủa	-7684
ກ່າ	-7685
ລອນ	-7686
ສິກ	-7687
ໄຫລ	-7688
----	-7689
ັກສະ	-7690
▁Tốc	-7691
▁Unc	-7692
▁Wir	-7693
▁đớn	-7694
glass	-7695
ondon	-7696
▁2004	-7697
▁Tham	-7698
▁ຫນອງ	-7699
▁ເຫມີ	-7700
າລະສານ	-7701
▁Paris	-7702
▁Shopify	-7703
▁bitcoin	-7704
ໂດຍສະເພາະ	-7705
▁Scotland	-7706
▁Tỉ	-7707
cont	-7708
ຕື່ມ	-7709
▁Khả	-7710
▁ung	-7711
▁đùn	-7712
▁ແຍກ	-7713
▁Vàng	-7714
▁ຂ້ອງ	-7715
ເກີນໄປ	-7716
ໂຕຣນິກ	-7717
▁South	-7718
ກະສິກໍາ	-7719
ຄັດເລືອກ	-7720
ອົງປະກອບ	-7721
ເລັກໂຕຣນິກ	-7722
ລະຫວ່າງປະເທດ	-7723
ສະພາບແວດລ້ອມ	-7724
▁ທີ່ດີທີ່ສຸດ	-7725
ນານ	-7726
ພຸດ	-7727
ແປກ	-7728
▁DJ	-7729
▁Ob	-7730
▁wh	-7731
inch	-7732
ໄຫມ້	-7733
▁khe	-7734
▁ນິດ	-7735
▁ໂບດ	-7736
veyor	-7737
▁axit	-7738
ຸນເງິນ	-7739
▁Other	-7740
▁Phiên	-7741
▁(2015)	-7742
▁ດໍາລົງ	-7743
ນະສົມບັດ	-7744
ຕັ້ງຢູ່ໃນ	-7745
ໃນປະຈຸບັນ	-7746
▁Portable	-7747
▁Stainless	-7748
PA	-7749
gr	-7750
vel	-7751
▁ຈາ	-7752
▁ốc	-7753
auda	-7754
▁Tem	-7755
▁dứt	-7756
▁nộp	-7757
▁tật	-7758
▁ດຶງ	-7759
▁ພົນ	-7760
▁Dưới	-7761
▁ຊອບແວ	-7762
ຈະໄດ້ຮັບ	-7763
ນ້ໍາຫນັກ	-7764
▁Blackjack	-7765
AE	-7766
EF	-7767
IM	-7768
ots	-7769
▁no	-7770
ໍເຕີ	-7771
▁Sur	-7772
▁Ter	-7773
ຕິກໍາ	-7774
▁86-1	-7775
▁Tình	-7776
etooth	-7777
▁cheats	-7778
▁ບຸກຄົນ	-7779
ຕົວເມືອງ	-7780
▁Digital	-7781
ການລົງທຶນ	-7782
CI	-7783
RL	-7784
bet	-7785
▁AD	-7786
▁lề	-7787
▁190	-7788
▁bậc	-7789
▁Chat	-7790
▁chim	-7791
▁hiến	-7792
▁liều	-7793
andong	-7794
ຄາສິໂນ	-7795
▁Dining	-7796
ຊາວຫນຸ່ມ	-7797
54	-7798
58	-7799
ouk	-7800
ທືນ	-7801
າມາ	-7802
▁TM	-7803
ເດີມ	-7804
▁ກອບ	-7805
▁ຫມາ	-7806
erson	-7807
ipper	-7808
▁Karn	-7809
▁diệu	-7810
▁Organ	-7811
▁Design	-7812
ສິດທິຜົນ	-7813
ສ້າງຕັ້ງ	-7814
▁Michael	-7815
▁ຂັ້ນຕອນ	-7816
ໃນການຜະລິດ	-7817
ຈະໄດ້ຮັບການ	-7818
CM	-7819
Ng	-7820
ple	-7821
uel	-7822
ຈອດ	-7823
ລາສ	-7824
flex	-7825
ຫມຶກ	-7826
▁cốt	-7827
▁mon	-7828
▁off	-7829
▁ບາຍ	-7830
▁bông	-7831
ທີ່ວ່າ	-7832
ເຮືອບິນ	-7833
▁0086-5	-7834
▁Carbon	-7835
▁ບໍ່ໄດ້	-7836
ເຊື່ອມໂຍງ	-7837
▁ນິລັນດອນ	-7838
▁ຂ້າພະເຈົ້າໄດ້	-7839
ze	-7840
2.1	-7841
▁99	-7842
▁sk	-7843
▁đệ	-7844
ມະຫາ	-7845
ເນີດ	-7846
▁86-	-7847
▁PET	-7848
▁cãi	-7849
▁lót	-7850
▁ມືດ	-7851
icker	-7852
ລະພາບ	-7853
ລິນຍາ	-7854
▁trọn	-7855
່າວວ່າ	-7856
▁Saint	-7857
ຂອງເຮົາ	-7858
ດ້ວຍການ	-7859
ແຜ່ນດິນ	-7860
ເລັກນ້ອຍ	-7861
▁cookies	-7862
ຜົນໄດ້ຮັບ	-7863
▁ປະເທດຈີນ	-7864
▁Uncategorized	-7865
ີງ	-7866
ແຟ	-7867
ມຸດ	-7868
ແຂນ	-7869
້ວມ	-7870
ໍ່າ	-7871
▁29,	-7872
▁Cửa	-7873
▁Pip	-7874
▁Sal	-7875
▁Scr	-7876
▁ຍຸດ	-7877
▁ຍົນ	-7878
▁quot	-7879
▁ຕ່ໍາ	-7880
ປະຫຍັດ	-7881
ແຮງດັນ	-7882
▁Speed	-7883
▁ຄູ່ມື	-7884
ສອດຄ່ອງ	-7885
▁Direct	-7886
▁ສູງສຸດ	-7887
▁Americas	-7888
ເປັນທາງການ	-7889
▁ເຂົ້າຮ່ວມ	-7890
▁ະ	-7891
ຖີ່	-7892
ຝັງ	-7893
ສື່	-7894
ấng	-7895
▁Sĩ	-7896
▁Sơ	-7897
▁vẽ	-7898
orts	-7899
ຝັ່ງ	-7900
▁Fre	-7901
▁Hầu	-7902
▁Tan	-7903
▁tần	-7904
▁ສະລ	-7905
▁Foam	-7906
▁phấn	-7907
▁phẫu	-7908
▁Warin	-7909
▁ກໍລະນີ	-7910
,”	-7911
ຈິນ	-7912
ວາວ	-7913
ເມນ	-7914
ຫຍໍ້	-7915
▁000	-7916
▁LLC	-7917
▁Tạo	-7918
▁cựu	-7919
▁thả	-7920
amine	-7921
ector	-7922
ຂັດແຍ	-7923
ເວລານ	-7924
ໄປຍັງ	-7925
▁Hành	-7926
▁Nick	-7927
▁gánh	-7928
▁ຕື່ນ	-7929
estern	-7930
ແປພາສາ	-7931
▁Blythe	-7932
▁ຮັບໃຊ້	-7933
ເຊື່ອວ່າ	-7934
▁acrylic	-7935
▁ເຊິ່ງເປັນ	-7936
ສິ່ງບາງຢ່າງ	-7937
▁ຄວາມກົດດັນ	-7938
▁ໄດ້ກ່າວວ່າ	-7939
dy	-7940
ວບ	-7941
ady	-7942
des	-7943
inn	-7944
ພີມ	-7945
້ຽວ	-7946
▁QU	-7947
▁rỉ	-7948
aker	-7949
iệng	-7950
▁26,	-7951
▁cột	-7952
▁phú	-7953
▁rửa	-7954
▁ຈອນ	-7955
▁ພືດ	-7956
ເນັ້ນ	-7957
▁Cool	-7958
▁Rich	-7959
▁thầy	-7960
▁yarn	-7961
ສະຫມອງ	-7962
ໄປບ່ອນ	-7963
້ອງກັນ	-7964
▁Union	-7965
▁White	-7966
▁crypto	-7967
▁ສໍາພັນ	-7968
▁ອິນເດຍ	-7969
▁Oceania	-7970
▁ຄ່າໃຊ້ຈ່າຍ	-7971
ope	-7972
oth	-7973
uff	-7974
ຟອມ	-7975
▁72	-7976
▁ss	-7977
yang	-7978
ກ່ອງ	-7979
ຊາກອນ	-7980
▁treo	-7981
ຄໍາເຫັນ	-7982
▁ເອກະສານ	-7983
▁ແລະຂ້ອຍ	-7984
ດ້ານວິຊາການ	-7985
7.	-7986
JS	-7987
gs	-7988
-16	-7989
ຕິນ	-7990
▁Go	-7991
▁He	-7992
▁ຊູ	-7993
evel	-7994
▁ອັບ	-7995
ລະວັງ	-7996
▁Lịch	-7997
▁Ninj	-7998
▁vong	-7999
ກະຕຸ້ນ	-8000
▁khiêm	-8001
▁ພວກເຮົ	-8002
ກ້າວຫນ້າ	-8003
▁Bowflex	-8004
▁ຫລວງຫລາຍ	-8005
ທີ່ຖືກຕ້ອງ	-8006
DP	-8007
HO	-8008
za	-8009
ẤT	-8010
ulf	-8011
ຕົງ	-8012
ພັບ	-8013
ໂດດ	-8014
▁tị	-8015
▁Log	-8016
▁Rod	-8017
▁lợp	-8018
▁xâm	-8019
▁ຊິກ	-8020
▁thai	-8021
▁Động	-8022
eramic	-8023
ະນຸມັດ	-8024
ທຸກຢ່າງ	-8025
ໄດ້ເຮັດ	-8026
▁spring	-8027
▁ແມ່ຍິງ	-8028
ໃນມື້ນີ້	-8029
▁Private	-8030
▁ໃນວັນທີ	-8031
ຂອງປະຊາຊົນ	-8032
AF	-8033
MT	-8034
▁DS	-8035
▁up	-8036
2005	-8037
▁3.5	-8038
▁Lên	-8039
▁Out	-8040
▁Saf	-8041
▁bếp	-8042
▁cẩn	-8043
▁ນານ	-8044
ສະຈັນ	-8045
ັກນິກ	-8046
▁Cart	-8047
▁ແຫ້ງ	-8048
onesia	-8049
ວ່ອງໄວ	-8050
ສະຫງົບ	-8051
▁Karnar	-8052
▁Powered	-8053
ການຮ່ວມມື	-8054
▁Copyright	-8055
ຄວາມພະຍາຍາມ	-8056
ແຄນ	-8057
▁ms	-8058
▁Cầu	-8059
▁Mus	-8060
▁Sec	-8061
▁ném	-8062
▁ເລກ	-8063
▁mệnh	-8064
▁trạm	-8065
▁Điển	-8066
ກໍາຈັດ	-8067
ຸງແຕ່ງ	-8068
▁Angel	-8069
▁Flash	-8070
▁Office	-8071
▁ສະຫງົບ	-8072
ເອົາໃຈໃສ່	-8073
ໃນລະຫວ່າງ	-8074
ຊັບພະຍາກອນ	-8075
ຮຽກຮ້ອງໃຫ້	-8076
eyelashstore	-8077
ຄວາມເປັນສ່ວນຕົວ	-8078
BO	-8079
▁TT	-8080
▁cỡ	-8081
▁vs	-8082
.0.1	-8083
▁Mer	-8084
▁Pox	-8085
▁Tab	-8086
▁dối	-8087
uchia	-8088
▁chậm	-8089
▁trôi	-8090
ຊັບສິນ	-8091
ວິສະວະ	-8092
ຫນ້າຈໍ	-8093
▁ເຄືອບ	-8094
ມັນເປັນ	-8095
▁William	-8096
▁ມັນສາມາດ	-8097
ທີ່ມີປະສິດທິພາບ	-8098
car	-8099
ີ້ມ	-8100
ພິທີ	-8101
▁Pie	-8102
▁Soc	-8103
▁Tốt	-8104
▁2003	-8105
▁Hiệu	-8106
▁địch	-8107
▁ປ້າຍ	-8108
▁ສະຕິ	-8109
ບັນດານ	-8110
▁Ngoại	-8111
▁huống	-8112
▁ດົນຕີ	-8113
ຂອງຕົນເອງ	-8114
ທີ່ບໍ່ແມ່ນ	-8115
ບັນດາປະເທດ	-8116
▁ການລົງທຶນ	-8117
ການຄົ້ນຄວ້າ	-8118
ef	-8119
ຖວ	-8120
bed	-8121
ody	-8122
ອີ້	-8123
mark	-8124
ຂວັນ	-8125
ດື່ມ	-8126
▁Det	-8127
▁Sex	-8128
ພະຍົບ	-8129
▁Coil	-8130
▁Iron	-8131
▁làng	-8132
▁rung	-8133
▁ກ້ອນ	-8134
ໂດຍສານ	-8135
▁ຂໍ້ຄວາມ	-8136
56	-8137
ýt	-8138
ຟໍ	-8139
bit	-8140
ລາງ	-8141
▁Xu	-8142
▁ຍະ	-8143
user	-8144
ຫົ່ມ	-8145
ອ້ອມ	-8146
▁Pak	-8147
▁men	-8148
▁ຄອມ	-8149
▁ດວງ	-8150
▁ເມີ	-8151
ຍາບັນ	-8152
ມານີ້	-8153
▁ຖິ້ມ	-8154
ກັບຜູ້	-8155
ມວນຜົນ	-8156
▁Jiang	-8157
▁Touch	-8158
▁ngoái	-8159
ສະຫນາມບິນ	-8160
ເຫລົ່ານີ້	-8161
",	-8162
vi	-8163
-11	-8164
ION	-8165
als	-8166
ift	-8167
▁54	-8168
▁ໂພ	-8169
▁Mad	-8170
▁Xây	-8171
wheel	-8172
ວິຫານ	-8173
▁dính	-8174
▁nhấp	-8175
▁ຍ້າຍ	-8176
▁Giêng	-8177
▁Ideas	-8178
▁ພາຍໃນ	-8179
▁86-574	-8180
▁ແຕ່ງງານ	-8181
ຜ່າສູນກາງ	-8182
▁ຜົນກະທົບ	-8183
.35	-8184
hua	-8185
ves	-8186
ຄົບ	-8187
ບາກ	-8188
▁RH	-8189
ຂົ່ມ	-8190
ຄ້ານ	-8191
ຊີ້ນ	-8192
▁750	-8193
▁Atl	-8194
▁Gọi	-8195
▁hào	-8196
▁ກົນ	-8197
ອຸດົມ	-8198
▁Book	-8199
▁Cert	-8200
▁Hiến	-8201
▁Pump	-8202
▁ຖິ່ນ	-8203
▁ເຕົາ	-8204
ໃຊ້ໄດ້	-8205
unction	-8206
▁online	-8207
ຄວາມສົນໃຈ	-8208
ຈະເຮັດໃຫ້	-8209
ທີ່ເຮັດໃຫ້	-8210
▁ວິທະຍາສາດ	-8211
̣c	-8212
▁hổ	-8213
ຕຸລາ	-8214
ຟ້ອງ	-8215
▁230	-8216
▁Bên	-8217
▁Rất	-8218
▁ແກະ	-8219
▁Matt	-8220
▁chìm	-8221
ລາຍໄດ້	-8222
ສັນຍານ	-8223
ແມ່ນມີ	-8224
▁Tương	-8225
▁andro	-8226
▁huyện	-8227
▁ນັບຖື	-8228
▁modified	-8229
ຄວາມເສຍຫາຍ	-8230
%,	-8231
nd	-8232
ຊີນ	-8233
ດັງ	-8234
ຣັດ	-8235
ລອດ	-8236
ລ່າ	-8237
▁41	-8238
▁hề	-8239
▁per	-8240
▁xóa	-8241
ພະຈິກ	-8242
▁thổi	-8243
▁ເລິກ	-8244
ການຂາຍ	-8245
▁khiết	-8246
ບົດຄວາມ	-8247
▁Luxury	-8248
▁Shandong	-8249
ti	-8250
ກ໊	-8251
-05	-8252
Com	-8253
mar	-8254
rad	-8255
ກອບ	-8256
▁BL	-8257
▁hư	-8258
luor	-8259
ທະວີ	-8260
ວິໄຈ	-8261
▁Mah	-8262
▁Tay	-8263
▁hải	-8264
▁lão	-8265
▁mắn	-8266
▁sạc	-8267
▁ນຶກ	-8268
▁ເມຍ	-8269
ments	-8270
ພາກສາ	-8271
ອາການ	-8272
▁[...	-8273
▁ເສີມ	-8274
ເບິ່ງຄື	-8275
▁123456	-8276
▁Phương	-8277
▁ສົງຄາມ	-8278
ທີ່ມີຢູ່	-8279
▁Dongguan	-8280
▁ແມ່ນຫຍັງ	-8281
▁Bluetooth	-8282
ທີ່ສົມບູນແບບ	-8283
me	-8284
acy	-8285
ưởi	-8286
▁tủ	-8287
cast	-8288
▁Hộp	-8289
▁ODM	-8290
ສີຂາວ	-8291
▁6000	-8292
▁Link	-8293
▁xứng	-8294
ບໍ່ແຮ່	-8295
▁Quyền	-8296
▁County	-8297
▁Khoảng	-8298
ຂ້າງເທິງ	-8299
83	-8300
?”	-8301
BR	-8302
FL	-8303
UB	-8304
ena	-8305
▁56	-8306
ding	-8307
▁140	-8308
▁Mil	-8309
ດົນຕີ	-8310
▁Prec	-8311
ipedia	-8312
teroid	-8313
ຈະຕ້ອງ	-8314
ແຜນການ	-8315
▁ເລືອດ	-8316
ັ່ງກ່າວ	-8317
▁Global	-8318
▁London	-8319
▁ທີ່ໄດ້	-8320
ຂອງເຄື່ອງ	-8321
ຄ້າຍຄືກັນ	-8322
ຕິດຕໍ່ຕອນນີ້	-8323
ເພື່ອເຮັດໃຫ້	-8324
ຂໍ້ມູນເພີ່ມເຕີມ	-8325
mi	-8326
ທາ	-8327
10,	-8328
gin	-8329
oul	-8330
val	-8331
▁Pu	-8332
▁ຕຸ	-8333
▁ຣະ	-8334
ຊີວະ	-8335
▁Del	-8336
▁Lee	-8337
▁Roo	-8338
▁lạm	-8339
▁ຫີນ	-8340
▁ໂທດ	-8341
light	-8342
▁Land	-8343
▁Song	-8344
ບໍ່ໃຫ້	-8345
▁ໂຄສົກ	-8346
▁Alumin	-8347
ຫຼວງຫຼາຍ	-8348
ຄຸນສົມບັດ	-8349
▁Province	-8350
▁Standard	-8351
ອົງການຈັດຕັ້ງ	-8352
-80	-8353
.05	-8354
get	-8355
ສີດ	-8356
ເຄຍ	-8357
▁VÀ	-8358
xBet	-8359
ຄ່ໍາ	-8360
ຢູ່ນ	-8361
ເກົາ	-8362
ເຈັດ	-8363
▁Mới	-8364
▁ທ້າ	-8365
aming	-8366
▁trốn	-8367
▁ຟື້ນ	-8368
▁ອ້າງ	-8369
▁ໃນຕອນ	-8370
ລະບົບການ	-8371
87	-8372
Ar	-8373
off	-8374
mont	-8375
ຊັ່ນ	-8376
ຊື່ນ	-8377
ລິ້ນ	-8378
ຫຼີກ	-8379
▁AUD	-8380
▁Day	-8381
▁Hun	-8382
▁Tân	-8383
▁ມົມ	-8384
ision	-8385
ຫົວໃຈ	-8386
ຽວນີ້	-8387
▁song	-8388
▁ປ່ອງ	-8389
ຟື້ນຟູ	-8390
ວິນຍານ	-8391
ໂຮງຫມໍ	-8392
▁Print	-8393
ເຂົ້າໃນ	-8394
ເອກະລັກ	-8395
▁Dedusting	-8396
▁ການກໍ່ສ້າງ	-8397
ຢ່າງຕໍ່ເນື່ອງ	-8398
esc	-8399
ແປດ	-8400
ghan	-8401
ເລ່ຍ	-8402
▁Koo	-8403
▁bối	-8404
▁mài	-8405
▁súc	-8406
antom	-8407
ຕໍ່ມາ	-8408
ພະຫັດ	-8409
ເຜົ່າ	-8410
▁APEC	-8411
▁Lock	-8412
ຍືນຍົງ	-8413
ນັກຮຽນ	-8414
ບົດບາດ	-8415
▁Austr	-8416
▁Grand	-8417
▁Thuốc	-8418
▁©2005	-8419
ຄຸນະພາບ	-8420
ຄວາມສ່ຽງ	-8421
ດ້ວຍຄວາມ	-8422
▁ພາສາລາວ	-8423
ຂອງໂຄງການ	-8424
▁ປະຫວັດສາດ	-8425
ຄວາມເປັນຈິງ	-8426
ການເລືອກຕັ້ງ	-8427
▁Refinecolor	-8428
."	-8429
GE	-8430
ko	-8431
ຕ໌	-8432
iph	-8433
ຄາວ	-8434
▁63	-8435
▁Je	-8436
▁ru	-8437
ians	-8438
stan	-8439
yuan	-8440
▁1,5	-8441
▁50%	-8442
▁Vận	-8443
▁vòi	-8444
ກະກຽມ	-8445
ເສື້ອ	-8446
▁ລຸ້ນ	-8447
hanouk	-8448
▁Nguồn	-8449
▁Smith	-8450
▁thăng	-8451
▁ແກ້ໄຂ	-8452
ilicone	-8453
▁ພາຍໃຕ້	-8454
▁ອັງກິດ	-8455
▁Virtual	-8456
ໄປຢ້ຽມຢາມ	-8457
▁ນັ້ນແມ່ນ	-8458
▁Indonesia	-8459
▁ໂດຍທົ່ວໄປ	-8460
ຶມ	-8461
-60	-8462
ove	-8463
▁Kỹ	-8464
▁Đồ	-8465
acet	-8466
ນາທີ	-8467
ໂທຫາ	-8468
▁199	-8469
▁Bai	-8470
▁Neo	-8471
▁kẹo	-8472
▁rob	-8473
▁ປານ	-8474
▁giấu	-8475
▁hoan	-8476
▁thầu	-8477
▁inter	-8478
content	-8479
ກັບທ່ານ	-8480
▁ມົນທົນ	-8481
▁internet	-8482
▁ການແກ້ໄຂ	-8483
▁ການຄວບຄຸມ	-8484
▁©2005-2018	-8485
ຂໍ້ມູນກ່ຽວກັບ	-8486
▁ພວກເຮົາສາມາດ	-8487
FS	-8488
UV	-8489
ກູ	-8490
▁ໍ	-8491
ທູ້	-8492
ຜັງ	-8493
ວາຍ	-8494
▁IR	-8495
ages	-8496
egas	-8497
orge	-8498
ຕ່ອງ	-8499
ເປົາ	-8500
ໂນ້ມ	-8501
▁Ele	-8502
▁Mọi	-8503
▁Rec	-8504
▁ບິດ	-8505
ຈິດໃຈ	-8506
ຕິພາບ	-8507
▁4000	-8508
▁Auto	-8509
▁back	-8510
▁ແລ່ນ	-8511
ໃນເມືອງ	-8512
▁Thomas	-8513
ອົບພະຍົບ	-8514
▁ທີ່ໃຊ້ເວລາ	-8515
▁ນອກຈາກນັ້ນ	-8516
▁ເຫລົ່ານັ້ນ	-8517
ປູ	-8518
ໂຟ	-8519
ask	-8520
ກົມ	-8521
▁6.	-8522
▁98	-8523
▁NZ	-8524
ards	-8525
reen	-8526
▁Sub	-8527
▁dại	-8528
▁vay	-8529
▁ມິດ	-8530
▁ລົບ	-8531
ທີສາມ	-8532
ບັດຕິ	-8533
ານນີ້	-8534
▁Open	-8535
▁comp	-8536
▁khái	-8537
▁ມື້ນ	-8538
້ານ້ອຍ	-8539
▁Afghan	-8540
▁Oxford	-8541
ປະມວນຜົນ	-8542
▁ທັດສະນະ	-8543
▁ປ້ອງກັນ	-8544
ຢ່າງຫນ້ອຍ	-8545
▁solenoid	-8546
ການປ້ອງກັນ	-8547
ປະສິດທິຜົນ	-8548
EX	-8549
ລູ	-8550
ala	-8551
elf	-8552
ily	-8553
war	-8554
ລຸດ	-8555
ໂສ້	-8556
▁CT	-8557
▁DX	-8558
▁RO	-8559
▁Tô	-8560
▁Wi	-8561
▁ກວ	-8562
rain	-8563
ryst	-8564
ຫາລື	-8565
▁Aug	-8566
▁Fin	-8567
▁Vir	-8568
ບານເຕະ	-8569
▁plugin	-8570
▁ຕະຫຼອດ	-8571
ຈໍາຫນ່າຍ	-8572
▁ຫນຶ່ງໃນ	-8573
▁ເລື້ອຍໆ	-8574
▁University	-8575
▁ລາຊະອານາຈັກ	-8576
".	-8577
Air	-8578
for	-8579
▁PA	-8580
ctor	-8581
erry	-8582
ກ້ອນ	-8583
▁Hor	-8584
▁khứ	-8585
▁mac	-8586
▁ngã	-8587
-2020	-8588
ປີນີ້	-8589
▁Ling	-8590
▁Pass	-8591
▁Work	-8592
▁liền	-8593
▁niêm	-8594
ຕົວຈິງ	-8595
ປະຈໍາປີ	-8596
▁ສົມບູນ	-8597
ບາງສິ່ງບາງຢ່າງ	-8598
ùm	-8599
24.	-8600
ema	-8601
imm	-8602
ລາກ	-8603
ົວກ	-8604
▁47	-8605
▁Vụ	-8606
arin	-8607
star	-8608
▁Dom	-8609
▁dao	-8610
▁ອົບ	-8611
▁ແພງ	-8612
ພີມມາ	-8613
ລະປິນ	-8614
ແລະບໍ່	-8615
▁Cauda	-8616
▁Hoàng	-8617
▁Peter	-8618
▁ການສະ	-8619
▁Master	-8620
▁ອອກແບບ	-8621
▁Service	-8622
▁Western	-8623
▁ພະເຈົ້າ	-8624
ໃບອະນຸຍາດ	-8625
ຜູ້ຊ່ຽວຊານ	-8626
▁Meyelashstore	-8627
Con	-8628
ams	-8629
ກຽດ	-8630
ແອນ	-8631
▁Dù	-8632
▁ທາ	-8633
ໃຊ້ອ	-8634
▁Leg	-8635
▁Tor	-8636
▁sắm	-8637
▁ướt	-8638
ional	-8639
▁Định	-8640
▁ເຕີບ	-8641
ພວກມັນ	-8642
ວ່າລາວ	-8643
▁ອະນຸຍາດ	-8644
ທົ່ວປະເທດ	-8645
▁ຂຽນເມື່ອ	-8646
▁ຈຸດປະສົງ	-8647
▁Campuchia	-8648
▁ສະລັອດຕິງ	-8649
▁ໃນລະຫວ່າງ	-8650
Co	-8651
LP	-8652
ih	-8653
-50	-8654
UMX	-8655
ິ້ງ	-8656
▁UL	-8657
chat	-8658
ປະໄຕ	-8659
ເດັນ	-8660
ແທ້ໆ	-8661
▁30,	-8662
▁Boh	-8663
▁not	-8664
▁soi	-8665
inder	-8666
▁Mart	-8667
ຕ່ອງໂສ້	-8668
ແລະເປັນ	-8669
ກວ່ານັ້ນ	-8670
ການພະນັນ	-8671
▁ນອກເຫນືອ	-8672
ປະຕິບັດງານ	-8673
▁ນອກຈາກນີ້	-8674
ấc	-8675
erb	-8676
ior	-8677
lan	-8678
ser	-8679
ມຸມ	-8680
ເຫມ	-8681
▁!!	-8682
▁76	-8683
▁Fe	-8684
ailb	-8685
ມະນາ	-8686
ລັອກ	-8687
ໄຮໂດ	-8688
▁(19	-8689
▁Act	-8690
▁chẽ	-8691
▁hỏa	-8692
▁đói	-8693
etate	-8694
▁Alex	-8695
▁Hond	-8696
▁Hồng	-8697
▁Lượt	-8698
▁trào	-8699
▁ເຢັນ	-8700
▁ແລະມີ	-8701
ບໍລິສຸດ	-8702
▁Nguyên	-8703
▁Posted	-8704
▁ຂະຫຍາຍ	-8705
▁ແບ່ງປັນ	-8706
ຕື່ນເຕັ້ນ	-8707
ເພີ່ມຂື້ນ	-8708
hanoukville	-8709
Gi	-8710
IG	-8711
/12	-8712
ສິງ	-8713
▁2)	-8714
▁cỏ	-8715
▁dư	-8716
▁nợ	-8717
agon	-8718
ຸດທິ	-8719
ເສລີ	-8720
▁DVD	-8721
▁Tex	-8722
ກິດຈະ	-8723
▁Feng	-8724
▁Full	-8725
▁Sách	-8726
▁ສະຫມ	-8727
▁ເຊົາ	-8728
ations	-8729
ທິປະໄຕ	-8730
▁Frank	-8731
▁Khung	-8732
▁ສະບາຍ	-8733
▁ເນັ້ນ	-8734
ຕ້ານທານ	-8735
າທິບໍດີ	-8736
▁ທີ່ຖືກ	-8737
▁ຂໍຂອບໃຈ	-8738
▁ພວກເຮົາມີຄວາມ	-8739
II	-8740
ica	-8741
tml	-8742
▁vé	-8743
▁115	-8744
▁Lau	-8745
▁tốn	-8746
field	-8747
▁tàng	-8748
▁ຫລານ	-8749
▁ຫ່າງ	-8750
▁Chick	-8751
▁Water	-8752
▁ເປົ້າ	-8753
ກວມເອົາ	-8754
ທັດສະນະ	-8755
ບັດຕິເຫດ	-8756
ປັກຮັກສາ	-8757
▁English	-8758
ໃນອະນາຄົດ	-8759
▁ກິດຈະກໍາ	-8760
ແກ້ໄຂບັນຫາ	-8761
▁Afghanistan	-8762
=1	-8763
do	-8764
▁%	-8765
kgs	-8766
▁Kể	-8767
▁LÀ	-8768
▁QC	-8769
▁tú	-8770
tery	-8771
ີມິນ	-8772
ົ້ານ	-8773
▁13,	-8774
▁Ske	-8775
▁thợ	-8776
▁đàm	-8777
▁đồi	-8778
▁ເບີ	-8779
erved	-8780
▁ຊິ້ນ	-8781
▁ເກີບ	-8782
ipping	-8783
ການສູນ	-8784
ອົງກອນ	-8785
ໂດຍບໍ່	-8786
▁2019.	-8787
▁Clash	-8788
osilicon	-8789
▁ຮູບເງົາ	-8790
ນັບຕັ້ງແຕ່	-8791
▁Solutions	-8792
່ຈ	-8793
ume	-8794
ສະລ	-8795
ໂຣບ	-8796
▁57	-8797
▁px	-8798
flix	-8799
gang	-8800
ject	-8801
▁CAD	-8802
▁Chị	-8803
▁Mex	-8804
▁bọt	-8805
▁mãn	-8806
ອິດສະ	-8807
▁Wash	-8808
▁xoay	-8809
ມິຖຸນາ	-8810
່ຈີມິນ	-8811
▁hoảng	-8812
ashville	-8813
ທີ່ສວຍງາມ	-8814
▁ເກົ້າອີ້	-8815
pc	-8816
và	-8817
ິສ	-8818
wei	-8819
ỗng	-8820
elin	-8821
enny	-8822
ດູແລ	-8823
ດ່ວນ	-8824
ພໍໃຈ	-8825
▁1.1	-8826
▁1.6	-8827
▁Sàn	-8828
▁túc	-8829
▁ທອງ	-8830
ຂະແຫນ	-8831
ຄືກັນ	-8832
ລະບາຍ	-8833
▁1800	-8834
▁ທະນາ	-8835
▁ອະນາ	-8836
ສະຫຼອງ	-8837
▁chàng	-8838
▁miếng	-8839
ຫນ້າຂອງ	-8840
ອີກຄັ້ງ	-8841
▁Chuyến	-8842
ທັນສະໄຫມ	-8843
ຢ່າງເຕັມ	-8844
▁ໃນປະເທດ	-8845
▁Skeleton	-8846
ຄົ້ນບໍ່ແຮ່	-8847
▁ສະແດງໃຫ້ເຫັນ	-8848
mo	-8849
▁Ố	-8850
Các	-8851
ern	-8852
lad	-8853
ຫຼີ	-8854
▁1%	-8855
▁eB	-8856
▁sm	-8857
site	-8858
ຫນາວ	-8859
▁(35	-8860
▁Pur	-8861
▁Rồi	-8862
▁bọc	-8863
▁ທົບ	-8864
▁ນົກ	-8865
▁ພິວ	-8866
▁ສື່	-8867
▁ຫັນ	-8868
▁buýt	-8869
▁cảng	-8870
▁rừng	-8871
ຄຸນຄ່າ	-8872
າກຫຼາຍ	-8873
▁2019!	-8874
▁ຫລິ້ນ	-8875
ຕໍ່ໄປນີ້	-8876
ເຄື່ອງບິນ	-8877
▁ອັນຕະລາຍ	-8878
ທີ່ຕ້ອງການ	-8879
ເບື້ອງຕົ້ນ	-8880
▁ກຸ່ມນະໂຍບາຍ	-8881
▁ນັກຄົ້ນຄວ້າ	-8882
0)	-8883
ິມ	-8884
ຊວນ	-8885
ຢັດ	-8886
ແຈກ	-8887
▁mì	-8888
ໂປແກ	-8889
▁Die	-8890
▁5000	-8891
▁Camb	-8892
▁Wars	-8893
▁vâng	-8894
ບັນຍັດ	-8895
▁Hebei	-8896
ການຮ້າຍ	-8897
ໂມເລກຸນ	-8898
▁Router	-8899
▁lovers	-8900
▁ການຄ້າ	-8901
▁ທຸລະກິດ	-8902
▁Pakistan	-8903
ຄວາມຮູ້ສຶກ	-8904
▁ຄະນະກໍາມະການ	-8905
.34	-8906
por	-8907
ປິກ	-8908
ຫາດ	-8909
▁au	-8910
▁bò	-8911
▁ໄທ	-8912
iano	-8913
▁DIN	-8914
▁ITS	-8915
▁Sep	-8916
▁hỗn	-8917
▁ເຊີ	-8918
ກັບມາ	-8919
ວັດຖຸ	-8920
▁View	-8921
▁châm	-8922
ໃກ້ຊິດ	-8923
▁2019,	-8924
▁Enter	-8925
▁Under	-8926
▁ທັນທີ	-8927
▁ເວັ້ນ	-8928
ກໍາເນີດ	-8929
ຂອງເຂົາ	-8930
▁Chicken	-8931
ການທົດລອງ	-8932
ຄອມພິວເຕີ້	-8933
▁ບົດລາຍງານ	-8934
▁ເຫຼົ່ານີ້	-8935
ຢ່າງໃດກໍ່ຕາມ	-8936
ຂ້າພະເຈົ້າໄດ້	-8937
++	-8938
ແຍງ	-8939
NUMX	-8940
eset	-8941
▁CBD	-8942
▁GPS	-8943
▁ແປກ	-8944
usion	-8945
ສະຕຽນ	-8946
▁gạch	-8947
▁khói	-8948
eboard	-8949
lamode	-8950
ບາງຄົນ	-8951
ຕັ້ງຄ່າ	-8952
▁custom	-8953
▁ທີ່ບໍ່	-8954
▁ຜູ້ຍິງ	-8955
ການສື່ສານ	-8956
▁Koowheel	-8957
▁Wireless	-8958
▁ເຄືອຂ່າຍ	-8959
▁ເລີ່ມຕົ້ນ	-8960
▁Misslamode	-8961
▁ບັນຊີຜະລິດຕະພັນ	-8962
AI	-8963
UT	-8964
ùy	-8965
ສຸ	-8966
.06	-8967
101	-8968
110	-8969
enb	-8970
par	-8971
ຖຽງ	-8972
ogue	-8973
ຕໍ່າ	-8974
ອານຸ	-8975
ເບີກ	-8976
▁thơ	-8977
▁ລວງ	-8978
ທິພົນ	-8979
▁Code	-8980
▁Phải	-8981
▁With	-8982
▁mold	-8983
zhuang	-8984
ຜູ້ແທນ	-8985
ອັງຄານ	-8986
▁Giêsu	-8987
ດາວໂຫລດ	-8988
▁Island	-8989
▁Rotary	-8990
▁nghiện	-8991
ຈັນຍາບັນ	-8992
ແນ່ໃຈວ່າ	-8993
ການສົນທະນາ	-8994
▁Wikipedia	-8995
aly	-8996
ມິນ	-8997
ເຄນ	-8998
▁59	-8999
▁NG	-9000
▁Ôn	-9001
▁Hel	-9002
▁nêu	-9003
▁sôi	-9004
▁ລືມ	-9005
▁nhạy	-9006
▁your	-9007
ປົກຄອງ	-9008
ສະຖານີ	-9009
ສະຖິຕິ	-9010
▁miệng	-9011
duction	-9012
otropin	-9013
ຫ່າງຈາກ	-9014
alloween	-9015
ະລູມິນຽມ	-9016
▁ທະນາຄານ	-9017
ກໍານົດໄວ້	-9018
cá	-9019
wp	-9020
yc	-9021
ໄດ	-9022
ຊັກ	-9023
ິມະ	-9024
ເຣຍ	-9025
▁Mo	-9026
1000	-9027
ສະດີ	-9028
▁bar	-9029
▁ຮົບ	-9030
ophil	-9031
▁Size	-9032
▁ຍື່ນ	-9033
▁ສະລະ	-9034
▁ຫ່ວງ	-9035
ສະທ້ອນ	-9036
▁2017,	-9037
▁Texas	-9038
iffuser	-9039
້ອງຖ່າຍ	-9040
▁Market	-9041
▁Paypal	-9042
▁Pocket	-9043
▁Thread	-9044
▁ສັງເກດ	-9045
▁ເຟສບຸກ	-9046
▁Netflix	-9047
▁scooter	-9048
▁ເພີ່ມຂຶ້ນ	-9049
estosterone	-9050
ທີ່ກ່ຽວຂ້ອງກັບ	-9051
ສາມາດໄດ້ຮັບການ	-9052
▁Sihanoukville	-9053
▁ສະຫງວນລິຂະສິດ	-9054
zip	-9055
ລວງ	-9056
ແມນ	-9057
▁RS	-9058
acle	-9059
asma	-9060
igan	-9061
item	-9062
play	-9063
▁-20	-9064
▁BBC	-9065
▁Sil	-9066
▁bit	-9067
▁nấu	-9068
urity	-9069
▁Tele	-9070
▁ສັ້ນ	-9071
▁cương	-9072
ເຢຍລະມັນ	-9073
▁Aluminum	-9074
PN	-9075
TH	-9076
ຕຸ	-9077
ỚI	-9078
999	-9079
aya	-9080
fer	-9081
ຮົບ	-9082
ະລາ	-9083
ເປີ	-9084
▁AS	-9085
▁IC	-9086
▁dr	-9087
arak	-9088
feng	-9089
ming	-9090
ຊຶ່ງ	-9091
ຫຸ້ນ	-9092
ເມັດ	-9093
▁365	-9094
▁Big	-9095
▁Los	-9096
▁Lou	-9097
▁gọn	-9098
▁ຟ້າ	-9099
▁Game	-9100
ພຣະອົງ	-9101
ໃຫ້ນັກ	-9102
▁ເຊົ້າ	-9103
▁Palest	-9104
▁ຄຸນຄ່າ	-9105
▁ແລະມັນ	-9106
ailbreak	-9107
▁ພີ່ນ້ອງ	-9108
ທີ່ດີກວ່າ	-9109
▁polyester	-9110
▁ຄວາມສາມາດ	-9111
ປະທານນາທິບໍດີ	-9112
VN	-9113
ws	-9114
day	-9115
▁07	-9116
▁Da	-9117
▁ab	-9118
anth	-9119
ents	-9120
ຫະນະ	-9121
▁(11	-9122
▁dev	-9123
▁rỗi	-9124
▁ສວຍ	-9125
ereum	-9126
ution	-9127
ກໍາໄລ	-9128
▁Cont	-9129
▁Hero	-9130
▁ການສ	-9131
▁ຫມວດ	-9132
▁ເຂັມ	-9133
ນີ້ໄດ້	-9134
▁Lượng	-9135
ຈັດສົ່ງ	-9136
▁Chrome	-9137
▁Manager	-9138
▁ສາດສະດາ	-9139
▁ສາສະຫນາ	-9140
ໃບຢັ້ງຢືນ	-9141
▁ສະແຕນເລດ	-9142
ວ່າພວກເຂົາ	-9143
RC	-9144
ễn	-9145
-90	-9146
elo	-9147
▁ຖາ	-9148
abin	-9149
uity	-9150
▁0.9	-9151
▁195	-9152
▁Geo	-9153
▁Oct	-9154
▁cor	-9155
▁ຂຸດ	-9156
▁ຂົນ	-9157
▁ແຂນ	-9158
ental	-9159
ກ້ວາງ	-9160
ຕະວັດ	-9161
ພວກເຂ	-9162
▁Fire	-9163
▁mini	-9164
▁ແຂ່ງ	-9165
ກາກບອນ	-9166
▁Khuôn	-9167
▁prote	-9168
ສຸກເສີນ	-9169
ເປັນໄປໄດ້	-9170
ເຮັດແນວໃດ	-9171
▁Conveyor	-9172
ກໍ່ການຮ້າຍ	-9173
ມີສ່ວນຮ່ວມ	-9174
▁Guangdong	-9175
▁ອົດສະຕາລີ	-9176
▁ການປິ່ນປົວ	-9177
▁ເຊັ່ນດຽວກັນກັບ	-9178
-13	-9179
nov	-9180
ໂມນ	-9181
▁PN	-9182
▁ak	-9183
ning	-9184
wood	-9185
▁Tối	-9186
▁già	-9187
ກຸມພາ	-9188
ໄປທີ່	-9189
▁Snap	-9190
▁khen	-9191
▁khát	-9192
▁ຄລິດ	-9193
▁ທ້າວ	-9194
▁ຫຼວດ	-9195
ປະເຊີນ	-9196
jection	-9197
▁Mexico	-9198
▁ຄອມພິວ	-9199
▁ໂຮງແຮມ	-9200
▁Express	-9201
▁ບ່ອນທີ່	-9202
ພາກສະຫນາມ	-9203
ກົງກັນຂ້າມ	-9204
ແນວຄວາມຄິດ	-9205
df	-9206
ບີ	-9207
-02	-9208
atr	-9209
ilm	-9210
ທອງ	-9211
▁bó	-9212
▁ức	-9213
ຮົ້ວ	-9214
▁(25	-9215
▁Acc	-9216
▁Dia	-9217
▁sữa	-9218
ຄວນຈະ	-9219
ຟຣິກາ	-9220
ອະດີດ	-9221
ອາຈານ	-9222
▁Hill	-9223
▁Oper	-9224
▁sưởi	-9225
▁tươi	-9226
▁wood	-9227
▁ຫມັກ	-9228
▁ຫຼຸດ	-9229
▁ເວັນ	-9230
ວົງຈອນ	-9231
ສະເລ່ຍ	-9232
ໃກ້ກັບ	-9233
▁chiên	-9234
▁ພະຍາດ	-9235
ປະຊາກອນ	-9236
ປະທັບໃຈ	-9237
ສ່ວນຂອງ	-9238
▁Option	-9239
▁ແຜນຜັງ	-9240
ເລືອກເອົາ	-9241
▁ລາຄາປົກກະຕິ	-9242
HE	-9243
125	-9244
ker	-9245
ona	-9246
ຖີບ	-9247
▁FI	-9248
▁HÀ	-9249
▁te	-9250
▁ຫໍ	-9251
prop	-9252
▁Bus	-9253
▁Kar	-9254
▁Quy	-9255
▁bọn	-9256
▁ຈັນ	-9257
▁ຫົກ	-9258
ailer	-9259
không	-9260
orial	-9261
▁Chem	-9262
▁Extr	-9263
▁Fort	-9264
▁Vang	-9265
▁Wood	-9266
▁ປ່ວຍ	-9267
າຍຄວາມ	-9268
▁Train	-9269
▁[...]	-9270
ສະຫະພາບ	-9271
ໃນລະດັບ	-9272
ໃນຂົງເຂດ	-9273
▁ສະຫວ່າງ	-9274
▁ຄວາມປອດໄພ	-9275
ùi	-9276
IFI	-9277
▁Mở	-9278
ປ່ອງ	-9279
▁THƯ	-9280
▁app	-9281
▁gía	-9282
▁thọ	-9283
▁ບຸນ	-9284
▁ເມດ	-9285
▁Ống	-9286
phone	-9287
ທັກສະ	-9288
ພັນທະ	-9289
▁RoHS	-9290
▁Franc	-9291
▁phiền	-9292
▁vương	-9293
▁ວິຫານ	-9294
ຄັ້ງນີ້	-9295
ຍົກເລີກ	-9296
▁ສະເຫມີ	-9297
▁ເອີຣົບ	-9298
ຫຼາກຫຼາຍ	-9299
▁Company	-9300
ກ່ອນທີ່ຈະ	-9301
ສໍາລັບຜູ້	-9302
ຫນັງສືພິມ	-9303
▁ຄວາມຫມາຍ	-9304
▁ສໍາລັບຜູ້ຊາຍ	-9305
="1	-9306
eve	-9307
ຄອມ	-9308
ຊະນ	-9309
ຮານ	-9310
▁92	-9311
▁Bh	-9312
▁CM	-9313
▁Vũ	-9314
▁Đo	-9315
▁ຊມ	-9316
anch	-9317
urga	-9318
ຖ້ວມ	-9319
▁105	-9320
▁Inf	-9321
▁Pos	-9322
▁are	-9323
epper	-9324
imate	-9325
ຂົ່ມຂ	-9326
▁Mesh	-9327
▁ທ້ອງ	-9328
covery	-9329
ຊຸກຍູ້	-9330
ມາເຖິງ	-9331
ວັດແທກ	-9332
▁Sheet	-9333
▁thạch	-9334
ໄດ້ເຫັນ	-9335
ມັດສະການ	-9336
▁Archives	-9337
ແສງສະຫວ່າງ	-9338
▁Organosilicon	-9339
rd	-9340
ັຍ	-9341
ຫວາ	-9342
▁Sl	-9343
▁lô	-9344
ະຄອນ	-9345
ໃຊ້ງ	-9346
▁(18	-9347
▁Môn	-9348
▁cai	-9349
▁rác	-9350
otton	-9351
▁2500	-9352
▁Bank	-9353
▁ລ່ວງ	-9354
ການສັກ	-9355
▁Phong	-9356
▁hydro	-9357
▁ເຫຼືອ	-9358
ພຶດສະພາ	-9359
ເດັກຍິງ	-9360
▁Tablet	-9361
▁Deposit	-9362
▁hormone	-9363
▁ພື້ນຖານ	-9364
▁ການແປພາສາ	-9365
ການເຊື່ອມຕໍ່	-9366
ໍກ	-9367
/11	-9368
ibr	-9369
ມະນ	-9370
▁TC	-9371
▁ủi	-9372
.4.1	-9373
rost	-9374
ໄວວາ	-9375
ໍ້ໄຟ	-9376
▁CHF	-9377
▁SMS	-9378
▁eth	-9379
▁mấy	-9380
▁ຄອງ	-9381
▁ຊັງ	-9382
▁ແອນ	-9383
▁ໂຣກ	-9384
ength	-9385
ensor	-9386
ຫຼາຍໆ	-9387
ເສົ້າ	-9388
▁Back	-9389
▁Bệnh	-9390
▁Toàn	-9391
▁phái	-9392
▁ເຈ້ຍ	-9393
eather	-9394
ຊີ້ວັດ	-9395
▁Azure	-9396
▁Chẳng	-9397
▁khiếu	-9398
▁lường	-9399
▁Fruity	-9400
▁Truyền	-9401
▁ຄົ້ນຫາ	-9402
ຫາພວກເຮົາ	-9403
▁ໃນຖານະເປັນ	-9404
▁ຄວາມອາດສາມາດ	-9405
iw	-9406
yi	-9407
ໄບ	-9408
-03	-9409
bus	-9410
etr	-9411
url	-9412
ຂີ່	-9413
ຍືດ	-9414
ລຶກ	-9415
ເປນ	-9416
▁68	-9417
▁AN	-9418
▁MA	-9419
▁Đỏ	-9420
▁ວີ	-9421
isha	-9422
raph	-9423
ື້ອນ	-9424
ເຈລະ	-9425
▁1-8	-9426
▁Sao	-9427
▁USA	-9428
▁leo	-9429
▁mạo	-9430
▁đãi	-9431
ຈຸລັງ	-9432
ລະບາດ	-9433
▁1080	-9434
▁CSGO	-9435
▁Fair	-9436
▁Hoạt	-9437
▁Mass	-9438
▁Prof	-9439
▁Quân	-9440
▁nhắm	-9441
▁ປຸ່ມ	-9442
ເຫຼືອງ	-9443
▁Model	-9444
▁trăng	-9445
▁trứng	-9446
ຫຍໍ້ຂອງ	-9447
ສະກຸນເງິນ	-9448
ສະລັອດຕິງ	-9449
▁ຖ້າຫາກວ່າ	-9450
▁ຂຽນເມື່ອສຸດ	-9451
ທີ່ມີຄຸນນະພາບສູງ	-9452
ika	-9453
một	-9454
umm	-9455
unt	-9456
ເຊນ	-9457
▁-.	-9458
▁vá	-9459
ache	-9460
▁Sem	-9461
▁vẹn	-9462
▁ຈົບ	-9463
▁ຜົວ	-9464
▁ຮາກ	-9465
apore	-9466
eland	-9467
ຕະການ	-9468
▁Phạm	-9469
▁Shar	-9470
▁Vòng	-9471
▁ngầm	-9472
▁tháp	-9473
▁ຮ້ອຍ	-9474
ັກຂ່າວ	-9475
▁Board	-9476
▁Conne	-9477
▁Epson	-9478
ນໍ້າມັນ	-9479
ອະນຸມັດ	-9480
▁nhường	-9481
▁ຂອງການ	-9482
▁ໂຮງງານ	-9483
ateboard	-9484
ຍັງສາມາດ	-9485
▁ສຸຂະພາບ	-9486
ບັງຄັບໃຊ້	-9487
▁roulette	-9488
▁ຂະບວນການ	-9489
້ອງຖ່າຍຮູບ	-9490
▁container	-9491
ຼມ	-9492
bro	-9493
ຢອກ	-9494
▁89	-9495
▁94	-9496
▁GP	-9497
▁PS	-9498
▁SA	-9499
▁nọ	-9500
long	-9501
tens	-9502
▁0.6	-9503
▁dải	-9504
▁ຈອງ	-9505
arius	-9506
ຄູ່ມື	-9507
ທັນວາ	-9508
ປະດັບ	-9509
ໍານານ	-9510
▁Chia	-9511
▁hỏng	-9512
▁ສະຫຼ	-9513
ຊາຍແດນ	-9514
ທ່ານຈະ	-9515
ທໍານຽມ	-9516
ພວກເຮົ	-9517
▁River	-9518
ມີຊີວິດ	-9519
▁Nguyễn	-9520
ແຕ່ລະຄົນ	-9521
▁ເງິນຝາກ	-9522
ທາງສັງຄົມ	-9523
ໂດຍທົ່ວໄປ	-9524
ທີ່ທ່ານສາມາດ	-9525
▁ເສັ້ນໃຍສັງເຄາະ	-9526
Cl	-9527
yu	-9528
ຣນ	-9529
iti	-9530
ren	-9531
ria	-9532
ris	-9533
ເນີ	-9534
▁Xã	-9535
▁ຫງ	-9536
▁ແຟ	-9537
ites	-9538
ອຸ່ນ	-9539
▁How	-9540
▁Jun	-9541
▁Ult	-9542
▁Vol	-9543
▁gen	-9544
▁mùi	-9545
▁ຄຸມ	-9546
▁ຍຶດ	-9547
▁ດູດ	-9548
▁ທຽບ	-9549
izing	-9550
proof	-9551
ກະດູກ	-9552
▁Mạng	-9553
▁mult	-9554
▁ອາຊີ	-9555
itemap	-9556
ເສຍຄ່າ	-9557
▁Honda	-9558
ພິພາກສາ	-9559
້ອນຂ້າງ	-9560
▁ສັກສິດ	-9561
ເບິ່ງແຍງ	-9562
▁ທັງຫລາຍ	-9563
ສະແດງຄວາມ	-9564
▁ເສດຖະກິດ	-9565
▁Injection	-9566
ນັກຄົ້ນຄວ້າ	-9567
ເປັນເຈົ້າຂອງ	-9568
MH	-9569
Nhà	-9570
aza	-9571
utt	-9572
▁LC	-9573
Tiếp	-9574
akes	-9575
enna	-9576
olic	-9577
ລ່ວງ	-9578
▁AAS	-9579
▁Don	-9580
▁FAQ	-9581
▁Ink	-9582
▁Jos	-9583
▁SAP	-9584
▁cnc	-9585
▁ແຜ່	-9586
phrag	-9587
ຂະບວນ	-9588
ຄືກັບ	-9589
ຫລາຍໆ	-9590
▁....	-9591
▁Call	-9592
▁Viet	-9593
▁hoạn	-9594
▁khía	-9595
ຂອງຄົນ	-9596
ສະຫມຸດ	-9597
▁Georg	-9598
▁Panel	-9599
▁Plane	-9600
ບໍ່ເຄີຍ	-9601
ຫຼັກສູດ	-9602
▁Network	-9603
▁ຂ້ານ້ອຍ	-9604
▁ສະຖາບັນ	-9605
▁ນັກສຶກສາ	-9606
ຊ່ວຍໃຫ້ທ່ານ	-9607
ສະຫະປະຊາຊາດ	-9608
It	-9609
sy	-9610
ໂຫ	-9611
ANG	-9612
ste	-9613
ຫນີ	-9614
ົ່ນ	-9615
▁Av	-9616
ends	-9617
illa	-9618
ໂຫວາ	-9619
▁3.2	-9620
▁Lit	-9621
▁Oxy	-9622
▁ທານ	-9623
▁ຜິວ	-9624
▁ອຸດ	-9625
755-2	-9626
inton	-9627
oline	-9628
▁Over	-9629
▁Phúc	-9630
▁ນຸ່ງ	-9631
▁ໂດລາ	-9632
ກອງທຶນ	-9633
ວິທະຍາ	-9634
▁Times	-9635
▁buồng	-9636
▁quyển	-9637
▁ກໍາມະ	-9638
ອຸດສາຫະ	-9639
▁jackpot	-9640
▁Reserved	-9641
ຫມາຍຄວາມວ່າ	-9642
▁ຊື່ຫຍໍ້ຂອງ	-9643
DC	-9644
015	-9645
lon	-9646
opp	-9647
ລີນ	-9648
▁CC	-9649
▁br	-9650
etch	-9651
iday	-9652
trol	-9653
uter	-9654
ປ້າຍ	-9655
▁Aqu	-9656
▁Ash	-9657
▁Gar	-9658
▁Gir	-9659
▁PHÍ	-9660
▁She	-9661
▁giỏ	-9662
▁ເປີ	-9663
iness	-9664
▁ຖ້ອຍ	-9665
phragm	-9666
▁Adder	-9667
▁Bohem	-9668
▁Skype	-9669
▁ບັນລຸ	-9670
ຖ່ານຫີນ	-9671
ຜ່ານການ	-9672
▁nghịch	-9673
▁phượng	-9674
▁ກ່າວໂດຍ	-9675
ພວກເຮົາໄດ້	-9676
▁ການຢັ້ງຢືນ	-9677
▁ການແຂ່ງຂັນ	-9678
5.	-9679
LS	-9680
On	-9681
Un	-9682
ÁC	-9683
ÊN	-9684
ບຸ	-9685
ມັງ	-9686
▁5%	-9687
▁RM	-9688
▁mờ	-9689
hoặc	-9690
▁Nev	-9691
▁Reg	-9692
▁Rem	-9693
▁lật	-9694
▁nạp	-9695
▁đập	-9696
▁ພວມ	-9697
ບນ້ໍາ	-9698
▁Bước	-9699
▁Tầng	-9700
▁ກິໂລ	-9701
▁ດື່ມ	-9702
ຄິດໄລ່	-9703
ຕໍ່ກັບ	-9704
▁House	-9705
▁Trình	-9706
▁virus	-9707
ໃຫມ່ຂອງ	-9708
ມັດລະວັງ	-9709
ສິນເຊື່ອ	-9710
▁ເດີນທາງ	-9711
▁Palestine	-9712
9:	-9713
Ex	-9714
\)	-9715
ອສ	-9716
.08	-9717
700	-9718
eda	-9719
met	-9720
win	-9721
ສືກ	-9722
▁NW	-9723
▁\(	-9724
2020	-9725
Outs	-9726
ອະນຸ	-9727
▁Pot	-9728
▁lõi	-9729
Chang	-9730
osmos	-9731
ພະຍານ	-9732
ລໍຖ້າ	-9733
▁HBOT	-9734
▁Obama	-9735
▁Thống	-9736
▁ມັນມີ	-9737
▁ຫົວໃຈ	-9738
▁ອະດີດ	-9739
aterial	-9740
ເອກະຊົນ	-9741
ກົດລະບຽບ	-9742
ບົດລາຍງານ	-9743
ເຊື່ອມໂລຫະ	-9744
▁unlimited	-9745
ຄວາມຄິດເຫັນ	-9746
▁ຄໍາຮ້ອງສະຫມັກ	-9747
BM	-9748
ONG	-9749
iệ	-9750
ຄົວ	-9751
▁tứ	-9752
▁Imp	-9753
▁Ken	-9754
▁bồi	-9755
▁cọc	-9756
▁lộn	-9757
▁ກົມ	-9758
▁ວິກ	-9759
▁ໃດໆ	-9760
ປະຢັດ	-9761
ຫນ່າງ	-9762
▁More	-9763
▁Remo	-9764
▁serv	-9765
▁ກ້ອງ	-9766
▁ລົ້ມ	-9767
rystal	-9768
ຕັ້ງໃຈ	-9769
ເອັດສ໌	-9770
ໄຊຊະນະ	-9771
▁Poker	-9772
▁nghìn	-9773
ຕະນາການ	-9774
▁Rights	-9775
▁ຜູ້ຊາຍ	-9776
▁ພຣະກິດ	-9777
▁ສະເພາະ	-9778
▁ຄໍາສັ່ງ	-9779
ລົງຄະແນນສຽງ	-9780
FP	-9781
Fi	-9782
ks	-9783
ẫy	-9784
aha	-9785
bao	-9786
ບິດ	-9787
▁EM	-9788
ants	-9789
bank	-9790
ເທຣດ	-9791
▁315	-9792
▁BTC	-9793
▁Bal	-9794
▁CIS	-9795
▁Cần	-9796
▁Rập	-9797
▁ແອວ	-9798
Guang	-9799
ພະແນກ	-9800
ໃນທາງ	-9801
▁Aven	-9802
▁khóc	-9803
▁trộm	-9804
ສະນັ້ນ	-9805
▁Media	-9806
▁Proxy	-9807
ທໍລະມານ	-9808
ຜົມສ່ວນ	-9809
▁Driver	-9810
▁ມັນໄດ້	-9811
▁phantom	-9812
▁ທໍລະມານ	-9813
ophilized	-9814
ການກໍ່ສ້າງ	-9815
▁Australia	-9816
',	-9817
/4	-9818
ທໍ	-9819
cks	-9820
jin	-9821
zer	-9822
ຝົນ	-9823
▁78	-9824
▁Fu	-9825
▁RE	-9826
▁WE	-9827
ival	-9828
ເກີບ	-9829
▁(0)	-9830
▁60%	-9831
▁Lat	-9832
▁Lot	-9833
▁MAC	-9834
odium	-9835
ເນເຊຍ	-9836
ໄວ້ໃນ	-9837
▁CNTT	-9838
▁Mont	-9839
▁inst	-9840
▁ngọt	-9841
▁pump	-9842
▁Hotel	-9843
▁ຊອກຫາ	-9844
▁ຢູ່ທີ່	-9845
▁Electric	-9846
▁Changzhou	-9847
▁Singapore	-9848
ຢ່າງເປັນທາງການ	-9849
▁]	-9850
.23	-9851
180	-9852
ຫລີ	-9853
ແຕກ	-9854
▁GT	-9855
▁tà	-9856
ມີນາ	-9857
▁béo	-9858
▁gợi	-9859
▁hàm	-9860
▁par	-9861
▁ອາວ	-9862
Point	-9863
▁Diễn	-9864
▁ngẫm	-9865
▁that	-9866
▁ຊ່ວງ	-9867
▁2008,	-9868
▁Intel	-9869
▁Metal	-9870
▁robot	-9871
ທີ່ຢູ່ໃນ	-9872
ສ້າງຄວາມ	-9873
▁Village	-9874
▁steroid	-9875
ຕົ້ນສະບັບ	-9876
ປະດິດສ້າງ	-9877
ແລະເຄື່ອງ	-9878
▁Diffuser	-9879
▁ເປັນຄວາມ	-9880
ຜົມສ່ວນບົນ	-9881
.:	-9882
DS	-9883
220	-9884
:30	-9885
bul	-9886
▁Kr	-9887
▁SN	-9888
▁ຈໍ	-9889
ສາລະ	-9890
ະລາດ	-9891
ເດິນ	-9892
▁CAS	-9893
▁Kẹo	-9894
▁PHP	-9895
▁SQL	-9896
▁Vui	-9897
▁cre	-9898
▁dập	-9899
▁ກຸມ	-9900
iller	-9901
ກາຕູນ	-9902
ໍາລອງ	-9903
▁Cash	-9904
▁Hoặc	-9905
▁hand	-9906
▁Điểm	-9907
▁Đấng	-9908
ໃຊ້ງານ	-9909
▁ຂອບໃຈ	-9910
ທິດສະດີ	-9911
ວ່າດ້ວຍ	-9912
▁Royale	-9913
▁ຄວບຄຸມ	-9914
ຂໍ້ມູນທີ່	-9915
▁ເຈົ້າບໍ່	-9916
▁ຄອມພິວເຕີ	-9917
▁ເພີ່ມເຕີມ	-9918
ເຊັ່ນດຽວກັນ	-9919
▁ວັດທະນະທໍາ	-9920
-21	-9921
EMA	-9922
GSM	-9923
ags	-9924
olo	-9925
▁Lễ	-9926
ixel	-9927
ກັ້ນ	-9928
▁316	-9929
▁650	-9930
▁SGS	-9931
▁Tom	-9932
▁etc	-9933
▁pvc	-9934
▁đầm	-9935
▁ຄາວ	-9936
▁ບັບ	-9937
▁ລຶກ	-9938
/2017	-9939
ality	-9940
ົາລົບ	-9941
▁1.0%	-9942
▁over	-9943
arator	-9944
itting	-9945
ການພິມ	-9946
ດໍາລົງ	-9947
▁2014,	-9948
ຢູ່ທີ່ນີ້	-9949
ການບໍລິຫານ	-9950
▁ກະລຸນາໃສ່	-9951
▁Lyophilized	-9952
▁ເສັ້ນຜ່າສູນກາງ	-9953
52	-9954
HA	-9955
We	-9956
mA	-9957
ອຟ	-9958
ẳn	-9959
ợn	-9960
bar	-9961
mon	-9962
pon	-9963
ທອນ	-9964
▁3)	-9965
▁kì	-9966
avor	-9967
ເອັມ	-9968
ໍໂມນ	-9969
▁(2,	-9970
▁Apr	-9971
▁Cục	-9972
▁Hum	-9973
▁Men	-9974
▁est	-9975
▁nại	-9976
inews	-9977
ities	-9978
ສີຂຽວ	-9979
▁việt	-9980
▁xinh	-9981
▁ແມັກ	-9982
ດີກວ່າ	-9983
ລອນດອນ	-9984
ລິມປິກ	-9985
ສອງສາມ	-9986
▁khoác	-9987
▁ອົງສາ	-9988
▁ເຄິ່ງ	-9989
ກໍ່ຕັ້ງ	-9990
ໂດເນເຊຍ	-9991
▁Length	-9992
▁Trưởng	-9993
ປະກອບການ	-9994
ສໍານັກງານ	-9995
▁tattoost	-9996
ພວກເຮົາສາມາດ	-9997
-04	-9998
irc	-9999
ປະຖ	-10000
ພອນ	-10001
ມຸງ	-10002
ຫົນ	-10003
▁88	-10004
▁EX	-10005
▁So	-10006
▁ບຸ	-10007
atte	-10008
iana	-10009
▁Bắt	-10010
▁Den	-10011
▁Han	-10012
▁Lab	-10013
▁equ	-10014
▁kép	-10015
▁đeo	-10016
▁ແກນ	-10017
inger	-10018
▁Ball	-10019
▁Head	-10020
▁Yang	-10021
▁ghép	-10022
▁quét	-10023
▁soạn	-10024
▁ປື້ມ	-10025
urgaon	-10026
ຜ່າຕັດ	-10027
ຮັບໃຊ້	-10028
ົດເຊີຍ	-10029
▁Clear	-10030
▁Pharm	-10031
▁ສະໄຫມ	-10032
▁ອີເມວ	-10033
ບໍລິຈາກ	-10034
ເຕັກນິກ	-10035
ຂ້ອນຂ້າງ	-10036
ນຸ່ງຫົ່ມ	-10037
▁ສະມາຄົມ	-10038
ບໍ່ພຽງແຕ່	-10039
▁Fittings	-10040
▁ປັດຈຸບັນ	-10041
ແລະເຮັດໃຫ້	-10042
▁Converter	-10043
▁transposh	-10044
▁ສໍານັກງານ	-10045
ກ່ຽວຂ້ອງກັບ	-10046
HZ	-10047
tn	-10048
ray	-10049
đun	-10050
ươm	-10051
▁Cả	-10052
▁ນຸ	-10053
itar	-10054
ixer	-10055
ປາໄສ	-10056
ເລັງ	-10057
▁27,	-10058
▁CEO	-10059
▁LCD	-10060
▁XML	-10061
▁cục	-10062
▁lot	-10063
▁sub	-10064
▁ຊັດ	-10065
▁ມຸມ	-10066
▁ສົດ	-10067
▁nồng	-10068
▁thôn	-10069
▁ທ່ຽວ	-10070
▁ລະດູ	-10071
▁ຫລຽວ	-10072
▁ຖະຫນາ	-10073
ປະກັນໄພ	-10074
ສິລະປິນ	-10075
ເລື້ອຍໆ	-10076
▁(2012)	-10077
▁ຄໍາຕອບ	-10078
▁ຕໍ່ສູ້	-10079
ສະພາບການ	-10080
ຫວັງວ່າຈະ	-10081
ທັງຫມົດຂອງ	-10082
ພາຍໃນປະເທດ	-10083
▁ການທົດສອບ	-10084
▁ມະຫາວິທະຍາໄລ	-10085
RI	-10086
bl	-10087
-14	-10088
ວານ	-10089
ແກະ	-10090
▁53	-10091
▁GW	-10092
▁Âm	-10093
▁ບູ	-10094
ktop	-10095
list	-10096
unny	-10097
ເສີດ	-10098
ແຂ້ວ	-10099
▁320	-10100
▁Dev	-10101
▁GMP	-10102
▁HDL	-10103
▁Lạp	-10104
▁côn	-10105
etter	-10106
ublic	-10107
ຕັນຍູ	-10108
ພິບັດ	-10109
ເຫຼີມ	-10110
▁Trực	-10111
▁giấc	-10112
▁lang	-10113
▁ຂົ່ມ	-10114
▁ມ່ວນ	-10115
▁ເກາະ	-10116
ລາວໄດ້	-10117
ization	-10118
ເຂົ້າໄປ	-10119
▁wooden	-10120
▁ນັກຮຽນ	-10121
▁ສະຖານີ	-10122
▁ທໍາມະດາ	-10123
▁Wikinews	-10124
▁ໃນມື້ນີ້	-10125
ຢ່າງວ່ອງໄວ	-10126
ໄດ້ຖືກນໍາໃຊ້	-10127
ໄດ້ຢ່າງງ່າຍດາຍ	-10128
AK	-10129
GD	-10130
ẠN	-10131
aft	-10132
ech	-10133
ຈີ່	-10134
ລີ່	-10135
ລຸກ	-10136
▁MD	-10137
▁MY	-10138
▁sn	-10139
ທະຍຸ	-10140
▁Bit	-10141
▁FCC	-10142
▁NAS	-10143
▁chì	-10144
▁ຕຶກ	-10145
prise	-10146
▁Belt	-10147
▁Phục	-10148
▁Spot	-10149
▁giãn	-10150
▁trắc	-10151
▁visa	-10152
Script	-10153
ມັງກອນ	-10154
ອັກສອນ	-10155
▁Brown	-10156
▁Graph	-10157
▁ປະຈັກ	-10158
charger	-10159
ເຮັດງານ	-10160
▁Odisha	-10161
▁ສະຫນາມ	-10162
▁ໃນນັ້ນ	-10163
ເຈົ້າຂອງ	-10164
▁ຮຽກຮ້ອງ	-10165
ເລື່ອງນີ້	-10166
ຄູ່ຮ່ວມງານ	-10167
ປະສົມປະສານ	-10168
▁Downloader	-10169
ຜູ້ເຂົ້າຮ່ວມ	-10170
.38	-10171
.91	-10172
CSA	-10173
ERI	-10174
ວີດ	-10175
ແຄມ	-10176
▁1)	-10177
▁Xi	-10178
▁xạ	-10179
▁ສິ	-10180
▁ໄອ	-10181
face	-10182
xbet	-10183
▁Run	-10184
▁rắc	-10185
▁tro	-10186
▁ຄົບ	-10187
ວິຈານ	-10188
ສີດໍາ	-10189
▁Bóng	-10190
▁Hoàn	-10191
▁chán	-10192
▁ຫນົມ	-10193
ສໍາພາດ	-10194
ເຫັນດີ	-10195
ໄດ້ຍິນ	-10196
▁Chain	-10197
▁Giống	-10198
▁ກວ້າງ	-10199
ຮ່ວມກັບ	-10200
▁AASraw	-10201
▁ນ້ໍາມັນ	-10202
ສ່ວນປະກອບ	-10203
▁Bohemian	-10204
ການຄຸ້ມຄອງ	-10205
▁ເປົ້າຫມາຍ	-10206
ທີ່ໄດ້ຮັບການ	-10207
59	-10208
én	-10209
ím	-10210
ຟາ	-10211
ຟິ	-10212
ợt	-10213
-17	-10214
ige	-10215
odi	-10216
ຕາງ	-10217
ຜັນ	-10218
ຜູກ	-10219
▁Hộ	-10220
▁JB	-10221
▁MO	-10222
▁XU	-10223
▁se	-10224
▁sỹ	-10225
pert	-10226
ພາຍຸ	-10227
▁Ghế	-10228
▁Jul	-10229
▁csg	-10230
▁ປັນ	-10231
▁ພຶດ	-10232
▁ມາກ	-10233
9001:	-10234
ວບລວມ	-10235
ສະກັດ	-10236
ເພິ່ນ	-10237
▁Mand	-10238
▁Near	-10239
▁Thưa	-10240
▁Xuất	-10241
▁điệu	-10242
▁ມິຕິ	-10243
Casino	-10244
ສະຫຼຸບ	-10245
້ອມແປງ	-10246
▁Catal	-10247
▁Jizer	-10248
▁thiệp	-10249
▁ຄະແນນ	-10250
ຈັດຂຶ້ນ	-10251
ເພາະວ່າ	-10252
▁Avenue	-10253
▁George	-10254
▁Virgin	-10255
▁ວິນຍານ	-10256
ຈົດທະບຽນ	-10257
▁Remover	-10258
▁ແນວຄວາມຄິດ	-10259
OMO	-10260
ORD	-10261
Pal	-10262
ixi	-10263
ura	-10264
ອົດ	-10265
ເວດ	-10266
▁61	-10267
▁67	-10268
▁::	-10269
▁Ol	-10270
▁el	-10271
acqu	-10272
ຊ້ໍາ	-10273
▁leg	-10274
▁túy	-10275
▁vắc	-10276
▁Đến	-10277
▁ທະນ	-10278
28113	-10279
ແຫລ່ງ	-10280
▁1600	-10281
▁CNIL	-10282
▁Cell	-10283
▁Giảm	-10284
▁Jing	-10285
▁Loan	-10286
▁Tape	-10287
▁bạch	-10288
▁wind	-10289
▁ອາໄສ	-10290
change	-10291
eptide	-10292
ພາກໃຕ້	-10293
▁Giant	-10294
▁gener	-10295
▁thịnh	-10296
▁tráng	-10297
▁ເປົ່າ	-10298
ກໍລະກົດ	-10299
ຍີ່ປຸ່ນ	-10300
ພາລະກິດ	-10301
ເຫັນວ່າ	-10302
▁ຕົວແທນ	-10303
▁ສອບຖາມ	-10304
▁1528113	-10305
▁Unthank	-10306
▁ກະເປົ໋າ	-10307
▁ຄວາມຍາວ	-10308
▁ຕັ້ງແຕ່	-10309
▁ຕິດຕັ້ງ	-10310
ລະດັບຄວາມ	-10311
ຈໍານວນຫລາຍ	-10312
otechnology	-10313
oe	-10314
itr	-10315
pha	-10316
shi	-10317
ຊຶມ	-10318
ເມຍ	-10319
▁Hạ	-10320
▁Iq	-10321
▁gl	-10322
▁uy	-10323
▁ຄໍ	-10324
▁ແສ	-10325
lots	-10326
ມ່ວນ	-10327
▁(12	-10328
▁0,5	-10329
▁Cấu	-10330
▁End	-10331
▁Tác	-10332
▁Đèn	-10333
▁Trái	-10334
▁lưng	-10335
▁ປ່ຽງ	-10336
ການປັບ	-10337
ຖະແຫຼງ	-10338
ພາຫະນະ	-10339
ລົງທືນ	-10340
▁2017.	-10341
▁Multi	-10342
▁State	-10343
▁ຫງວຽນ	-10344
ສັດລ້ຽງ	-10345
ໃນແຕ່ລະ	-10346
▁Crypto	-10347
▁double	-10348
ການແກ້ໄຂ	-10349
ເຂົ້າສູ່	-10350
▁Gurgaon	-10351
▁ສໍາຫລັບ	-10352
ການທົດສອບ	-10353
ແລະແມ່ຍິງ	-10354
▁ລ້ານໂດລາ	-10355
ສອດຄ່ອງກັບ	-10356
▁ຮັບຜິດຊອບ	-10357
ເຫຼີມສະຫຼອງ	-10358
▁ຜູ້ອໍານວຍການ	-10359
0%	-10360
▁!	-10361
▁`	-10362
ດຸນ	-10363
ດົກ	-10364
ແມ້	-10365
▁EC	-10366
▁Py	-10367
▁Vo	-10368
▁Wu	-10369
▁Xử	-10370
▁gà	-10371
▁tá	-10372
▁ຕູ	-10373
aber	-10374
ense	-10375
oria	-10376
▁4.5	-10377
▁Khí	-10378
▁Mẹo	-10379
▁Spr	-10380
▁hầm	-10381
▁mỏi	-10382
▁sụp	-10383
▁tồi	-10384
▁ຄັດ	-10385
aysia	-10386
house	-10387
ວຸດທິ	-10388
▁Anti	-10389
▁chấn	-10390
▁free	-10391
▁gián	-10392
▁plus	-10393
▁ເຈັດ	-10394
ີ້ແມ່ນ	-10395
▁forex	-10396
▁nylon	-10397
▁ສະອາດ	-10398
ບ່ອນທີ່	-10399
ພັກຜ່ອນ	-10400
ເງິນຝາກ	-10401
▁(2016)	-10402
▁Darius	-10403
ການສັກຢາ	-10404
ຢ່າງໄວວາ	-10405
ແມ່ເຫຼັກ	-10406
▁Atlanta	-10407
▁Patrick	-10408
▁ການປ່ອຍ	-10409
ການສໍາພັດ	-10410
ເຄື່ອງຫມາຍ	-10411
ອຸດົມສົມບູນ	-10412
▁ການຂົນສົ່ງ	-10413
ຄວາມຫມັ້ນຄົງ	-10414
ທີ່ເປັນໄປໄດ້	-10415
ໃຫ້ເຂົາເຈົ້າ	-10416
▁ການຝຶກອົບຮົມ	-10417
ừu	-10418
ປາດ	-10419
ຢາຍ	-10420
ເອດ	-10421
່ຽມ	-10422
▁HT	-10423
▁HU	-10424
▁rò	-10425
▁ຂາ	-10426
ason	-10427
emon	-10428
▁135	-10429
▁2.2	-10430
▁Mật	-10431
▁bớt	-10432
▁dọn	-10433
▁nad	-10434
▁opt	-10435
▁đậu	-10436
▁ໂຮມ	-10437
ລະຄອນ	-10438
▁Chức	-10439
▁Doll	-10440
▁Phật	-10441
▁ເສີນ	-10442
propyl	-10443
ຕົວແບບ	-10444
ຜູ້ຍິງ	-10445
ໍລະດົກ	-10446
▁crate	-10447
▁ຖົງມື	-10448
ຂຶ້ນກັບ	-10449
ສະຫະພັນ	-10450
ເທົ່າໃດ	-10451
ໂທລະພາບ	-10452
້ວານນີ້	-10453
▁Burner	-10454
▁ຊື່ສັດ	-10455
▁Acetate	-10456
▁Instrum	-10457
▁Limited	-10458
ການສູນເສຍ	-10459
ຈັດອັນດັບ	-10460
ບໍ່ມີຄວາມ	-10461
ໂດຍບໍ່ມີການ	-10462
▁Fiberglass	-10463
▁Washington	-10464
▁ນະມັດສະການ	-10465
Al	-10466
GL	-10467
gn	-10468
hr	-10469
ຮູ	-10470
ẠI	-10471
.30	-10472
380	-10473
ISO	-10474
ito	-10475
sss	-10476
ບວກ	-10477
ເມດ	-10478
ເມວ	-10479
▁it	-10480
9999	-10481
pack	-10482
ລົ້ນ	-10483
▁Qua	-10484
▁kem	-10485
▁sen	-10486
▁ດັນ	-10487
▁ຕີນ	-10488
▁ທຽນ	-10489
netic	-10490
ກັນຍາ	-10491
ນີ້ຈະ	-10492
▁Meta	-10493
▁Rand	-10494
ປາຍທາງ	-10495
ສະຫວັນ	-10496
▁Point	-10497
ຈະສາມາດ	-10498
ປະຕິວັດ	-10499
▁ໃຫ້ການ	-10500
▁Belmont	-10501
▁Molding	-10502
Changeset	-10503
▁Silicone	-10504
ອຸບັດຕິເຫດ	-10505
▁Butterfly	-10506
▁JavaScript	-10507
▁blockchain	-10508
CA	-10509
DM	-10510
TO	-10511
js	-10512
▁Ư	-10513
TER	-10514
rah	-10515
ຊ່າ	-10516
ດົມ	-10517
ມໄຟ	-10518
ຣານ	-10519
ລືມ	-10520
າວະ	-10521
▁Of	-10522
▁TI	-10523
iles	-10524
tian	-10525
ອາວະ	-10526
▁SKU	-10527
▁cốc	-10528
▁lốp	-10529
▁man	-10530
▁mũi	-10531
▁tệp	-10532
▁đấy	-10533
▁ດັງ	-10534
▁ໂຕ້	-10535
▁Flex	-10536
▁Roll	-10537
▁Xing	-10538
▁Yout	-10539
▁lệch	-10540
asting	-10541
ຍັງໄດ້	-10542
ພາຍນອກ	-10543
ສັບສົນ	-10544
▁Hydro	-10545
▁xưởng	-10546
▁ກະທູ້	-10547
ທີ່ເກີດ	-10548
ຫຸ້ມຂອງ	-10549
ແນວໂນ້ມ	-10550
▁Guitar	-10551
▁PayPal	-10552
ພຶດຕິກໍາ	-10553
▁ແທນທີ່ຈະ	-10554
ໃນການແຂ່ງຂັນ	-10555
.’	-10556
??	-10557
ນູ	-10558
120	-10559
350	-10560
949	-10561
INE	-10562
ຖັງ	-10563
ລອຍ	-10564
ເທນ	-10565
▁62	-10566
▁DH	-10567
Chat	-10568
ural	-10569
▁Pen	-10570
▁Rog	-10571
▁Ros	-10572
▁bon	-10573
▁ham	-10574
▁lều	-10575
▁met	-10576
▁sex	-10577
▁ປີກ	-10578
▁Chen	-10579
▁Feed	-10580
▁Vict	-10581
▁Vâng	-10582
▁Watt	-10583
▁giặt	-10584
▁hoại	-10585
▁thói	-10586
▁ຖ່ອມ	-10587
ubarak	-10588
ຊານຕົງ	-10589
▁dress	-10590
▁khoán	-10591
▁ບັນຈຸ	-10592
ອາວະກາດ	-10593
▁ngưỡng	-10594
ການປົກຄອງ	-10595
ທາງການແພດ	-10596
▁Dariusss	-10597
Blockchain	-10598
ໄດ້ຮັບບາດເຈັບ	-10599
.15	-10600
ean	-10601
gar	-10602
yle	-10603
ພານ	-10604
ເອີ	-10605
▁CL	-10606
elle	-10607
head	-10608
ober	-10609
ຫນົມ	-10610
ເຈ້ຍ	-10611
ເບົາ	-10612
▁Hub	-10613
▁Pul	-10614
▁ຊານ	-10615
▁ຜູກ	-10616
▁ໂຕນ	-10617
atuit	-10618
lines	-10619
ັກຊີນ	-10620
ີນ້ໍາ	-10621
ເທືອນ	-10622
▁Coun	-10623
▁Tail	-10624
ລໍາດັບ	-10625
▁Cheng	-10626
▁Royal	-10627
▁ເຕົ້າ	-10628
ລາຄາຖືກ	-10629
ຫມັ້ນໃຈ	-10630
ໃຫ້ເປັນ	-10631
▁Lights	-10632
▁series	-10633
ສ້າງຂື້ນ	-10634
▁Program	-10635
▁Chemical	-10636
▁ຈັດພີມມາ	-10637
ປະຊາທິປະໄຕ	-10638
4-	-10639
HQ	-10640
ຄີ	-10641
Pir	-10642
emy	-10643
▁Ey	-10644
▁NE	-10645
▁UP	-10646
▁ຣາ	-10647
9001	-10648
afil	-10649
tech	-10650
່ວັນ	-10651
▁(13	-10652
▁Cnc	-10653
▁Hay	-10654
▁NZD	-10655
▁mag	-10656
▁mệt	-10657
▁ຄຸກ	-10658
▁ຊັກ	-10659
Thiết	-10660
hydro	-10661
loads	-10662
ເຈັບປ	-10663
▁Tech	-10664
▁chục	-10665
ຕະຫລອດ	-10666
ຊົດເຊີຍ	-10667
▁ຈາກການ	-10668
ຄາດວ່າຈະ	-10669
ນິວຊີແລນ	-10670
ພາກເຫນືອ	-10671
▁Angeles	-10672
▁ຈົດຫມາຍ	-10673
Guangdong	-10674
ກໍາລັງຊອກຫາ	-10675
ທີ່ເຂັ້ມແຂງ	-10676
ຜູ້ເສຍຊີວິດ	-10677
▁Dariussssss	-10678
ສະແດງໃຫ້ເຫັນວ່າ	-10679
kW	-10680
ມມ	-10681
-07	-10682
ກວນ	-10683
ỞNG	-10684
▁DI	-10685
▁KT	-10686
▁VI	-10687
▁pc	-10688
andr	-10689
avel	-10690
ກະສີ	-10691
ສົ້ມ	-10692
▁0.3	-10693
▁Buy	-10694
▁Gói	-10695
▁dis	-10696
▁dịp	-10697
▁tọa	-10698
▁ກະດ	-10699
▁ພູມ	-10700
ility	-10701
▁hiếm	-10702
▁lưỡi	-10703
▁ຢ້ຽມ	-10704
atcher	-10705
ຄັ້ງທີ	-10706
ຄໍາຕອບ	-10707
ບໍາລຸງ	-10708
▁Doanh	-10709
▁khiếp	-10710
▁ມັນຈະ	-10711
ຄວາມຮູ້	-10712
ນັກຂ່າວ	-10713
ຢູ່ເທິງ	-10714
▁ໃນເວລາ	-10715
ພາດສະຕິກ	-10716
ຫນ່ວຍງານ	-10717
▁ປະຈຸບັນ	-10718
▁ສຸດທ້າຍ	-10719
▁ພຣະວິຫານ	-10720
▁ຄວາມກວ້າງ	-10721
▁Biotechnology	-10722
ຖບ	-10723
ຣູ	-10724
ໄຫ	-10725
-08	-10726
.95	-10727
ຊີດ	-10728
ຍາຍ	-10729
ໂຮມ	-10730
▁Mu	-10731
▁TK	-10732
▁nô	-10733
▁va	-10734
▁ຣິ	-10735
▁ລຸ	-10736
avic	-10737
back	-10738
ນ້ອງ	-10739
▁10.	-10740
▁Cro	-10741
▁Eva	-10742
▁Màn	-10743
▁OFF	-10744
▁TPU	-10745
▁UTC	-10746
▁ດອນ	-10747
2.168	-10748
ເປືອກ	-10749
▁File	-10750
▁char	-10751
▁ລຸ່ມ	-10752
▁ເຕີມ	-10753
ການສືບ	-10754
ການແພດ	-10755
▁2015)	-10756
▁Opera	-10757
▁Spong	-10758
▁xướng	-10759
ເນື້ອໃນ	-10760
▁Fabric	-10761
▁Report	-10762
▁Studio	-10763
▁webcam	-10764
ຫຼາຍຢ່າງ	-10765
▁Youtube	-10766
▁ຈັດຕັ້ງ	-10767
▁Electron	-10768
▁ຫຍຸ້ງຍາກ	-10769
▁ໃນກໍລະນີ	-10770
ສະພາບອາກາດ	-10771
ເທື່ອຫນຶ່ງ	-10772
ເຮັດງານທໍາ	-10773
ກັບຄືນໄປບ່ອນ	-10774
ຢ່າງຫຼວງຫຼາຍ	-10775
ຫໍ	-10776
ẻo	-10777
-22	-10778
IVE	-10779
aga	-10780
set	-10781
ຈື່	-10782
ຝັນ	-10783
ເລນ	-10784
▁87	-10785
▁hà	-10786
▁Đi	-10787
▁ưa	-10788
-300	-10789
view	-10790
າວອນ	-10791
▁Bốn	-10792
▁Cre	-10793
▁McC	-10794
▁Sân	-10795
▁nắp	-10796
▁săn	-10797
▁sốt	-10798
▁đệm	-10799
▁ກຽມ	-10800
▁ຄົມ	-10801
▁ປ່າ	-10802
xiang	-10803
ເປົ້າ	-10804
▁Show	-10805
▁Vịnh	-10806
▁tiệc	-10807
enturi	-10808
ຕະເວັນ	-10809
ຜູ້ຊົມ	-10810
ຫົນທາງ	-10811
ໂດຍໃຊ້	-10812
▁2012,	-10813
▁Chống	-10814
▁flash	-10815
▁nhuộm	-10816
▁ແມ່ນມີ	-10817
ງົບປະມານ	-10818
▁Jizerou	-10819
ification	-10820
ເຊື່ອຖືໄດ້	-10821
▁ຄລິດສະຕຽນ	-10822
ທີ່ທັນສະໄຫມ	-10823
ສາດສະຫນາຈັກ	-10824
▁ການຕິດຕັ້ງ	-10825
▁testosterone	-10826
▁ສ້າງຕັ້ງຂຶ້ນ	-10827
▁ເນື່ອງຈາກວ່າ	-10828
▁ເຮັດໃຫ້ມີແສງ	-10829
JD	-10830
ັ໊	-10831
ẹt	-10832
ịp	-10833
.90	-10834
້ຽນ	-10835
▁Gỗ	-10836
▁Lý	-10837
▁ZM	-10838
▁ám	-10839
▁ồn	-10840
Sets	-10841
ກິ່ງ	-10842
ກ້ອງ	-10843
ຫວານ	-10844
▁Tàu	-10845
▁hẳn	-10846
▁hẹp	-10847
▁ຂາວ	-10848
ersey	-10849
ອຸທິດ	-10850
▁1999	-10851
▁Cand	-10852
▁play	-10853
▁quạt	-10854
ທິດທາງ	-10855
ໄປດ້ວຍ	-10856
▁Horiz	-10857
▁Wales	-10858
ຕ້ອງໄດ້	-10859
ພ້ອມກັບ	-10860
ເຖິງການ	-10861
▁Canber	-10862
▁ທັງສອງ	-10863
ຈ່າຍເງິນ	-10864
ໃນປະເທດຈີນ	-10865
▁ຕັ້ງຢູ່ໃນ	-10866
ຜົນກະທົບຕໍ່	-10867
▁ຄຸນນະສົມບັດ	-10868
▁ແນວໃດກໍ່ຕາມ	-10869
:.	-10870
DE	-10871
pi	-10872
ced	-10873
ຄອບ	-10874
ຍໍາ	-10875
istr	-10876
ເກ່ຍ	-10877
ເພັດ	-10878
ເຢຊູ	-10879
▁280	-10880
▁Pad	-10881
▁bìa	-10882
▁cừu	-10883
▁len	-10884
▁ຍອດ	-10885
▁ປົດ	-10886
ໍາໃຊ້	-10887
▁Mang	-10888
▁Nông	-10889
▁Stan	-10890
▁rãnh	-10891
▁Đang	-10892
▁ທະເລ	-10893
▁ເກົາ	-10894
ກັນແລະ	-10895
ດຶງດູດ	-10896
▁2012.	-10897
▁Share	-10898
▁Tread	-10899
▁ເຖົ້າ	-10900
ເວລາດົນ	-10901
ແມ່ນຖືກ	-10902
▁Engine	-10903
▁khuyết	-10904
▁truyện	-10905
▁ທີມງານ	-10906
▁ລໍາບາກ	-10907
▁Flatbed	-10908
▁Georgia	-10909
▁ເປັນຜູ້	-10910
ທີ່ຮູ້ຈັກ	-10911
▁Malaysia	-10912
▁ສ່ວນໃຫຍ່	-10913
ທີ່ເກີດຂື້ນ	-10914
ເຖິງແມ່ນວ່າ	-10915
▁Genotropin	-10916
ທີ່ຫນ້າສົນໃຈ	-10917
ເພື່ອນຮ່ວມງານ	-10918
HD	-10919
PT	-10920
can	-10921
hol	-10922
ibo	-10923
ita	-10924
osp	-10925
urb	-10926
▁8.	-10927
▁EP	-10928
▁Sở	-10929
▁kệ	-10930
,500	-10931
imer	-10932
ປຸ່ມ	-10933
ວິກິ	-10934
▁25%	-10935
▁Môi	-10936
▁Not	-10937
▁mưu	-10938
▁pet	-10939
▁tuệ	-10940
ຂອງປີ	-10941
ນ້ອຍໆ	-10942
▁Kiến	-10943
▁Tăng	-10944
▁kiềm	-10945
▁phím	-10946
▁this	-10947
▁xong	-10948
▁ເຊັນ	-10949
ບໍ່ດົນ	-10950
▁nướng	-10951
▁ນ້ອຍໆ	-10952
Pirater	-10953
▁Chuyên	-10954
▁Oracle	-10955
▁ມູນຄ່າ	-10956
▁ລັດເຊຍ	-10957
▁Florida	-10958
▁ປິ່ນປົວ	-10959
▁Canberra	-10960
▁ຕ່າງໆທີ່	-10961
ເຄື່ອນຍ້າຍ	-10962
ຂອງທ່ານທີ່ຈະ	-10963
ຄວາມຄິດສ້າງສັນ	-10964
Fl	-10965
TE	-10966
TY	-10967
iu	-10968
ta	-10969
ຶບ	-10970
1.5	-10971
ຢືມ	-10972
ແລງ	-10973
▁LO	-10974
▁av	-10975
ello	-10976
rine	-10977
well	-10978
▁Jer	-10979
▁Mun	-10980
▁Nan	-10981
▁bút	-10982
▁cắp	-10983
▁đạn	-10984
▁ຄອນ	-10985
▁ທຶນ	-10986
▁ທູດ	-10987
ຕະພາບ	-10988
ປານໃດ	-10989
ໂມສອນ	-10990
▁1990	-10991
▁Phot	-10992
▁Prem	-10993
▁Xbox	-10994
▁khán	-10995
▁ngon	-10996
▁ຄຸ້ມ	-10997
▁ຫມອງ	-10998
▁ເສົາ	-10999
▁ໂຫຍດ	-11000
ການຂອງ	-11001
ທີ່ດິນ	-11002
ລວບລວມ	-11003
▁Block	-11004
▁Cisco	-11005
▁giọng	-11006
▁ປັນຍາ	-11007
ຈົດຫມາຍ	-11008
▁ການສັກ	-11009
ສ່ວນຫຼາຍ	-11010
ເວລານັ້ນ	-11011
ຂໍ້ຕົກລົງ	-11012
ແລະມີຄວາມ	-11013
ໃນຕອນຕົ້ນ	-11014
▁ຕໍາແຫນ່ງ	-11015
▁ເຊິ່ງໄດ້	-11016
ຂອງສະຫະລັດ	-11017
ທີ່ມີຢູ່ໃນ	-11018
ເປັນຈໍານວນ	-11019
▁Cartridge	-11020
▁ພວກເຂົາໄດ້	-11021
ປະທານາທິບໍດີ	-11022
ຍົກລັດຖະມົນຕີ	-11023
ແລະການບໍລິການ	-11024
DN	-11025
/10	-11026
XVN	-11027
aus	-11028
ivo	-11029
ກົວ	-11030
ບອດ	-11031
ລະນ	-11032
ເຊວ	-11033
▁Vị	-11034
▁vo	-11035
ijia	-11036
ບ່າຍ	-11037
▁-10	-11038
▁ATV	-11039
▁Add	-11040
▁DMF	-11041
▁nát	-11042
▁Đạo	-11043
▁ດອງ	-11044
▁ອັກ	-11045
▁ໂຊກ	-11046
earch	-11047
indle	-11048
uitar	-11049
ສະຫຼະ	-11050
ັ່ງມີ	-11051
ແນໃສ່	-11052
ໃຫ້ມີ	-11053
ໄອແລນ	-11054
▁vang	-11055
▁điên	-11056
▁ຜູ້ນ	-11057
ograph	-11058
orrent	-11059
ການສັງ	-11060
ໄປສະນີ	-11061
▁Color	-11062
▁Shell	-11063
▁insul	-11064
▁mavic	-11065
▁phiêu	-11066
▁ວັດຖຸ	-11067
uploads	-11068
ເອກະລາດ	-11069
ໃຫ້ຄວາມ	-11070
▁guitar	-11071
▁ລາຍຊື່	-11072
ນັ້ນແມ່ນ	-11073
▁Mubarak	-11074
▁ຂ່າວສານ	-11075
▁ມູນນິທິ	-11076
ຂອງຮູບພາບ	-11077
ທີ່ຈະເຮັດໃຫ້	-11078
30,	-11079
UST	-11080
asy	-11081
ima	-11082
kok	-11083
ລີກ	-11084
ສະນ	-11085
▁ES	-11086
▁HS	-11087
▁mỹ	-11088
anes	-11089
engo	-11090
ette	-11091
ຫນູນ	-11092
ເມສາ	-11093
▁(3)	-11094
▁Cắt	-11095
▁Lợi	-11096
▁Mùa	-11097
▁Tùy	-11098
▁bận	-11099
▁col	-11100
▁non	-11101
▁ong	-11102
▁ter	-11103
▁ນາດ	-11104
▁ປັກ	-11105
▁ແພດ	-11106
ລະລາຍ	-11107
▁Khối	-11108
▁Reed	-11109
▁Site	-11110
▁Teen	-11111
▁khoẻ	-11112
entine	-11113
ການໃຊ້	-11114
ລົງນາມ	-11115
▁2006,	-11116
utorial	-11117
ຂອງກຸ່ມ	-11118
ເຄົາລົບ	-11119
ໄກ່ເກ່ຍ	-11120
▁Cookie	-11121
▁Nickel	-11122
ຍຸດຕິທໍາ	-11123
▁Casengo	-11124
▁Crystal	-11125
▁ບໍລິສຸດ	-11126
ຂອງພຣະອົງ	-11127
▁ແຕ່ລະຄົນ	-11128
ເວລາດຽວກັນ	-11129
ການຊ່ວຍເຫຼືອ	-11130
fg	-11131
lr	-11132
MPa	-11133
Tôi	-11134
axi	-11135
imb	-11136
tek	-11137
▁AI	-11138
▁MÃ	-11139
▁Uy	-11140
▁Đề	-11141
iant	-11142
itor	-11143
ຼລິກ	-11144
▁(20	-11145
▁7.5	-11146
▁Ali	-11147
▁Bad	-11148
▁Seg	-11149
▁bẩn	-11150
▁xóm	-11151
▁đáy	-11152
▁ປຸກ	-11153
▁ສາກ	-11154
cheng	-11155
hacks	-11156
other	-11157
ມໍເຕີ	-11158
▁Tiệc	-11159
▁hằng	-11160
▁thua	-11161
▁trầm	-11162
ກົດຈິດ	-11163
ແລະໄດ້	-11164
▁Louis	-11165
▁Parad	-11166
▁Promo	-11167
▁Techn	-11168
ທໍາມະດາ	-11169
▁Commun	-11170
▁design	-11171
▁ຄັ້ງທີ	-11172
▁ມື້ນີ້	-11173
▁ວິສະວະ	-11174
.05.2018	-11175
ອິດທິພົນ	-11176
▁Jackpot	-11177
▁android	-11178
▁ກໍ່ສ້າງ	-11179
ການຂົນສົ່ງ	-11180
ວ່າມັນເປັນ	-11181
ສໍາລັບທ່ານ	-11182
▁ຜົນໄດ້ຮັບ	-11183
ກ່ຽວກັບຄວາມ	-11184
▁ຜູ້ຊ່ຽວຊານ	-11185
▁ແຜນຜັງເວັບໄຊ	-11186
▁ແລະຫຼັງຈາກນັ້ນ	-11187
CB	-11188
ni	-11189
zo	-11190
ỡi	-11191
Box	-11192
IỆN	-11193
rav	-11194
ຂວາ	-11195
ຍຸກ	-11196
ຮອຍ	-11197
▁EA	-11198
▁IS	-11199
▁sl	-11200
ergy	-11201
ລາວກ	-11202
ອາໃສ	-11203
▁210	-11204
▁Dar	-11205
▁Gửi	-11206
▁VIP	-11207
▁bud	-11208
▁lụt	-11209
▁Đếm	-11210
▁Độc	-11211
▁ອົກ	-11212
Shirt	-11213
▁Tong	-11214
▁chip	-11215
▁cưới	-11216
▁luân	-11217
▁ຈະມີ	-11218
▁ແລ້ງ	-11219
ຄໍາສັບ	-11220
ຈະແຈ້ງ	-11221
ພົບກັບ	-11222
ຢູ່ກັບ	-11223
▁Chuỗi	-11224
▁ຝຣັ່ງ	-11225
▁ພະແນກ	-11226
ຄົນເຈັບ	-11227
ຊັ້ນນໍາ	-11228
▁THƯỞNG	-11229
ຊົນເຜົ່າ	-11230
ຂໍ້ກໍານົດ	-11231
ທີ່ຢູ່ອາໄສ	-11232
▁ການເຮັດວຽກ	-11233
ön	-11234
---	-11235
rey	-11236
urt	-11237
ກຸມ	-11238
▁69	-11239
▁ER	-11240
▁Ta	-11241
▁cy	-11242
▁pe	-11243
2017	-11244
ides	-11245
ipit	-11246
ison	-11247
osph	-11248
ward	-11249
ຊື່ອ	-11250
ຮົ່ວ	-11251
▁198	-11252
▁CHO	-11253
▁EVA	-11254
▁Fri	-11255
▁Yan	-11256
▁mạn	-11257
▁vây	-11258
enger	-11259
ນະບົດ	-11260
ສາເຫດ	-11261
▁Cham	-11262
▁Hall	-11263
▁Ninh	-11264
▁Tang	-11265
▁mỏng	-11266
▁ພິທີ	-11267
ໂປແກຼມ	-11268
▁Grill	-11269
▁Metro	-11270
▁Night	-11271
▁Price	-11272
▁chuộc	-11273
▁hover	-11274
▁huyền	-11275
▁ແລະໃນ	-11276
ຄາດຫວັງ	-11277
ຕາງຫນ້າ	-11278
ປະຊາຄົມ	-11279
ລິເລີ່ມ	-11280
ສໍາຫຼວດ	-11281
▁(2010)	-11282
▁Joseph	-11283
▁Shijia	-11284
▁Tester	-11285
▁ການາດາ	-11286
▁ຫນ້າຈໍ	-11287
ໃນຕະຫຼາດ	-11288
ໄຮໂດຼລິກ	-11289
▁Casting	-11290
▁ຫນ້າທີ່	-11291
▁ຫ້ອງການ	-11292
▁ແລະຄວາມ	-11293
ສິ່ງທີ່ທ່ານ	-11294
ເຮັດໃຫ້ເກີດ	-11295
▁ສູດໂມເລກຸນ	-11296
▁Shijiazhuang	-11297
53	-11298
eh	-11299
ấ	-11300
.01	-11301
jet	-11302
ule	-11303
ຄາຍ	-11304
ໂຍນ	-11305
▁(8	-11306
▁ml	-11307
▁ໃຫ	-11308
cker	-11309
iler	-11310
ກ໊າຊ	-11311
ຽງໄຮ	-11312
ໄຫລ່	-11313
▁ECN	-11314
▁Gần	-11315
▁UAE	-11316
▁Yam	-11317
▁hâm	-11318
▁ພົວ	-11319
attle	-11320
ຍາບານ	-11321
ປະຫານ	-11322
▁(3,5	-11323
▁Cann	-11324
▁Corn	-11325
▁Diện	-11326
▁Down	-11327
▁Idea	-11328
▁Mary	-11329
▁Ring	-11330
▁beta	-11331
▁ຫຼີກ	-11332
intage	-11333
ຈໍາລອງ	-11334
ສົມທົບ	-11335
▁Brush	-11336
▁PROMO	-11337
▁block	-11338
ຖ້າທ່ານ	-11339
ໃນບັນດາ	-11340
▁Robert	-11341
▁ຈະເປັນ	-11342
▁ເຢໂຫວາ	-11343
▁Olympic	-11344
▁ໂຄງສ້າງ	-11345
▁facebook	-11346
ຂອງພວກເຮົາມີ	-11347
▁ໃນຄວາມເປັນຈິງ	-11348
!,	-11349
%;	-11350
VA	-11351
-06	-11352
Ind	-11353
apt	-11354
ຍາມ	-11355
ດູນ	-11356
ໂປຼ	-11357
▁93	-11358
▁HO	-11359
▁SW	-11360
▁TW	-11361
▁we	-11362
arat	-11363
iche	-11364
ປ່ວຍ	-11365
▁(30	-11366
▁2.4	-11367
▁6.0	-11368
▁Bor	-11369
▁Cài	-11370
▁Gem	-11371
▁Ger	-11372
▁Lúc	-11373
▁Lớp	-11374
▁Rab	-11375
▁acc	-11376
▁bắp	-11377
▁hoà	-11378
▁int	-11379
▁tẩy	-11380
▁xám	-11381
▁đam	-11382
▁đâm	-11383
▁ນາມ	-11384
▁ແປດ	-11385
minal	-11386
▁2001	-11387
▁2021	-11388
▁Kids	-11389
▁Kiểu	-11390
▁Marc	-11391
▁Pick	-11392
▁tháo	-11393
▁ຄວ້າ	-11394
▁ຖ່າຍ	-11395
▁Autom	-11396
▁ອາລົມ	-11397
ຈຸດຫມາຍ	-11398
ປິ່ນປົວ	-11399
ລະດູການ	-11400
ຫຼາຍຄົນ	-11401
▁(2013)	-11402
▁Linked	-11403
▁ນາງໄດ້	-11404
▁ສາທາລະ	-11405
ຕິດເຊື້ອ	-11406
▁192.168	-11407
▁Fitness	-11408
▁ອະນາຄົດ	-11409
▁ຮ່າໂນ້ຍ	-11410
ການສອບເສັງ	-11411
▁ຄໍາແນະນໍາ	-11412
▁galvanized	-11413
GT	-11414
40)	-11415
Van	-11416
ຟິກ	-11417
ືລື	-11418
▁SU	-11419
▁ຊິ	-11420
base	-11421
ເພນີ	-11422
▁123	-11423
▁31,	-11424
▁AMP	-11425
▁Bat	-11426
▁Bob	-11427
▁RSS	-11428
▁Zoo	-11429
▁lam	-11430
▁out	-11431
▁pad	-11432
▁ván	-11433
▁ຖັດ	-11434
▁ຝັນ	-11435
craft	-11436
eller	-11437
stock	-11438
ຈະໄດ້	-11439
ລະພິດ	-11440
ສະມາດ	-11441
ອິຣັກ	-11442
▁Bear	-11443
▁Màng	-11444
▁ເວທີ	-11445
ບໍ່ຮູ້	-11446
▁2008.	-11447
▁ບາງທີ	-11448
▁ບໍາລຸງ	-11449
▁Philipp	-11450
▁virtual	-11451
ເພື່ອສ້າງ	-11452
▁ເຖິງແມ່ນ	-11453
ຜິດປົກກະຕິ	-11454
ບັນຊີລາຍຊື່	-11455
▁ການຄົ້ນຄວ້າ	-11456
ທີ່ຂ້າພະເຈົ້າ	-11457
ຜູ້ໃຫ້ບໍລິການ	-11458
3-	-11459
FTA	-11460
htt	-11461
iki	-11462
ແນະ	-11463
▁BP	-11464
▁HK	-11465
epad	-11466
evin	-11467
iner	-11468
itan	-11469
umen	-11470
ທ້ອງ	-11471
ມກາງ	-11472
ມ້ວນ	-11473
ເຊົາ	-11474
▁2.8	-11475
▁AST	-11476
▁Adv	-11477
▁Eth	-11478
▁Yue	-11479
▁cat	-11480
▁ຢາມ	-11481
Catal	-11482
aking	-11483
▁Lãnh	-11484
▁Yong	-11485
▁bùng	-11486
▁hoãn	-11487
▁more	-11488
▁pass	-11489
▁ທ່ອງ	-11490
▁ຫລີກ	-11491
ອອນລາຍ	-11492
▁Centr	-11493
▁phanh	-11494
▁vượng	-11495
▁ຂະແຫນ	-11496
▁ພວກເຂ	-11497
ທີ່ເຮັດ	-11498
ປະລິນຍາ	-11499
ຮ່າໂນ້ຍ	-11500
▁Armati	-11501
ກິດຈະການ	-11502
ຍົກເວັ້ນ	-11503
ສິດທິບັດ	-11504
ຂັບເຄື່ອນ	-11505
▁ເຢຍລະມັນ	-11506
ການປົກປ້ອງ	-11507
▁ກ່ຽວກັບການ	-11508
ສ່ວນຫນຶ່ງຂອງ	-11509
,0	-11510
uo	-11511
ໄຍ	-11512
ẢN	-11513
aby	-11514
ety	-11515
med	-11516
men	-11517
ror	-11518
ວກະ	-11519
ອົກ	-11520
▁GS	-11521
aner	-11522
cial	-11523
icle	-11524
mmer	-11525
ເຈາະ	-11526
ເບິນ	-11527
▁But	-11528
▁Upd	-11529
▁ຊິດ	-11530
▁ຕັນ	-11531
▁ລຸກ	-11532
-2017	-11533
ience	-11534
iston	-11535
owder	-11536
urich	-11537
ລວມມີ	-11538
▁Fran	-11539
▁Heat	-11540
▁Jiao	-11541
▁Thai	-11542
▁WIFI	-11543
▁mach	-11544
▁ສະເຕ	-11545
▁ຫລອດ	-11546
ສູງຂອງ	-11547
▁2020,	-11548
▁screw	-11549
▁ນໍາພາ	-11550
▁ມີຄ່າ	-11551
stanbul	-11552
ຊົ່ວຄາວ	-11553
ແມ່ນຍໍາ	-11554
▁Cutter	-11555
▁ພູເຂົາ	-11556
ສາສະຫມັກ	-11557
▁ການອ່ານ	-11558
▁ຕໍາຫຼວດ	-11559
ingdirect	-11560
ຖານຂໍ້ມູນ	-11561
▁download	-11562
▁ດັ່ງກ່າວ	-11563
▁ໄດ້ປະກາດ	-11564
າວິສາຫະກິດ	-11565
▁ແສງສະຫວ່າງ	-11566
ແລະພວກເຮົາຈະ	-11567
▁ການເຊື່ອມຕໍ່	-11568
▁ພວກເຮົາກໍາລັງ	-11569
=2	-11570
OK	-11571
PH	-11572
RH	-11573
__	-11574
ns	-11575
ແອບ	-11576
▁(+	-11577
▁Lê	-11578
▁fr	-11579
ague	-11580
izza	-11581
qiao	-11582
ຄ່ອຍ	-11583
ອາເມ	-11584
ແຫວງ	-11585
▁225	-11586
▁5.5	-11587
▁CAN	-11588
▁CCN	-11589
▁Hou	-11590
▁Quá	-11591
▁alt	-11592
▁mar	-11593
▁ngu	-11594
▁spe	-11595
▁val	-11596
▁ຂີ່	-11597
entai	-11598
ຫາຍໄປ	-11599
▁Apps	-11600
▁Biển	-11601
▁Bulk	-11602
▁Form	-11603
▁rỗng	-11604
▁ຄຣິດ	-11605
▁ເລີດ	-11606
ມະເລັງ	-11607
▁Huafu	-11608
▁Niger	-11609
▁Watts	-11610
▁khuẩn	-11611
,000.00	-11612
ໂທລະທັດ	-11613
▁Player	-11614
▁ກວດສອບ	-11615
▁ດຽວນີ້	-11616
▁ທີ່ນີ້	-11617
▁ເບື້ອງ	-11618
endering	-11619
ພຣະເຈົ້າ	-11620
ຢາເສບຕິດ	-11621
▁ເຈົ້າກໍ	-11622
▁Istanbul	-11623
▁Paradise	-11624
ຂອງທ່ານແລະ	-11625
ຂອງອຸປະກອນ	-11626
ພາສາອັງກິດ	-11627
/8	-11628
UY	-11629
ba	-11630
.20	-11631
.64	-11632
860	-11633
PCS	-11634
cow	-11635
don	-11636
ism	-11637
ປຽບ	-11638
ຜັກ	-11639
ຮາກ	-11640
້ວຍ	-11641
ỳnh	-11642
▁7.	-11643
▁77	-11644
▁Cổ	-11645
▁Ji	-11646
▁bá	-11647
ices	-11648
umma	-11649
ືກສາ	-11650
▁Bụi	-11651
▁Som	-11652
▁Sợi	-11653
▁tím	-11654
▁đắp	-11655
▁ໂຈມ	-11656
ching	-11657
ilica	-11658
ປະສັກ	-11659
ຟໍເນຍ	-11660
▁Vườn	-11661
▁bổng	-11662
▁ngặt	-11663
▁tiếc	-11664
▁ແຈ່ມ	-11665
ທຸກຍາກ	-11666
ມາກ່ອນ	-11667
ຸ່ນຍົນ	-11668
▁2005,	-11669
▁Forum	-11670
▁Tours	-11671
ທຸກສິ່ງ	-11672
ສ່ຽງໃຕ້	-11673
ຫຼັກຖານ	-11674
ແຕ່ງງານ	-11675
▁Columb	-11676
▁ນໍາໃຊ້	-11677
ທີ່ຈະນໍາ	-11678
▁Trading	-11679
propylene	-11680
ວິສະວະກໍາ	-11681
ຊີ້ໃຫ້ເຫັນ	-11682
ຫມູ່ເພື່ອນ	-11683
▁Certified	-11684
▁Transposh	-11685
ຂອງພວກເຮົາໄດ້	-11686
▁ເອເລັກໂຕຣນິກ	-11687
có	-11688
kt	-11689
zi	-11690
.70	-11691
4,5	-11692
ມອນ	-11693
ເຄຣ	-11694
ếch	-11695
”.—	-11696
1390	-11697
flon	-11698
jing	-11699
oung	-11700
ໍານິ	-11701
▁1.8	-11702
▁Bos	-11703
▁Meg	-11704
▁Mor	-11705
▁Sky	-11706
▁Sok	-11707
▁Wal	-11708
▁kịp	-11709
▁neo	-11710
▁net	-11711
▁nồi	-11712
▁ray	-11713
▁đợt	-11714
▁ຖຽງ	-11715
▁ເອີ	-11716
▁ແລກ	-11717
fiber	-11718
phere	-11719
ເຫລໍກ	-11720
▁ASTM	-11721
▁Gall	-11722
▁NEMA	-11723
▁Xiao	-11724
▁xích	-11725
▁ຜ່ອນ	-11726
ອະນາໄມ	-11727
ໃນຫ້ອງ	-11728
▁Innov	-11729
▁Paper	-11730
ທີ່ແລ້ວ	-11731
ຮູບຮ່າງ	-11732
ເຫັນໄດ້	-11733
ແມ່ນໄດ້	-11734
ໃຫ້ເກີດ	-11735
▁Energy	-11736
▁Nevada	-11737
▁Zurich	-11738
▁ປັບປຸງ	-11739
ເສດເຫຼືອ	-11740
▁ພ້ອມທັງ	-11741
ສະຫນອງການ	-11742
ໃນໄລຍະຍາວ	-11743
▁ບໍ່ສາມາດ	-11744
▁ອີງຕາມການ	-11745
▁ການຕໍ່ຕ້ານ	-11746
ໃນອຸດສາຫະກໍາ	-11747
▁ພວກເຮົາແມ່ນ	-11748
▁ມົນທົນຊານຕົງ	-11749
/3	-11750
AU	-11751
br	-11752
.25	-11753
Tất	-11754
vas	-11755
ຍາະ	-11756
ປອມ	-11757
ຶ້ງ	-11758
▁Ax	-11759
▁ຈີ	-11760
0000	-11761
chun	-11762
eing	-11763
icon	-11764
▁BCH	-11765
▁Non	-11766
▁Tel	-11767
▁art	-11768
▁quê	-11769
▁tóm	-11770
▁ທຶກ	-11771
▁ປອກ	-11772
▁ສຸມ	-11773
ibbon	-11774
umblr	-11775
ສີຟ້າ	-11776
ໃນທຸກ	-11777
▁Buổi	-11778
▁HÀNG	-11779
▁cont	-11780
▁type	-11781
google	-11782
ພໍ່ແມ່	-11783
▁Money	-11784
▁Range	-11785
▁Width	-11786
▁shopp	-11787
▁super	-11788
▁ອຸດົມ	-11789
ຜູ້ໃຫຍ່	-11790
ືລືລົ້ນ	-11791
▁Moscow	-11792
▁Sponge	-11793
▁ກະຕຸ້ນ	-11794
▁ສີເທົາ	-11795
ໃນພື້ນທີ່	-11796
▁shoppingdirect	-11797
my	-11798
ũi	-11799
ທຸ	-11800
ụa	-11801
-85	-11802
COM	-11803
ado	-11804
udd	-11805
ຜັດ	-11806
າມີ	-11807
▁Ev	-11808
▁hi	-11809
odia	-11810
ship	-11811
ກະແສ	-11812
ຊຸ່ມ	-11813
▁2.1	-11814
▁304	-11815
▁80%	-11816
▁Feb	-11817
▁Nhờ	-11818
▁Toy	-11819
▁nản	-11820
▁ແຫລ	-11821
ເກົ້າ	-11822
▁0.15	-11823
▁Coff	-11824
▁Drop	-11825
▁Trận	-11826
▁chat	-11827
▁trơn	-11828
▁điền	-11829
▁ຫນົນ	-11830
ຕົວເລກ	-11831
ພູເຂົາ	-11832
▁Chiếc	-11833
▁Class	-11834
▁XNUMX	-11835
▁hacks	-11836
ຂາທິການ	-11837
ຈໍາເພາະ	-11838
ສະເທືອນ	-11839
ສິ່ງນີ້	-11840
ອອກເປັນ	-11841
ແມ່ນບໍ່	-11842
▁Hunter	-11843
▁ການພິມ	-11844
▁ແລະໄດ້	-11845
ເອົາຊະນະ	-11846
ໃນຮູບແບບ	-11847
ສາຍການບິນ	-11848
▁Virginia	-11849
▁ethereum	-11850
%)	-11851
AA	-11852
ví	-11853
/19	-11854
Xem	-11855
iro	-11856
xăm	-11857
ອາງ	-11858
▁HY	-11859
▁nề	-11860
anol	-11861
heng	-11862
ilin	-11863
ishi	-11864
ugby	-11865
ນາດາ	-11866
ມຸ່ງ	-11867
ວນໍາ	-11868
▁777	-11869
▁Ann	-11870
▁IEC	-11871
▁Lib	-11872
▁Shi	-11873
▁kil	-11874
▁kẹp	-11875
▁thở	-11876
▁ຊົງ	-11877
▁ດີກ	-11878
▁ໂອບ	-11879
stone	-11880
ລະດົມ	-11881
ສີແດງ	-11882
ເລັ່ງ	-11883
ໂບນັດ	-11884
ໄສທັດ	-11885
▁1980	-11886
▁Thăm	-11887
▁Xuân	-11888
▁chẩn	-11889
▁khấu	-11890
ຊີ້ນໍາ	-11891
ລົງໂທດ	-11892
ສາມຄົນ	-11893
ສູງແລະ	-11894
ເຈລະຈາ	-11895
▁2016)	-11896
▁Vinyl	-11897
▁huyết	-11898
ມະນາຄົມ	-11899
ຫຼັກການ	-11900
ໄພພິບັດ	-11901
▁Heroes	-11902
▁Yamaha	-11903
▁Bangkok	-11904
▁ວາລະສານ	-11905
ເພີ່ມທະວີ	-11906
ແສງຕາເວັນ	-11907
▁Pressure	-11908
▁ຄວາມເປັນ	-11909
▁ດ້ວຍຄວາມ	-11910
▁Guangzhou	-11911
▁Enterprise	-11912
/7	-11913
NT	-11914
PO	-11915
Pl	-11916
ci	-11917
fa	-11918
ÔI	-11919
ຟີ	-11920
-70	-11921
MLE	-11922
edu	-11923
itz	-11924
iễu	-11925
jan	-11926
▁4)	-11927
▁91	-11928
▁ຣີ	-11929
▁ໄບ	-11930
avas	-11931
html	-11932
roit	-11933
ິຍົມ	-11934
▁108	-11935
▁877	-11936
▁Lad	-11937
▁Ste	-11938
▁Tín	-11939
▁pay	-11940
▁ຝົນ	-11941
▁ສູບ	-11942
ander	-11943
trans	-11944
ມະນູນ	-11945
▁Carl	-11946
▁Join	-11947
▁dinh	-11948
▁khải	-11949
▁ທໍານ	-11950
▁ຫນາມ	-11951
▁ອະນຸ	-11952
ສົມຜົນ	-11953
ອີເມລ໌	-11954
ເລື່ອນ	-11955
ແນວຄິດ	-11956
▁Admin	-11957
▁Santa	-11958
▁Space	-11959
▁Strip	-11960
▁ປະທັບ	-11961
ຄວາມຈໍາ	-11962
ດູດຝຸ່ນ	-11963
ຽນລະພາບ	-11964
▁(2014)	-11965
lication	-11966
ທີ່ບໍ່ດີ	-11967
ຖ້າຫາກວ່າ	-11968
▁2006-2020	-11969
▁Nashville	-11970
▁ເອົາໃຈໃສ່	-11971
ສາທາລະນະສຸກ	-11972
▁ພວກເຮົາຍັງ	-11973
▁ກະລຸນາໃສ່ອີເມວ	-11974
EI	-11975
sa	-11976
BET	-11977
IFA	-11978
fit	-11979
uth	-11980
ກະທ	-11981
ມ້າ	-11982
▁BI	-11983
▁TO	-11984
▁Ub	-11985
aked	-11986
icks	-11987
ກະໂປ	-11988
ຄອບຄ	-11989
ພາລາ	-11990
ພາວະ	-11991
▁Dãy	-11992
▁Góc	-11993
▁Laz	-11994
▁lad	-11995
▁mèo	-11996
▁ຄານ	-11997
▁ປາຍ	-11998
▁ພັບ	-11999
▁ເຊຍ	-12000
annel	-12001
ນໍາພາ	-12002
ປູເຈຍ	-12003
ັດທະນ	-12004
ິສຖານ	-12005
ເລເຊີ	-12006
▁Core	-12007
▁Film	-12008
▁Mess	-12009
▁Real	-12010
▁live	-12011
▁ngón	-12012
▁đống	-12013
ທີ່ຍັງ	-12014
ບັນທຸກ	-12015
ພົບວ່າ	-12016
▁2016,	-12017
▁KHÔNG	-12018
▁sương	-12019
▁ລະບຽບ	-12020
▁ອາດຈະ	-12021
ວັດທະນາ	-12022
▁ເລື່ອນ	-12023
ໄດ້ປະກາດ	-12024
▁Eyelash	-12025
▁ທີ່ເປັນ	-12026
▁ປະເທດໄທ	-12027
▁ໃນເມືອງ	-12028
▁ໄດ້ກ່າວ	-12029
ທົນທານຕໍ່	-12030
ການຄາດຄະເນ	-12031
ທີ່ຈໍາເປັນ	-12032
ທີ່ມີຊີວິດ	-12033
▁ການທົດລອງ	-12034
▁ແຫຼ່ງຂໍ້ມູນ	-12035
ສະເພາະໃດຫນຶ່ງ	-12036
ອີກເທື່ອຫນຶ່ງ	-12037
▁ການຊໍາລະເງິນ	-12038
MK	-12039
nt	-12040
ịn	-12041
pos	-12042
▁#6	-12043
▁2-	-12044
icol	-12045
ures	-12046
ະນີ້	-12047
ເດີນ	-12048
▁0.8	-12049
▁Bút	-12050
▁CSG	-12051
▁GDP	-12052
▁Khe	-12053
▁Pvc	-12054
▁Yin	-12055
▁lũy	-12056
▁ເຕກ	-12057
▁Cord	-12058
▁Sòng	-12059
▁Tháp	-12060
▁chúc	-12061
▁đằng	-12062
▁ສາຂາ	-12063
Trader	-12064
ources	-12065
ຊື່ວ່າ	-12066
ສໍາອາງ	-12067
ແຈກຢາຍ	-12068
ໃຫ້ຜູ້	-12069
້ໍາມັນ	-12070
▁2006.	-12071
▁Khaki	-12072
▁ກະທົບ	-12073
▁ອາການ	-12074
ຂັດແຍ່ງ	-12075
ຍັງເປັນ	-12076
ພະຍາບານ	-12077
ອ້າງວ່າ	-12078
ໄດ້ກ່າວ	-12079
▁Cooler	-12080
▁Soccer	-12081
▁google	-12082
▁ພາກຮຽນ	-12083
ທໍາມະນູນ	-12084
ເຊັ່ນກັນ	-12085
▁Ceramic	-12086
▁Package	-12087
▁website	-12088
▁ຈາກນັ້ນ	-12089
▁ເຫລື້ອມ	-12090
androlone	-12091
ວ່າຈະເປັນ	-12092
ແມ່ນຢູ່ໃນ	-12093
▁Exchange	-12094
▁ຄະນະກໍາມະ	-12095
▁ຄຸນສົມບັດ	-12096
ຄວາມເຂົ້າໃຈ	-12097
ການຕ່າງປະເທດ	-12098
ນັບຕັ້ງແຕ່ປີ	-12099
ຜະລິດຕະພັນຫຼື	-12100
▁ຂຸດຄົ້ນບໍ່ແຮ່	-12101
He	-12102
dg	-12103
so	-12104
ຣມ	-12105
.12	-12106
.”—	-12107
ART	-12108
LAN	-12109
Man	-12110
Pie	-12111
yst	-12112
ແຊກ	-12113
ໂພງ	-12114
▁DB	-12115
▁Mr	-12116
▁bo	-12117
▁sô	-12118
ຫຍຸດ	-12119
ເຟີນ	-12120
▁1.3	-12121
▁Bir	-12122
▁Này	-12123
▁WPC	-12124
▁nhở	-12125
▁rel	-12126
▁scr	-12127
▁Đàn	-12128
▁ຂວດ	-12129
▁ປູກ	-12130
▁ເກດ	-12131
/2018	-12132
ippie	-12133
trong	-12134
ປາກົດ	-12135
ມັກຈະ	-12136
▁Cixi	-12137
▁Cùng	-12138
▁Need	-12139
▁hang	-12140
▁lặng	-12141
▁ມະຫາ	-12142
acking	-12143
ຖືກຈັບ	-12144
ທີ່ມັນ	-12145
ມາເປັນ	-12146
ານາຊາດ	-12147
▁Piece	-12148
▁nhúng	-12149
▁thiêu	-12150
▁ເລົ່າ	-12151
ອະທິຖານ	-12152
ຂອງລະບົບ	-12153
ນັກສຶກສາ	-12154
ບັນດານັກ	-12155
▁ຂ້ອຍໄດ້	-12156
▁ປະຕິເສດ	-12157
▁ແລະທ່ານ	-12158
ຂໍ້ສະເຫນີ	-12159
▁Passport	-12160
▁ຮັບປະກັນ	-12161
ຍົກຕົວຢ່າງ	-12162
ສະດວກສະບາຍ	-12163
▁ການໂຄສະນາ	-12164
▁ຊ່ວຍເຫຼືອ	-12165
▁ໃບອະນຸຍາດ	-12166
▁Testosterone	-12167
ຮັກສາຄວາມປອດໄພ	-12168
,2	-12169
LA	-12170
ен	-12171
-09	-12172
10)	-12173
Túi	-12174
tot	-12175
ປູກ	-12176
໊ອບ	-12177
▁++	-12178
▁oz	-12179
case	-12180
ngày	-12181
onto	-12182
west	-12183
ລະຍາ	-12184
ຫຍິບ	-12185
▁Bãi	-12186
▁Gab	-12187
▁Hen	-12188
▁Que	-12189
▁dắt	-12190
▁lôi	-12191
▁rau	-12192
▁váy	-12193
▁ຄຽດ	-12194
▁ຜ່າ	-12195
▁ໂຈນ	-12196
▁ໄຫວ	-12197
▁≥10	-12198
16949	-12199
người	-12200
osite	-12201
ພີເດຍ	-12202
ສິງຫາ	-12203
ໃນລັດ	-12204
▁Hard	-12205
▁gươm	-12206
▁ເມນູ	-12207
ethane	-12208
ທີ່ພັກ	-12209
ສະຫງວນ	-12210
ອີກວ່າ	-12211
▁Break	-12212
▁Photo	-12213
▁ໄດ້ມີ	-12214
itecoin	-12215
ະນິດສາດ	-12216
▁10.000	-12217
▁ບັງຄັບ	-12218
▁ລະເບີດ	-12219
▁ສະທ້ອນ	-12220
ເວັບໄຊຕ໌	-12221
ແມ່ນເປັນ	-12222
▁Jiangsu	-12223
▁ກະຕັນຍູ	-12224
▁ລ້ານຄົນ	-12225
ກໍາລັງກາຍ	-12226
▁Coinbase	-12227
ຄົມມະນາຄົມ	-12228
ເປັນມືອາຊີບ	-12229
ໄດ້ຮັບລາງວັນ	-12230
▁ໄດ້ເວົ້າວ່າ	-12231
ປະສົບຜົນສໍາເລັດ	-12232
̣t	-12233
ato	-12234
ews	-12235
igg	-12236
rea	-12237
ຈອງ	-12238
ທອດ	-12239
▁#5	-12240
▁Ke	-12241
▁TY	-12242
even	-12243
kers	-12244
word	-12245
ຫລຸດ	-12246
ຫິມະ	-12247
▁0.7	-12248
▁188	-12249
▁CPU	-12250
▁Sửa	-12251
▁TIN	-12252
▁lân	-12253
▁nit	-12254
▁Ánh	-12255
▁ແຍງ	-12256
ening	-12257
▁1997	-12258
▁Chắc	-12259
▁Kate	-12260
▁Mail	-12261
▁Time	-12262
▁chải	-12263
▁file	-12264
▁taxi	-12265
▁Đoàn	-12266
▁ຫວັນ	-12267
▁ຫ້າມ	-12268
ending	-12269
ilding	-12270
ກາງຄືນ	-12271
ຂອງຖົງ	-12272
ທີ່ເຄຍ	-12273
ປຽບທຽບ	-12274
▁Thạch	-12275
▁black	-12276
▁buddy	-12277
▁games	-12278
ເຈັບປວດ	-12279
▁Disney	-12280
▁Martin	-12281
▁Zipper	-12282
▁ຕະຫຼາດ	-12283
▁ຢືນຢັນ	-12284
ຊົນນະບົດ	-12285
ມົນລະພິດ	-12286
ສ້າງຂຶ້ນ	-12287
ແຕ່ງຕັ້ງ	-12288
▁Ninjago	-12289
▁ບໍລິເວນ	-12290
▁ສົນທະນາ	-12291
ທີ່ແນ່ນອນ	-12292
ບັນຊີລາຍການ	-12293
▁ລະບົບຕ່ອງໂສ້	-12294
ເພີ່ມເຕີມກ່ຽວກັບ	-12295
HP	-12296
OH	-12297
ะน	-12298
ກຸ	-12299
.14	-12300
Des	-12301
lee	-12302
udy	-12303
ງວດ	-12304
ຖຸດ	-12305
ຜົວ	-12306
▁hô	-12307
▁mẻ	-12308
▁ປິ	-12309
▁16:	-12310
▁báu	-12311
▁ງວນ	-12312
▁ດາບ	-12313
▁ປຸງ	-12314
▁ເອກ	-12315
▁ແດນ	-12316
Chúng	-12317
abeth	-12318
layer	-12319
ກະດານ	-12320
ຍາກາດ	-12321
ທະນາກ	-12322
ຮໍໂມນ	-12323
▁Eliz	-12324
▁HDPE	-12325
▁Lưới	-12326
▁Nhựa	-12327
▁Phim	-12328
▁Pipe	-12329
▁euro	-12330
▁ຫລຸດ	-12331
▁ເລີ່	-12332
eptine	-12333
ີ່ປຸ່ນ	-12334
ໂຕ້ຕອບ	-12335
▁ngạch	-12336
▁vinyl	-12337
ກະເປົ໋າ	-12338
ທິສັນຍາ	-12339
ລູມິນຽມ	-12340
ວາລະສານ	-12341
ຫລາຍຄົນ	-12342
ເດິນທາງ	-12343
▁ຊຸມຊົນ	-12344
ຄົນຫນຶ່ງ	-12345
ມາຈາກການ	-12346
▁Romania	-12347
▁Spotify	-12348
▁ພິທີການ	-12349
▁ອາຍແກັສ	-12350
ຮ່ວມມືກັບ	-12351
▁ການສະແດງ	-12352
▁ຄວາມຮ້ອນ	-12353
ການປະກັນໄພ	-12354
ຜິດກົດຫມາຍ	-12355
▁Christian	-12356
▁ການສະຫນອງ	-12357
▁ຕາເວັນອອກ	-12358
ສາມາດນໍາໃຊ້	-12359
▁ງວນລິຂະສິດ	-12360
ພະຍາຍາມທີ່ຈະ	-12361
ຈຸດຫມາຍປາຍທາງ	-12362
▁ລະຫັດບໍລິສັດ	-12363
TP	-12364
sd	-12365
ty	-12366
ຮາ	-12367
▁Í	-12368
.77	-12369
="2	-12370
Ltd	-12371
oma	-12372
ຸໂສ	-12373
▁5-	-12374
▁GU	-12375
▁Ky	-12376
▁MN	-12377
▁NC	-12378
▁Na	-12379
▁Ur	-12380
▁Vi	-12381
▁sỉ	-12382
bour	-12383
ຍ້ອງ	-12384
ແກັດ	-12385
ໄອທີ	-12386
▁128	-12387
▁CRM	-12388
▁Cái	-12389
▁Deb	-12390
▁FDA	-12391
▁Jon	-12392
▁Pol	-12393
▁Ren	-12394
▁ren	-12395
▁đắt	-12396
▁ຄຽງ	-12397
▁ຊໍາ	-12398
▁ໂຕະ	-12399
▁ໄຫລ	-12400
ifter	-12401
ບໍ່ດີ	-12402
ປະສິດ	-12403
▁BCHT	-12404
▁Chai	-12405
▁Cost	-12406
▁CÔNG	-12407
▁Edge	-12408
▁Khẩn	-12409
▁Nhìn	-12410
▁bụng	-12411
▁ninj	-12412
▁tags	-12413
▁ແຕ້ມ	-12414
ຄົງທີ່	-12415
ໂມຊັ່ນ	-12416
ວິຊາຊີບ	-12417
▁10,000	-12418
▁Geocon	-12419
▁Oxygen	-12420
▁Rooder	-12421
▁hacker	-12422
▁ແຜນການ	-12423
ການສະແດງ	-12424
ຈາກປະເທດ	-12425
▁Crusher	-12426
▁Ireland	-12427
▁October	-12428
▁ຕໍາຫລວດ	-12429
▁ພາຍຫຼັງ	-12430
ປະເມີນຜົນ	-12431
ໃນການສ້າງ	-12432
▁ສະພາບການ	-12433
ຂອງພຣະເຈົ້າ	-12434
▁MetaTrader	-12435
▁ການຄຸ້ມຄອງ	-12436
ທໍາຄວາມສະອາດ	-12437
ເອເລັກໂຕຣນິກ	-12438
ລູກຄ້າຂອງພວກເຮົາ	-12439
02	-12440
íp	-12441
ຈ໌	-12442
ẬT	-12443
112	-12444
IDE	-12445
alo	-12446
lue	-12447
ref	-12448
ຂັງ	-12449
ໂຊກ	-12450
▁Yu	-12451
▁lỡ	-12452
acen	-12453
acth	-12454
airs	-12455
ຮ່ອງ	-12456
ານີ້	-12457
່ງໃສ	-12458
▁(40	-12459
▁2.6	-12460
▁270	-12461
▁Gao	-12462
▁Lor	-12463
▁Put	-12464
▁TOP	-12465
▁Trả	-12466
▁nón	-12467
▁sáo	-12468
▁ລະຫ	-12469
/2019	-12470
INGBO	-12471
apter	-12472
icago	-12473
ipple	-12474
ຂອງສະ	-12475
ນະລັດ	-12476
ອດແລນ	-12477
ໄດ້ມີ	-12478
▁Kông	-12479
▁Nhấp	-12480
▁Ryan	-12481
▁Spir	-12482
▁Tuần	-12483
▁from	-12484
▁khôi	-12485
angers	-12486
iphone	-12487
irates	-12488
olding	-12489
ການໃຫ້	-12490
ເຫມືອງ	-12491
▁2010,	-12492
▁spark	-12493
ຄວາມຮັກ	-12494
▁Cotton	-12495
▁Ukrain	-12496
▁exacth	-12497
▁ໃນຂະນະ	-12498
ໃນເລື່ອງ	-12499
▁Saracen	-12500
▁ແຕກຕ່າງ	-12501
ຖະແຫຼງການ	-12502
ອາດຈະເປັນ	-12503
ເຫດສົມຜົນ	-12504
▁Precision	-12505
▁Rendering	-12506
▁halloween	-12507
▁ຫົວຂໍ້ໄວ້	-12508
▁exacthacks	-12509
▁ຄວາມຫນາແຫນ້ນ	-12510
!”	-12511
EE	-12512
MO	-12513
nm	-12514
ira	-12515
lud	-12516
oga	-12517
urs	-12518
ບຽງ	-12519
▁96	-12520
▁AW	-12521
▁Ah	-12522
▁FN	-12523
▁Tế	-12524
▁ep	-12525
▁xà	-12526
▁ຝາ	-12527
ains	-12528
entr	-12529
igin	-12530
qing	-12531
ປັ້ນ	-12532
ົາມາ	-12533
ເຫລວ	-12534
ເຮັງ	-12535
▁21:	-12536
▁Jum	-12537
▁Lev	-12538
▁Moh	-12539
▁Trẻ	-12540
▁dốc	-12541
▁tỏa	-12542
▁đậm	-12543
▁ລັນ	-12544
▁ວາດ	-12545
actor	-12546
aging	-12547
embly	-12548
stein	-12549
ຖຸດິບ	-12550
▁1995	-12551
▁Golf	-12552
▁pháo	-12553
▁ແຂ້ວ	-12554
acetam	-12555
ທີ່ໃຫ້	-12556
ລາສສິກ	-12557
ສະຫຼາດ	-12558
ສືບສວນ	-12559
່ວັນທີ	-12560
▁2007,	-12561
▁trừng	-12562
ປະທັບຕາ	-12563
ສາລະເອວ	-12564
ເສັ້ນໃຍ	-12565
▁Andrew	-12566
▁Tumblr	-12567
▁Turkey	-12568
▁ຄົນທີ່	-12569
▁ປະຫລາດ	-12570
▁ອອກຈາກ	-12571
ແຜ່ກະຈາຍ	-12572
ໂດດເດັ່ນ	-12573
▁Richard	-12574
▁ກັນນ້ໍາ	-12575
▁ເຈົ້າມີ	-12576
ສັງເກດການ	-12577
ເຊື່ອມຕໍ່ກັບ	-12578
▁ຈີນຜູ້ຜະລິດ	-12579
/-	-12580
HC	-12581
Nm	-12582
OX	-12583
ຖ່	-12584
ỦA	-12585
.19	-12586
1.0	-12587
ECT	-12588
ULL	-12589
col	-12590
eek	-12591
res	-12592
ຊາກ	-12593
ດວງ	-12594
ໂອ້	-12595
▁$4	-12596
▁97	-12597
▁HI	-12598
▁ái	-12599
▁ຫູ	-12600
neum	-12601
ກວາງ	-12602
ຊ້າຍ	-12603
ລ່າງ	-12604
ໂຊຕາ	-12605
▁CỦA	-12606
▁Dry	-12607
▁Gặp	-12608
▁Hòa	-12609
▁JPY	-12610
▁Low	-12611
▁Nav	-12612
▁Nex	-12613
▁Pac	-12614
▁Wil	-12615
▁all	-12616
▁sim	-12617
▁ຈັງ	-12618
▁ຝັງ	-12619
ering	-12620
▁Nhấn	-12621
▁Trip	-12622
▁lũng	-12623
▁will	-12624
▁ຖານະ	-12625
▁ຫນາວ	-12626
▁ອານາ	-12627
▁ຮ່ອງ	-12628
ຂອງພັກ	-12629
ຄໍາວ່າ	-12630
ໃກ້ຄຽງ	-12631
▁2015,	-12632
▁Syria	-12633
▁luồng	-12634
▁ຕາລາງ	-12635
▁ປະສົມ	-12636
▁ສັດຕູ	-12637
▁ເຫລັກ	-12638
ຂັດແຍ້ງ	-12639
ໃນຊີວິດ	-12640
▁(2011)	-12641
▁United	-12642
▁ກັນດານ	-12643
▁ຍອມຮັບ	-12644
▁ເງື່ອນ	-12645
cription	-12646
▁ທ່ານຮອງ	-12647
▁ເຂົ້າໃຈ	-12648
avascript	-12649
ກອງກໍາລັງ	-12650
ລະມັດລະວັງ	-12651
▁ທ່ານອາດຈະ	-12652
▁ຜົນປະໂຫຍດ	-12653
▁ວິສາຫະກິດ	-12654
ດັ່ງກ່າວໄດ້	-12655
▁ເດືອນພະຈິກ	-12656
ດັ່ງຕໍ່ໄປນີ້	-12657
ທີ່ຄ້າຍຄືກັນ	-12658
▁ເດືອນມິຖຸນາ	-12659
ຖ້າຫາກວ່າທ່ານ	-12660
ແລະການພັດທະນາ	-12661
▁ໂດຍສື່ມວນຊົນ	-12662
ການສໍາພັດພາຍໃນ	-12663
ເພື່ອໃຫ້ໄດ້ຮັບ	-12664
▁ປະທານນາທິບໍດີ	-12665
))	-12666
3}	-12667
FA	-12668
SW	-12669
TL	-12670
໊ກ	-12671
′′	-12672
,00	-12673
.18	-12674
105	-12675
160	-12676
ght	-12677
ras	-12678
ກີດ	-12679
ລ້າ	-12680
ັ໊ມ	-12681
ໂບດ	-12682
▁GA	-12683
▁SI	-12684
▁nở	-12685
unge	-12686
ລິມະ	-12687
ແອັດ	-12688
▁Hui	-12689
▁SSL	-12690
▁URL	-12691
▁Vấn	-12692
▁lắm	-12693
▁thự	-12694
▁ບາກ	-12695
▁ປອມ	-12696
ERIES	-12697
ການສະ	-12698
ຕະກໍາ	-12699
ຖາວອນ	-12700
ໃຊ້ໃນ	-12701
▁Buck	-12702
▁Data	-12703
▁Fast	-12704
▁Siêu	-12705
▁muộn	-12706
ພັດທະນ	-12707
ຫມໍ້ໄຟ	-12708
▁Cross	-12709
▁Music	-12710
▁Ninja	-12711
▁ຫລາຍໆ	-12712
acquard	-12713
ດ້ານການ	-12714
ນີ້ເປັນ	-12715
ຢູ່ບ່ອນ	-12716
▁Jacket	-12717
▁Orange	-12718
▁nghênh	-12719
▁ປຽບທຽບ	-12720
ນໍາເຂົ້າ	-12721
ປະຈໍາວັນ	-12722
ສັນຕິພາບ	-12723
ຫລາຍຂື້ນ	-12724
ເຕີບໃຫຍ່	-12725
▁Chicago	-12726
▁Drifter	-12727
▁ຄໍາເຫັນ	-12728
ທີ່ບໍ່ໄດ້	-12729
ພົວພັນກັບ	-12730
▁Business	-12731
▁ສີເຫຼືອງ	-12732
ມີຄວາມສ່ຽງ	-12733
▁Elizabeth	-12734
▁Production	-12735
ດ້ານຈັນຍາບັນ	-12736
▁Philippines	-12737
▁★	-12738
15)	-12739
769	-12740
:86	-12741
PDF	-12742
ugh	-12743
ທິນ	-12744
ນ້ໍ	-12745
ບໄຊ	-12746
ຫນູ	-12747
ຫັກ	-12748
ໂຕນ	-12749
▁FL	-12750
▁dỡ	-12751
▁ດຣ	-12752
▁ມໍ	-12753
Free	-12754
aron	-12755
▁APK	-12756
▁Cut	-12757
▁Cấp	-12758
▁Job	-12759
▁TKT	-12760
▁Vắc	-12761
▁ios	-12762
▁pcs	-12763
▁say	-12764
▁vat	-12765
▁ນຸດ	-12766
▁ສະດ	-12767
▁ຮຸນ	-12768
▁ແງ່	-12769
water	-12770
ມາຮອດ	-12771
ໄປຕາມ	-12772
▁1400	-12773
▁1960	-12774
▁Ever	-12775
▁cart	-12776
▁thắt	-12777
▁vành	-12778
▁ສາມີ	-12779
urnace	-12780
ກະເປົາ	-12781
ຂະແຫນງ	-12782
ບໍ່ຄວນ	-12783
▁Scott	-12784
▁fiber	-12785
▁huỳnh	-12786
avorite	-12787
itioner	-12788
ຕັ້ງຢູ່	-12789
▁Extens	-12790
▁Hacker	-12791
▁Motors	-12792
▁Spring	-12793
▁cosmos	-12794
▁iphone	-12795
▁ການໃຊ້	-12796
▁ບົດບາດ	-12797
ຍົກລະດັບ	-12798
ເຄາະຮ້າຍ	-12799
▁100.000	-12800
▁twitter	-12801
▁ພ້ອມກັບ	-12802
▁ແມ່ນການ	-12803
Catalogue	-12804
ປຶກສາຫາລື	-12805
▁Airlines	-12806
▁ການບັນຈຸ	-12807
▁ເຈົ້າຂອງ	-12808
▁Morehacks	-12809
▁ຕົ້ນສະບັບ	-12810
ທາງການເມືອງ	-12811
ຢ່າງເຕັມທີ່	-12812
ຄາຂອງພວກເຮົາ	-12813
▁ຕິດຕໍ່ພວກເຮົາ	-12814
▁ລະຫັດການປະກັນໄພ	-12815
Cr	-12816
́i	-12817
-26	-12818
/01	-12819
ALE	-12820
aid	-12821
arr	-12822
opt	-12823
ຂຸມ	-12824
▁73	-12825
▁Dễ	-12826
▁EL	-12827
▁af	-12828
ຕົວກ	-12829
ຝົ້າ	-12830
ຝ້າຍ	-12831
ຫມູນ	-12832
▁121	-12833
▁APP	-12834
▁Cop	-12835
▁GED	-12836
▁MUM	-12837
▁Ram	-12838
▁Tap	-12839
▁dia	-12840
▁dàn	-12841
▁ກີດ	-12842
▁ເມວ	-12843
anton	-12844
ungal	-12845
utsch	-12846
ຫນ່ວງ	-12847
ຸງການ	-12848
▁2002	-12849
▁Bánh	-12850
▁Nhôm	-12851
▁Rome	-12852
▁WebS	-12853
▁khơi	-12854
▁spin	-12855
▁tang	-12856
▁thun	-12857
▁ຕໍ່າ	-12858
▁ຫຼຽນ	-12859
▁ຮ້າງ	-12860
ອາເມລິ	-12861
ແຂງແຮງ	-12862
▁1,000	-12863
▁Vegas	-12864
▁ກາຕູນ	-12865
pressor	-12866
ປະຕິເຫດ	-12867
ສິນລະປະ	-12868
ອ້າງອີງ	-12869
ຮ່ວມເພດ	-12870
▁Boeing	-12871
▁roller	-12872
▁ພຣະຄໍາ	-12873
▁ສະຫລາດ	-12874
ປ່ອງຢ້ຽມ	-12875
▁Acrylic	-12876
▁Chamber	-12877
▁Scooter	-12878
▁ກາຍເປັນ	-12879
▁ກິໂລແມັດ	-12880
▁ສົ່ງເສີມ	-12881
▁ອົງປະກອບ	-12882
ການເດີນທາງ	-12883
ເຫຼົ່ານັ້ນ	-12884
▁ເມື່ອທ່ານ	-12885
▁ລາວກ່າວວ່າ	-12886
▁ແລະພວກເຮົາ	-12887
-24	-12888
360	-12889
868	-12890
bow	-12891
fox	-12892
ປົດ	-12893
ຣີດ	-12894
▁&#	-12895
▁(7	-12896
Hình	-12897
ayer	-12898
ique	-12899
ists	-12900
ທ້າວ	-12901
▁Bra	-12902
▁BẠN	-12903
▁CHÚ	-12904
▁Cin	-12905
▁Exp	-12906
▁Ghi	-12907
▁Had	-12908
▁Jay	-12909
▁Rub	-12910
▁Thử	-12911
▁TÔI	-12912
▁mịn	-12913
▁nho	-12914
▁sec	-12915
▁tok	-12916
▁Đan	-12917
namfg	-12918
ustin	-12919
ກະບອກ	-12920
ຍຸໂຣບ	-12921
ສະສົມ	-12922
້ນ້ໍາ	-12923
▁Cond	-12924
▁Cour	-12925
▁Linh	-12926
▁Rose	-12927
▁khớp	-12928
▁ngơi	-12929
▁nhịn	-12930
▁thâm	-12931
▁ເຍີ້	-12932
arinet	-12933
▁2011)	-12934
▁Huang	-12935
▁Plate	-12936
▁trinh	-12937
▁ອາຊີບ	-12938
▁ອາວຸດ	-12939
ການເປັນ	-12940
ຂ້ອຍໄດ້	-12941
ຖ່າຍຮູບ	-12942
▁ກອງທຶນ	-12943
ແມ່ນຫຍັງ	-12944
ແລະສາມາດ	-12945
▁Tianjin	-12946
▁charter	-12947
ຄຣິດສະມາດ	-12948
ທີ່ຈະເປັນ	-12949
ຮູ້ສຶກວ່າ	-12950
▁ຊື່ງເປັນ	-12951
▁ຄົນອັບເດດ	-12952
ບັນດາໂຄງການ	-12953
ຜົນກະທົບຂອງ	-12954
▁ເປັນບໍລິສັດ	-12955
ຄວາມເປັນໄປໄດ້	-12956
ສະເຫຼີມສະຫຼອງ	-12957
:06	-12958
ait	-12959
obe	-12960
zuk	-12961
ຮວມ	-12962
ແຖວ	-12963
ໄຂ່	-12964
ໄຮ້	-12965
▁DK	-12966
▁Ep	-12967
▁GO	-12968
▁Tỷ	-12969
aven	-12970
ຄລິກ	-12971
ຈະລາ	-12972
ສະໄຕ	-12973
ເລີນ	-12974
▁2.7	-12975
▁256	-12976
▁888	-12977
▁Còn	-12978
▁Get	-12979
▁HIV	-12980
▁Huệ	-12981
▁SMD	-12982
▁Syd	-12983
▁lăm	-12984
▁rộn	-12985
▁spr	-12986
▁xưa	-12987
▁ຊ້າ	-12988
▁ສະກ	-12989
Người	-12990
onder	-12991
rogen	-12992
sting	-12993
tdown	-12994
ຢາສູບ	-12995
ສະວິດ	-12996
ໄປຈາກ	-12997
▁1300	-12998
▁Bish	-12999
▁Gate	-13000
▁Quay	-13001
▁RFID	-13002
▁cong	-13003
▁khuy	-13004
▁ngợi	-13005
▁nhạo	-13006
▁thêu	-13007
▁Đình	-13008
▁ຊ່າງ	-13009
▁ຢູ່ນ	-13010
▁ຫວັດ	-13011
▁ເຍາະ	-13012
▁ເມີດ	-13013
ຂອງຫົວ	-13014
ທ່າແຮງ	-13015
ສອບຖາມ	-13016
ໃນຄວາມ	-13017
▁April	-13018
▁Cable	-13019
▁ສີຂຽວ	-13020
ຊາຍຝັ່ງ	-13021
ລຸ່ມນີ້	-13022
ເກົາຫຼີ	-13023
▁Letter	-13024
▁ຕອນນີ້	-13025
▁ໂດຍບໍ່	-13026
ຫນາແຫນ້ນ	-13027
ໃຫ້ມີການ	-13028
▁Control	-13029
ພວກເຂົາມີ	-13030
ຮ້ານອາຫານ	-13031
▁Victoria	-13032
ແລະອຸປະກອນ	-13033
▁Changchun	-13034
▁ທີ່ສໍາຄັນ	-13035
▁ຫນັງສືພິມ	-13036
ປົກປັກຮັກສາ	-13037
▁ການປ້ອງກັນ	-13038
▁ຫຼັງຈາກທີ່	-13039
▁ອິນເຕີເນັດ	-13040
ຕັ້ງຂຶ້ນໃນປີ	-13041
ສົມເຫດສົມຜົນ	-13042
ສ່ວນໃຫຍ່ແມ່ນ	-13043
▁ຄວາມຕ້ອງການ	-13044
RS	-13045
cy	-13046
oC	-13047
éc	-13048
▁}	-13049
aba	-13050
oxy	-13051
sey	-13052
̣ng	-13053
ນົມ	-13054
ບາບ	-13055
ຟອດ	-13056
ແພ້	-13057
ໂທຣ	-13058
▁DV	-13059
▁ko	-13060
▁ຟີ	-13061
▁ຟູ	-13062
Liên	-13063
cept	-13064
drau	-13065
sson	-13066
ຈົ່ງ	-13067
ແກ່ນ	-13068
▁ALL	-13069
▁Dựa	-13070
▁Est	-13071
▁NCS	-13072
▁PPS	-13073
▁TED	-13074
▁apk	-13075
▁dép	-13076
▁dịu	-13077
▁lau	-13078
▁rot	-13079
▁ພິນ	-13080
▁ແຖວ	-13081
esser	-13082
ising	-13083
những	-13084
ກັນໃນ	-13085
ຫຍຸ່ນ	-13086
▁Dani	-13087
▁FIFA	-13088
▁Qing	-13089
▁Text	-13090
▁bing	-13091
▁giàn	-13092
▁hard	-13093
▁iPod	-13094
▁trưa	-13095
▁ເຄືອ	-13096
bright	-13097
iscuit	-13098
ຜູ້ຄົນ	-13099
ໂຕ້ຖຽງ	-13100
▁Adele	-13101
▁Kevin	-13102
ປັບແຕ່ງ	-13103
ລິຟໍເນຍ	-13104
໊ອກນ້ໍາ	-13105
▁Camera	-13106
▁Corpor	-13107
▁NINGBO	-13108
▁ກ້າຫານ	-13109
▁ທົ່ວໄປ	-13110
▁ສືບຕໍ່	-13111
ຄະແນນສຽງ	-13112
▁Horizon	-13113
▁Premium	-13114
▁ປະລິນຍາ	-13115
▁ແມ່ນໄດ້	-13116
ຜູ້ໂດຍສານ	-13117
ພື້ນເມືອງ	-13118
ມີຄວາມສຸກ	-13119
▁Cambodia	-13120
ທີ່ຮ້າຍແຮງ	-13121
▁Container	-13122
▁ລະຫັດພາສີ	-13123
ອຸນຫະພູມສູງ	-13124
▁SharePoint	-13125
ສິ່ງເສດເຫຼືອ	-13126
▁Application	-13127
ແລະຜະລິດຕະພັນ	-13128
▁tattoostattoos	-13129
9%	-13130
990	-13131
cho	-13132
oke	-13133
pet	-13134
raf	-13135
ຕຽງ	-13136
ຣີນ	-13137
ເອນ	-13138
່ວິ	-13139
▁Ni	-13140
▁rỡ	-13141
▁tớ	-13142
▁Đa	-13143
▁ĐÁ	-13144
▁ຍ່	-13145
▁ໄນ	-13146
2000	-13147
ajon	-13148
atar	-13149
ongo	-13150
xing	-13151
▁14:	-13152
▁CPA	-13153
▁Dan	-13154
▁Mob	-13155
▁Pil	-13156
▁Sea	-13157
▁Slo	-13158
▁Vis	-13159
▁Wol	-13160
▁dãy	-13161
▁nét	-13162
▁ປຽບ	-13163
▁ຫາດ	-13164
ateur	-13165
ennis	-13166
ອີຣັກ	-13167
▁1996	-13168
▁Biên	-13169
▁Lead	-13170
▁Mike	-13171
▁Step	-13172
▁giục	-13173
▁tung	-13174
▁ທົ່ງ	-13175
▁ມ້ວນ	-13176
▁ຫວອດ	-13177
▁ຫວານ	-13178
▁ເອັດ	-13179
entina	-13180
ຕາມການ	-13181
ຫຼືບໍ່	-13182
ເຫມືອນ	-13183
▁ຍິນດີ	-13184
▁ຖັດໄປ	-13185
▁ມາສູ່	-13186
▁ສົນໃຈ	-13187
▁ເພິ່ງ	-13188
▁ໂດຍມີ	-13189
ຈະລາຈອນ	-13190
ດັ່ງກ່າ	-13191
ຕົ້ນໄມ້	-13192
▁Jersey	-13193
▁Nguyen	-13194
▁Plugin	-13195
▁ຕົວເລກ	-13196
▁ບົດຮຽນ	-13197
▁ສິນຄ້າ	-13198
ological	-13199
▁100,000	-13200
▁ສະບາຍດີ	-13201
▁ໂມເລກຸນ	-13202
ການຕິດຕັ້ງ	-13203
ຂອງພຣະຄຣິດ	-13204
ຢ່າງຮຸນແຮງ	-13205
ເຂົ້າລະຫັດ	-13206
▁Francisco	-13207
▁ການປັບປຸງ	-13208
ທີ່ຈະໄດ້ຮັບ	-13209
▁Compressor	-13210
▁ເດືອນທັນວາ	-13211
ເພື່ອຮັບປະກັນ	-13212
ທາງດ້ານການເງິນ	-13213
ທີ່ທ່ານຕ້ອງການ	-13214
▁ການປ່ອຍສິນເຊື່ອ	-13215
AG	-13216
bi	-13217
ັລ	-13218
Mpa	-13219
OWN	-13220
ໂກ້	-13221
▁+1	-13222
▁-1	-13223
▁Bỉ	-13224
▁CY	-13225
▁LF	-13226
▁Ti	-13227
▁he	-13228
▁nụ	-13229
▁Ít	-13230
here	-13231
ovel	-13232
ຫຍ້າ	-13233
▁4.3	-13234
▁737	-13235
▁Cây	-13236
▁Her	-13237
▁Syn	-13238
▁Xám	-13239
▁ant	-13240
▁gìn	-13241
▁sốc	-13242
▁top	-13243
▁đấm	-13244
▁ມຸງ	-13245
▁ຣັດ	-13246
▁ແຈກ	-13247
ustry	-13248
ຕໍ່ປີ	-13249
ສົງໃສ	-13250
ເລເຊຍ	-13251
ໄຂມັນ	-13252
▁Biểu	-13253
▁Face	-13254
▁Shot	-13255
▁Taff	-13256
▁khao	-13257
▁khúc	-13258
▁long	-13259
▁đoạt	-13260
▁ພົ້ນ	-13261
▁ເຈາະ	-13262
ugated	-13263
ກໍ່ໄດ້	-13264
ຂອງຈີນ	-13265
ດອກໄມ້	-13266
ຕີລາຄາ	-13267
ເປື້ອນ	-13268
ໂອ້ລົມ	-13269
▁USMLE	-13270
▁quyến	-13271
▁under	-13272
ຂໍຂອບໃຈ	-13273
ຢ້ານກົວ	-13274
ເປັນຄົນ	-13275
▁Castle	-13276
▁Marvel	-13277
▁Queens	-13278
▁khoang	-13279
▁ບາງຄົນ	-13280
▁ໃນຊ່ວງ	-13281
ຍືດຫຍຸ່ນ	-13282
ທີ່ສຸດໃນ	-13283
▁Pickets	-13284
▁Taffeta	-13285
▁Trailer	-13286
▁ຕໍ່ຫນ້າ	-13287
▁ພັກຜ່ອນ	-13288
▁ລາວກ່າວ	-13289
umenstock	-13290
ໂດຍອີງໃສ່	-13291
▁American	-13292
▁Comments	-13293
▁favorite	-13294
▁ກໍາມະການ	-13295
▁ອັດສະຈັນ	-13296
ທີ່ເຮັດວຽກ	-13297
ເບິ່ງຄືວ່າ	-13298
▁Valentine	-13299
ສົ່ງເສີມການ	-13300
▁ຂະຫນາດນ້ອຍ	-13301
Dr	-13302
bu	-13303
ÂY	-13304
är	-13305
́c	-13306
▁Ê	-13307
▁່	-13308
.07	-13309
VID	-13310
bor	-13311
ief	-13312
oen	-13313
viv	-13314
zen	-13315
ດໍາ	-13316
ທືກ	-13317
▁84	-13318
▁DA	-13319
▁MX	-13320
▁Mẹ	-13321
▁RC	-13322
▁gõ	-13323
▁kn	-13324
▁mỡ	-13325
▁xổ	-13326
Time	-13327
mann	-13328
ຖ້ວນ	-13329
ຫວັນ	-13330
▁2,5	-13331
▁7.4	-13332
▁Bác	-13333
▁Enc	-13334
▁Hạt	-13335
▁JPG	-13336
▁Tam	-13337
▁end	-13338
▁gay	-13339
▁nảy	-13340
▁reg	-13341
▁rực	-13342
▁ຮຽກ	-13343
ludge	-13344
sheng	-13345
ປະລາດ	-13346
ພິສູດ	-13347
▁1050	-13348
▁Acid	-13349
▁Sign	-13350
▁Truy	-13351
▁cống	-13352
▁mill	-13353
▁nhịp	-13354
▁prof	-13355
▁wifi	-13356
▁ຫມຶກ	-13357
ກັນໄດ້	-13358
ຂຶ້ນໄປ	-13359
ຈອດລົດ	-13360
ດູດຊຶມ	-13361
ບົດຮຽນ	-13362
ອາວຸໂສ	-13363
▁Chips	-13364
▁Relay	-13365
▁Screw	-13366
▁Zhang	-13367
▁chừng	-13368
▁neuro	-13369
▁piano	-13370
olution	-13371
ວ່າຈະມີ	-13372
ຮູບຖ່າຍ	-13373
ເປີດຕົວ	-13374
▁Carton	-13375
▁khoảnh	-13376
ອັດຕາການ	-13377
ັບປຸງການ	-13378
ໂຮ່ຈີມິນ	-13379
▁Quality	-13380
▁ຂະນະທີ່	-13381
▁ຍຸຕິທໍາ	-13382
▁ທ່ານນາງ	-13383
ການສໍາພາດ	-13384
ຍັງບໍ່ທັນ	-13385
ສູງສຸດຂອງ	-13386
ອາສາສະຫມັກ	-13387
▁instagram	-13388
▁ສະຫນາມບິນ	-13389
▁Skateboard	-13390
ທີ່ກໍານົດໄວ້	-13391
'.	-13392
gu	-13393
hn	-13394
nb	-13395
̀u	-13396
.50	-13397
12)	-13398
jie	-13399
mmx	-13400
uxi	-13401
ກາວ	-13402
ຄືບ	-13403
ພັງ	-13404
ອິງ	-13405
ເດນ	-13406
ເລີ	-13407
▁Dh	-13408
▁HG	-13409
▁ON	-13410
▁eo	-13411
▁vả	-13412
▁ທຸ	-13413
▁ໂຢ	-13414
-800	-13415
ມ່ວງ	-13416
ີເມວ	-13417
ເກີ້	-13418
ເຂັມ	-13419
▁(3,	-13420
▁15%	-13421
▁186	-13422
▁Dệt	-13423
▁Giữ	-13424
▁Lớn	-13425
▁Pop	-13426
▁VPN	-13427
▁bốc	-13428
▁dội	-13429
▁kẹt	-13430
▁ລອຍ	-13431
▁ຮອຍ	-13432
▁ແຮ່	-13433
Haber	-13434
ກົນໄກ	-13435
ພິການ	-13436
ຫາຍໃຈ	-13437
ັດທົວ	-13438
▁(199	-13439
▁ANSI	-13440
▁Cass	-13441
▁chìa	-13442
▁chúa	-13443
▁cưng	-13444
▁ມະຕະ	-13445
▁ລ້ອມ	-13446
▁ຮົ້ວ	-13447
▁ໂຫຼດ	-13448
eroean	-13449
ຊິງຕັນ	-13450
ປະຫລາດ	-13451
ຜົນງານ	-13452
ພັນຄົນ	-13453
▁49.34	-13454
▁Beige	-13455
▁Girls	-13456
▁Sheng	-13457
▁Trimm	-13458
▁latte	-13459
▁viếng	-13460
ຈ່າຍຄ່າ	-13461
ຊີວະພາບ	-13462
ເຮັດການ	-13463
ໃນລະບົບ	-13464
▁0086-1	-13465
▁Taylor	-13466
▁Webcam	-13467
▁ຜູ້ຂຽນ	-13468
▁ສີນ້ໍາ	-13469
▁ຮຽນຮູ້	-13470
neumatic	-13471
ຊະນະເລີດ	-13472
ອອກແບບມາ	-13473
▁Venturi	-13474
▁ເດັກຍິງ	-13475
ການພົວພັນ	-13476
ການສອບສວນ	-13477
ແນະນໍາໃຫ້	-13478
ແລະຂະຫນາດ	-13479
▁ລະຫັດທົວ	-13480
ສັງເກດເຫັນ	-13481
ຫນ້າທໍາອິດ	-13482
ແລະປະຕິບັດ	-13483
▁Jailbreak	-13484
▁Marketing	-13485
▁butterfly	-13486
▁ຕົວຊີ້ວັດ	-13487
▁ໃຫ້ຮູ້ວ່າ	-13488
ດໍາລົງຊີວິດ	-13489
ສ່ວນຫນ້າຂອງ	-13490
▁ຂະຫນາດໃຫຍ່	-13491
ມີການປ່ຽນແປງ	-13492
ໃນການພັດທະນາ	-13493
ທຸກສິ່ງທຸກຢ່າງ	-13494
ແລະຄວາມຕ້ອງການ	-13495
57	-13496
MI	-13497
ວໍ	-13498
00,	-13499
UNG	-13500
aps	-13501
dam	-13502
red	-13503
tar	-13504
ຊັງ	-13505
ຖອຍ	-13506
ບີບ	-13507
ປອງ	-13508
ຫມາ	-13509
▁74	-13510
▁CẢ	-13511
▁CẬ	-13512
▁Lò	-13513
▁SC	-13514
▁XP	-13515
▁{_	-13516
2013	-13517
ahoo	-13518
ຊິໂກ	-13519
▁1/2	-13520
▁196	-13521
▁330	-13522
▁8.2	-13523
▁ABC	-13524
▁Cou	-13525
▁DMC	-13526
▁Nơi	-13527
▁Sav	-13528
▁Vua	-13529
▁ກົກ	-13530
▁ໂທຣ	-13531
1,000	-13532
ifier	-13533
ilton	-13534
itute	-13535
ການໂທ	-13536
ບັນຊາ	-13537
ອາຊຽນ	-13538
▁Gang	-13539
▁Sale	-13540
▁corr	-13541
▁dust	-13542
▁ເບີກ	-13543
▁ແຄ້ນ	-13544
compro	-13545
ionate	-13546
loride	-13547
ສະຖານະ	-13548
ອອກສຽງ	-13549
▁1.000	-13550
▁2013,	-13551
▁Peach	-13552
▁Shirt	-13553
▁Young	-13554
▁ຄືກັບ	-13555
▁ເຄັ່ງ	-13556
▁ເດັ່ນ	-13557
ັ້ງເດີມ	-13558
ເນື້ອຫາ	-13559
ແຄນນາດາ	-13560
▁pallet	-13561
▁ເມື່ອຍ	-13562
▁ແລະຜູ້	-13563
.06.2018	-13564
ການໂຈມຕີ	-13565
ພັນທະມິດ	-13566
ໂດຍບໍ່ມີ	-13567
ໃຫຍ່ຫຼວງ	-13568
▁Toronto	-13569
▁ນັກຂ່າວ	-13570
▁ບໍລິຈາກ	-13571
ການໂຄສະນາ	-13572
ວິທີແກ້ໄຂ	-13573
▁LinkedIn	-13574
▁Material	-13575
ແມ່ນມີຄວາມ	-13576
▁Separator	-13577
▁ອະລູມິນຽມ	-13578
▁Galvanized	-13579
▁hoverboard	-13580
▁ການປົກປ້ອງ	-13581
ສາມາດເຮັດໄດ້	-13582
03	-13583
Or	-13584
lp	-13585
ÀY	-13586
̀i	-13587
.16	-13588
165	-13589
Win	-13590
aic	-13591
ful	-13592
kor	-13593
png	-13594
spa	-13595
use	-13596
ດິບ	-13597
ປີນ	-13598
ປຸກ	-13599
ຫອມ	-13600
າກິ	-13601
ແຂກ	-13602
▁DW	-13603
▁Ft	-13604
▁Om	-13605
▁kỉ	-13606
▁lê	-13607
book	-13608
cted	-13609
mond	-13610
onia	-13611
unds	-13612
điểm	-13613
ຜູ້ນ	-13614
ລິຍະ	-13615
ແຫຼວ	-13616
▁(50	-13617
▁1-2	-13618
▁260	-13619
▁90%	-13620
▁Bet	-13621
▁GMT	-13622
▁Trở	-13623
▁Wen	-13624
▁cac	-13625
▁giơ	-13626
▁xót	-13627
▁ໄຕ່	-13628
ilter	-13629
inity	-13630
ສິກອນ	-13631
ຽວກັບ	-13632
▁1950	-13633
▁Mình	-13634
▁Tiên	-13635
▁Wang	-13636
▁giọt	-13637
▁đoan	-13638
▁ລ້າງ	-13639
▁ສະຫລ	-13640
ishing	-13641
ousine	-13642
ທີ່ສອງ	-13643
ທຽບໃສ່	-13644
ວັນສຸກ	-13645
ສະຫລຸບ	-13646
▁trúng	-13647
Unthank	-13648
draulic	-13649
ography	-13650
ຫຼັກຊັບ	-13651
▁Sensor	-13652
▁Sports	-13653
▁Teflon	-13654
▁Valley	-13655
▁khoáng	-13656
▁ຊີ້ຂາດ	-13657
ຕ່າງໆຂອງ	-13658
ຜົນຜະລິດ	-13659
ຝຣັ່ງເສດ	-13660
ມາດຕະການ	-13661
ຫັດສະຈັນ	-13662
ໄລຍະເວລາ	-13663
▁Beroean	-13664
▁Dresses	-13665
▁printer	-13666
▁protein	-13667
ການຊື້ຂາຍ	-13668
ການເຕີບໂຕ	-13669
▁........	-13670
▁86-574-8	-13671
ຫມັ້ນສັນຍາ	-13672
▁Diaphragm	-13673
▁ໃນປະຈຸບັນ	-13674
ການສົ່ງເສີມ	-13675
ຄຸນນະສົມບັດ	-13676
ທີ່ເກີດຂຶ້ນ	-13677
ສາມາດໃຊ້ໄດ້	-13678
▁ເດືອນກຸມພາ	-13679
▁DavidUnthank	-13680
▁ເດືອນພຶດສະພາ	-13681
▁ຂໍ້ມູນຈໍາເພາະ	-13682
LD	-13683
Se	-13684
UP	-13685
ỷu	-13686
’.	-13687
ITE	-13688
akh	-13689
kin	-13690
uba	-13691
ທູບ	-13692
ີ້ງ	-13693
ແດດ	-13694
ໂປຣ	-13695
ໄຂ້	-13696
▁KY	-13697
▁PT	-13698
▁bù	-13699
▁rổ	-13700
ibal	-13701
untu	-13702
ຫລານ	-13703
ຫຼຽນ	-13704
ເພີນ	-13705
▁(17	-13706
▁Chế	-13707
▁Guy	-13708
▁Haw	-13709
▁Kem	-13710
▁MOQ	-13711
▁Nat	-13712
▁Nok	-13713
▁Ton	-13714
▁Vim	-13715
-2019	-13716
odeon	-13717
ollow	-13718
ພະລັງ	-13719
ໃນຮອບ	-13720
▁Kính	-13721
▁giỏi	-13722
▁thắc	-13723
▁tips	-13724
▁ກູໂກ	-13725
▁ຄ່ອຍ	-13726
▁ບິດາ	-13727
▁ເບີດ	-13728
ສອບສວນ	-13729
ຽບຮ້ອຍ	-13730
ແບບນີ້	-13731
▁2004.	-13732
▁Colle	-13733
▁Ocean	-13734
▁ແຫລ່ງ	-13735
ຂັ້ນສູງ	-13736
ບາງຄັ້ງ	-13737
ວິທີທີ່	-13738
ໂຄງລ່າງ	-13739
▁Bungal	-13740
▁Friday	-13741
▁Marble	-13742
▁ສໍານຶກ	-13743
▁ເຄື່ອນ	-13744
▁ແຕ່ມັນ	-13745
ຂອງເຈົ້າ	-13746
ທາດເຫຼັກ	-13747
ຫນູນຊ່ວຍ	-13748
ຫ້ອງນ້ໍາ	-13749
▁Ukraina	-13750
▁ceramic	-13751
▁nghiêng	-13752
▁ດ້ວຍການ	-13753
▁ເຂົ້າມາ	-13754
▁ເປັນການ	-13755
wordpress	-13756
ແມ່ນເພື່ອ	-13757
▁ລົງທະບຽນ	-13758
ຄຸນະພາບສູງ	-13759
ວັດທະນາການ	-13760
ັ່ນສະເທືອນ	-13761
▁Nickelodeon	-13762
▁ຈໍານວນຕົວແບບ	-13763
08	-13764
RT	-13765
UK	-13766
ки	-13767
!!!	-13768
.04	-13769
.78	-13770
aks	-13771
oor	-13772
opy	-13773
ova	-13774
ຍຶດ	-13775
ນິດ	-13776
ເຄີ	-13777
ແຊງ	-13778
ແບນ	-13779
▁82	-13780
▁BE	-13781
▁CV	-13782
▁bể	-13783
▁Đà	-13784
▁ຜີ	-13785
anon	-13786
inth	-13787
ista	-13788
kins	-13789
vert	-13790
ື່ອຍ	-13791
▁5.0	-13792
▁518	-13793
▁Cáp	-13794
▁Căn	-13795
▁Hom	-13796
▁Nob	-13797
▁dji	-13798
▁lây	-13799
▁nấm	-13800
▁ຄວບ	-13801
▁ທໍ້	-13802
aceut	-13803
odiac	-13804
ຍິນດີ	-13805
ທະຍົມ	-13806
ວນັ້ນ	-13807
ສະວັດ	-13808
▁0.00	-13809
▁0.01	-13810
▁Bing	-13811
▁Bldg	-13812
▁Brit	-13813
▁Circ	-13814
▁Lang	-13815
▁Saga	-13816
▁tiễn	-13817
▁ຂວັນ	-13818
ກະທັ້ງ	-13819
ກໍາແພງ	-13820
ຊື່ສັດ	-13821
ີດເພີນ	-13822
ແບບຟອມ	-13823
▁JBoss	-13824
▁Suzuk	-13825
▁pizza	-13826
▁ຈະບໍ່	-13827
▁ເຊົ່າ	-13828
ilicate	-13829
ນານາຊາດ	-13830
ຜິວຫນັງ	-13831
ຫວັງວ່າ	-13832
ອາບນ້ໍາ	-13833
ເກົາຫລີ	-13834
▁Rabies	-13835
▁School	-13836
▁Sydney	-13837
▁triche	-13838
▁ອົດທົນ	-13839
ipitator	-13840
ຂອງຊີວິດ	-13841
▁ການສ້າງ	-13842
▁ດາວໂຫຼດ	-13843
▁ເປີເຊັນ	-13844
aceutical	-13845
ຕ້ອງສົງໄສ	-13846
ທີ່ຈະແຈ້ງ	-13847
ສະຫນອງໃຫ້	-13848
ປະທານປະເທດ	-13849
ສິດທິມະນຸດ	-13850
ໃຫ້ພວກເຂົາ	-13851
ໄດ້ຮັບຄວາມ	-13852
▁ຜູ້ຈັດການ	-13853
▁ເລືອກເອົາ	-13854
ມີຄວາມສາມາດ	-13855
▁generateur	-13856
ທີ່ທ່ານໄດ້ຮັບ	-13857
ເຫຼົ່ານີ້ແມ່ນ	-13858
Fr	-13859
MW	-13860
For	-13861
ICK	-13862
ely	-13863
jar	-13864
ທຽນ	-13865
ຝູງ	-13866
ຮັດ	-13867
໋ອງ	-13868
▁#>	-13869
▁Ra	-13870
▁xỉ	-13871
ging	-13872
ພາລະ	-13873
ສະຕິ	-13874
ຫລີກ	-13875
▁Ess	-13876
▁dec	-13877
▁dẹp	-13878
▁har	-13879
▁lấp	-13880
▁nến	-13881
▁pip	-13882
▁quỷ	-13883
▁táo	-13884
oress	-13885
▁1998	-13886
▁Band	-13887
▁Good	-13888
▁Maxi	-13889
▁Mạch	-13890
▁Penn	-13891
▁Tinh	-13892
▁ຮຸ່ງ	-13893
▁ເຄັດ	-13894
ailand	-13895
ential	-13896
ການາດາ	-13897
ພາກຮຽນ	-13898
ລົດຊາດ	-13899
ະລັດຖະ	-13900
ໃຫ້ຄໍາ	-13901
▁Alpha	-13902
▁Check	-13903
▁Haiti	-13904
▁Mahar	-13905
▁Sales	-13906
▁elect	-13907
ຂຸດຄົ້ນ	-13908
ອັບໂຫລດ	-13909
ໃກ້ຂ້ອຍ	-13910
▁Albert	-13911
▁Canton	-13912
▁Pallet	-13913
▁Switch	-13914
▁Thưởng	-13915
▁Ubuntu	-13916
▁ປະຫວັດ	-13917
▁ເຫຼົ້າ	-13918
ຕ່ໍາກວ່າ	-13919
ຖົງປະເພດ	-13920
ວກະສິກອນ	-13921
ເຂັ້ມງວດ	-13922
ເປັນຫຍັງ	-13923
▁Display	-13924
▁Sitemap	-13925
ຂອງຂໍ້ມູນ	-13926
ຄົນອັບເດດ	-13927
ແຈ້ງເຕືອນ	-13928
▁Hangzhou	-13929
▁ໄລຍະເວລາ	-13930
ຫ້ອງທົດລອງ	-13931
▁ການວິເຄາະ	-13932
▁Innovative	-13933
▁ຄຸນນະພາບສູງ	-13934
▁ງານວາງສະແດງ	-13935
ທີ່ເປັນປະໂຫຍດ	-13936
ເປັນທີ່ຮູ້ຈັກ	-13937
▁ຢ່າງໃດກໍ່ຕາມ	-13938
ສ້າງຕັ້ງຂຶ້ນໃນປີ	-13939
FD	-13940
fs	-13941
ັຟ	-13942
00€	-13943
Ray	-13944
apy	-13945
awa	-13946
nhà	-13947
ວິກ	-13948
▁$7	-13949
▁Bí	-13950
▁ZY	-13951
▁★★	-13952
-311	-13953
1200	-13954
Công	-13955
ould	-13956
ອ້າຍ	-13957
ື່ອມ	-13958
▁15:	-13959
▁720	-13960
▁Arg	-13961
▁Jim	-13962
▁Kon	-13963
▁Lap	-13964
▁Tal	-13965
▁Ten	-13966
▁nứt	-13967
▁vội	-13968
▁đòn	-13969
▁ດາຍ	-13970
▁ໂພດ	-13971
/2016	-13972
arket	-13973
ຊີມັງ	-13974
ນີ້ມີ	-13975
ລົງໃນ	-13976
▁1100	-13977
▁1994	-13978
▁CCNA	-13979
▁Eric	-13980
▁Stop	-13981
▁clip	-13982
▁dâng	-13983
▁dũng	-13984
▁nitơ	-13985
▁roll	-13986
▁ຈ້າງ	-13987
amping	-13988
valume	-13989
ຕ້ຫວັນ	-13990
ນອກຈາກ	-13991
ນິວຢອກ	-13992
▁Album	-13993
▁Robot	-13994
▁ອຸທິດ	-13995
anthate	-13996
ຕ້ານການ	-13997
ເງິນສົດ	-13998
▁Peters	-13999
▁Plasma	-14000
▁Review	-14001
▁Shovel	-14002
▁thoảng	-14003
▁ກັບຄືນ	-14004
▁ຊຸກຍູ້	-14005
perature	-14006
ຂອງເມືອງ	-14007
ຊື່ອີເມວ	-14008
ປະສານງານ	-14009
▁cheater	-14010
▁ຄວາມຖີ່	-14011
▁ຄວາມທຸກ	-14012
▁ປາຖະຫນາ	-14013
ເລິກເຊິ່ງ	-14014
▁Columbia	-14015
ການສົ່ງອອກ	-14016
▁resources	-14017
▁ເຄື່ອງປະດັບ	-14018
ທີ່ເຊື່ອຖືໄດ້	-14019
ວຽກເຮັດງານທໍາ	-14020
/6	-14021
ົສ	-14022
-36	-14023
202	-14024
gow	-14025
ius	-14026
mad	-14027
rit	-14028
vis	-14029
ຕັບ	-14030
ລຽນ	-14031
▁71	-14032
▁OK	-14033
▁Ok	-14034
▁ຖຸ	-14035
▁ເຣ	-14036
▁ໄຫ	-14037
hium	-14038
olin	-14039
oven	-14040
tính	-14041
unes	-14042
ຊ່ອຍ	-14043
▁(15	-14044
▁1.4	-14045
▁40%	-14046
▁Bak	-14047
▁Duy	-14048
▁HCL	-14049
▁Las	-14050
▁Mem	-14051
▁Moz	-14052
▁Ret	-14053
▁bôi	-14054
▁bội	-14055
▁ghé	-14056
▁rec	-14057
▁ste	-14058
▁đươ	-14059
▁ອານ	-14060
ellow	-14061
ນໍາມາ	-14062
ສະລິມ	-14063
ອກລວງ	-14064
ົາຍັງ	-14065
ເຄັ່ງ	-14066
▁Dược	-14067
▁Spin	-14068
▁feet	-14069
▁glut	-14070
▁nang	-14071
▁ngục	-14072
▁thấu	-14073
▁ລະຍະ	-14074
▁ເຫັງ	-14075
▁ແຫວງ	-14076
ກົນຈັກ	-14077
ຄາດການ	-14078
ມັນໄດ້	-14079
ລະນິທິ	-14080
ເພື່ອກ	-14081
▁Tower	-14082
▁Trade	-14083
▁nhàng	-14084
▁servo	-14085
ແມ່ນ້ໍາ	-14086
▁mobile	-14087
▁ກາງຄືນ	-14088
▁ສະຫມັກ	-14089
ທີ່ນິຍົມ	-14090
ອາທິດນີ້	-14091
▁machine	-14092
ຄວາມສະດວກ	-14093
ທະນາຍຄວາມ	-14094
ທີ່ກໍາລັງ	-14095
ມື້ວານນີ້	-14096
ແບບຈໍາລອງ	-14097
▁Supplier	-14098
▁ການເຄືອບ	-14099
▁ຫລາຍກວ່າ	-14100
ຈິນຕະນາການ	-14101
▁Machining	-14102
▁Tailoress	-14103
▁ແລະພວກເຂົາ	-14104
ຄວາມເຂັ້ມແຂງ	-14105
ຄວາມໄວ້ວາງໃຈ	-14106
ພິຈາລະນາຄະດີ	-14107
▁ສູງສຸດທີ່ເຄຍ	-14108
AB	-14109
Ad	-14110
GA	-14111
ບິ	-14112
ຣ໌	-14113
010	-14114
ALL	-14115
KGS	-14116
amo	-14117
edy	-14118
oli	-14119
pes	-14120
put	-14121
ກັກ	-14122
ນຸມ	-14123
ສາບ	-14124
▁#,	-14125
▁AL	-14126
▁Cố	-14127
▁rũ	-14128
▁ທໍ	-14129
▁ຮາ	-14130
etts	-14131
ills	-14132
ນິ້ວ	-14133
ລິຍາ	-14134
▁212	-14135
▁420	-14136
▁Dầu	-14137
▁Gun	-14138
▁IRB	-14139
▁Lần	-14140
▁Lập	-14141
▁NBR	-14142
▁Sud	-14143
▁TUV	-14144
▁Tuỳ	-14145
▁Tạp	-14146
▁bẩy	-14147
▁cúm	-14148
▁hòn	-14149
▁Đúc	-14150
Tháng	-14151
atory	-14152
chool	-14153
eater	-14154
falls	-14155
leece	-14156
olley	-14157
oston	-14158
ກໍ່ຈະ	-14159
ຕາມິນ	-14160
▁Giai	-14161
▁Vlad	-14162
▁dáng	-14163
▁logo	-14164
▁quái	-14165
▁trội	-14166
▁ຄະດີ	-14167
▁ຄ່ໍາ	-14168
▁ວິຊາ	-14169
ຂັບຂີ່	-14170
ແລະນັກ	-14171
▁2016.	-14172
▁37.64	-14173
▁Tường	-14174
▁ປະກົດ	-14175
▁ປະພຶດ	-14176
▁ຫຍຸ້ງ	-14177
2018-01	-14178
ຂອງຂວັນ	-14179
ອະນຸລັກ	-14180
ເຕົາອົບ	-14181
▁Khuyến	-14182
▁Munich	-14183
▁ຕົ້ນຕໍ	-14184
▁ປີແຫ່ງ	-14185
--------	-14186
▁Gratuit	-14187
▁Nigeria	-14188
▁Silicon	-14189
ນະຄອນຫຼວງ	-14190
ແລະຊຸມຊົນ	-14191
▁Longgang	-14192
▁ໂຮ່ຈີມິນ	-14193
▁ໃຊ້ລະຫັດ	-14194
ເຮັດໃຫ້ການ	-14195
▁Connector	-14196
▁ການຊື້ຂາຍ	-14197
▁Queensland	-14198
▁ການສົນທະນາ	-14199
ຄວາມຮັບຜິດຊອບ	-14200
ດໍາເນີນທຸລະກິດ	-14201
ແລະຫຼັງຈາກນັ້ນ	-14202
▁ອົງການຈັດຕັ້ງ	-14203
122	-14204
320	-14205
AME	-14206
Biz	-14207
SQL	-14208
rel	-14209
rol	-14210
yun	-14211
ກຸງ	-14212
ຕຽນ	-14213
ຣັສ	-14214
ລວດ	-14215
▁Cá	-14216
▁RI	-14217
▁SL	-14218
▁go	-14219
▁óc	-14220
.160	-14221
esis	-14222
ogen	-14223
ours	-14224
pers	-14225
plor	-14226
ຊິ້ນ	-14227
ຫລົກ	-14228
ໃນສະ	-14229
▁(4)	-14230
▁(51	-14231
▁102	-14232
▁4.6	-14233
▁630	-14234
▁Iow	-14235
▁Mir	-14236
▁Mức	-14237
▁Sen	-14238
▁Sin	-14239
▁bug	-14240
▁dẻo	-14241
▁nâu	-14242
▁phà	-14243
▁đan	-14244
▁ລອນ	-14245
▁ແລນ	-14246
▁ໂອ້	-14247
Jilin	-14248
acker	-14249
epher	-14250
ຄາບອນ	-14251
ຊຸມປີ	-14252
ອຸທອນ	-14253
ເຕົ້າ	-14254
▁Demo	-14255
▁Patt	-14256
▁extr	-14257
▁ຫນີ້	-14258
▁ອຸ່ນ	-14259
▁ເສລີ	-14260
▁ແນັດ	-14261
ຕາຂ່າຍ	-14262
ຕົ້ນປີ	-14263
ຫລືບໍ່	-14264
້ຽວບິນ	-14265
▁.....	-14266
▁2007.	-14267
▁2010)	-14268
▁2011,	-14269
▁Maria	-14270
▁Putin	-14271
▁Tuyết	-14272
▁Villa	-14273
▁bonus	-14274
▁lưỡng	-14275
▁ngưng	-14276
▁thuẫn	-14277
▁ຈາລຶກ	-14278
▁ຍັງມີ	-14279
▁ປອດໄພ	-14280
▁ສີຟ້າ	-14281
ປຸງແຕ່ງ	-14282
ພີ່ນ້ອງ	-14283
ເປັນນັກ	-14284
▁Dragon	-14285
▁Huawei	-14286
▁Window	-14287
▁anhững	-14288
▁ກະເປົາ	-14289
ຍາກທີ່ຈະ	-14290
ບັນລຸໄດ້	-14291
ການສືບສວນ	-14292
ເນັ້ນຫນັກ	-14293
ເປັນຕົວແທນ	-14294
ເປັນເລື່ອງ	-14295
▁ເທົ່ານັ້ນ	-14296
ຄວາມສໍາເລັດ	-14297
▁ການແກ້ໄຂໃນ	-14298
ຜູ້ເປັນເຈົ້າ	-14299
ເກັບກໍາຂໍ້ມູນ	-14300
▁ການເກັບຮັກສາ	-14301
ບັນດາວິສາຫະກິດ	-14302
3%	-14303
IB	-14304
MN	-14305
QC	-14306
SH	-14307
Si	-14308
ja	-14309
ICE	-14310
Our	-14311
ges	-14312
isk	-14313
ຈົກ	-14314
ຕ້າ	-14315
ມອງ	-14316
ຫິນ	-14317
▁$1	-14318
▁<#	-14319
▁Ca	-14320
▁Dữ	-14321
▁Ut	-14322
▁ag	-14323
1400	-14324
7574	-14325
84.2	-14326
cess	-14327
hong	-14328
ມຸ້ງ	-14329
▁Dut	-14330
▁Hỏi	-14331
▁Ill	-14332
▁Ins	-14333
▁Jar	-14334
▁Rij	-14335
▁VCI	-14336
▁bưu	-14337
▁cấy	-14338
▁cụm	-14339
▁dop	-14340
▁gan	-14341
▁gel	-14342
▁org	-14343
▁rad	-14344
▁sal	-14345
▁vất	-14346
▁ຄັບ	-14347
▁ຖອນ	-14348
▁ເທີ	-14349
ample	-14350
ealth	-14351
eware	-14352
inski	-14353
ຫນ້ານ	-14354
ໃຈກາງ	-14355
▁Ferr	-14356
▁Food	-14357
▁Glas	-14358
▁Hung	-14359
▁Kies	-14360
▁Lady	-14361
▁Make	-14362
▁Plug	-14363
▁ROHS	-14364
▁Ride	-14365
▁Vene	-14366
▁canh	-14367
▁hoài	-14368
▁ngạo	-14369
▁quát	-14370
▁vịnh	-14371
▁ຖ້ວນ	-14372
▁ແຍ້ງ	-14373
alafil	-14374
bourne	-14375
ຂອງຊາວ	-14376
ລົບກວນ	-14377
ສັງຫານ	-14378
ໂດຍຜູ້	-14379
ໃນທົ່ວ	-14380
ໄຟໄຫມ້	-14381
▁2020.	-14382
▁Filed	-14383
▁Patch	-14384
▁cưỡng	-14385
▁slots	-14386
▁ໃນເຂດ	-14387
ຕາຫນ່າງ	-14388
▁Prepar	-14389
▁Sodium	-14390
▁ທົນທານ	-14391
▁ສາຍແອວ	-14392
.08.2018	-14393
ສັນຍາລັກ	-14394
▁Clinton	-14395
▁Collect	-14396
ກ່າວຫາວ່າ	-14397
ແບບຍືນຍົງ	-14398
▁Industry	-14399
▁ການສັກຢາ	-14400
▁ຫຼາຍກວ່າ	-14401
▁ເຂົ້າຈີ່	-14402
ພວກເຮົາຍັງ	-14403
ສະມາຊິກຂອງ	-14404
▁Pneumatic	-14405
ຂອງຮູບພາບຫາ	-14406
ເປັນເອກະລັກ	-14407
▁corrugated	-14408
ອອກກໍາລັງກາຍ	-14409
▁Blumenstock	-14410
▁ຂະຫນາດບັນຈຸ	-14411
▁ລະຍະຫ່າງຈາກ	-14412
▁ເປັນຜູ້ຜະລິດ	-14413
ເຖິງຜົມສ່ວນບົນ	-14414
▁ຄວາມສູງຂອງຫົວ	-14415
▁ສະຫະລັດອາເມລິກາ	-14416
AH	-14417
MB	-14418
NO	-14419
ny	-14420
uz	-14421
ế	-14422
ằn	-14423
-2,	-14424
.24	-14425
ASE	-14426
abl	-14427
gon	-14428
̀ng	-14429
ຄະລ	-14430
ຈັງ	-14431
ແຈງ	-14432
ແມງ	-14433
▁4-	-14434
▁Kg	-14435
amed	-14436
ຊະນີ	-14437
ມື້ນ	-14438
ຫຼັບ	-14439
ເກັດ	-14440
ເດີ້	-14441
ໃຫ່ຍ	-14442
▁(14	-14443
▁0.4	-14444
▁AWS	-14445
▁Cur	-14446
▁FRP	-14447
▁Flo	-14448
▁Lựa	-14449
▁Lực	-14450
▁Vai	-14451
▁gai	-14452
▁sét	-14453
▁ກູ້	-14454
inson	-14455
ຄໍາພີ	-14456
ບຸລຸດ	-14457
ມາເນຍ	-14458
▁CANN	-14459
▁Khác	-14460
▁Lake	-14461
▁Viết	-14462
▁cake	-14463
▁chùm	-14464
▁have	-14465
▁ກາເຟ	-14466
▁ຄື້ນ	-14467
▁ຊ້ໍາ	-14468
▁ເຄາະ	-14469
edding	-14470
ລົດຖີບ	-14471
ສື່ສານ	-14472
ໃນກຸ່ມ	-14473
▁COVID	-14474
▁Magic	-14475
▁Phiếu	-14476
▁TTXVN	-14477
▁Yahoo	-14478
▁khuỷu	-14479
▁ປຶກສາ	-14480
▁ໂຄມໄຟ	-14481
ຄວາມຜິດ	-14482
ທ່ານເອງ	-14483
ມໍລະດົກ	-14484
▁August	-14485
▁Coffee	-14486
▁Resort	-14487
▁Suzuki	-14488
▁invent	-14489
▁ວຽກງານ	-14490
▁ເຫລົ້າ	-14491
▁ແຕ່ຍັງ	-14492
ຄະນິດສາດ	-14493
ຫຼາຍຂຶ້ນ	-14494
▁3.2.160	-14495
▁Bonuses	-14496
▁ທ່າມກາງ	-14497
▁ອາຟຣິກາ	-14498
▁ໃນບັນດາ	-14499
ຍານພາຫະນະ	-14500
ພ້ອມທີ່ຈະ	-14501
ຫນ້ອຍກວ່າ	-14502
▁ກ້າວຫນ້າ	-14503
ຂອງຮ່າງກາຍ	-14504
ຄວາມສໍາພັນ	-14505
▁Institute	-14506
▁ການສື່ສານ	-14507
ການສ້າງຕັ້ງ	-14508
ຄວາມແຕກຕ່າງ	-14509
ມີຄວາມສົນໃຈ	-14510
▁ມັນບໍ່ແມ່ນ	-14511
ແລະຕ່າງປະເທດ	-14512
▁ທີ່ຢູ່ເວັບໄຊທ໌	-14513
":	-14514
GI	-14515
IU	-14516
PY	-14517
Wh	-14518
hu	-14519
ຍີ	-14520
33)	-14521
ERY	-14522
ben	-14523
ese	-14524
you	-14525
ຄິວ	-14526
ບົກ	-14527
▁5)	-14528
▁BC	-14529
▁CZ	-14530
▁SO	-14531
▁Vô	-14532
▁if	-14533
▁my	-14534
/300	-14535
Blog	-14536
comm	-14537
days	-14538
odel	-14539
rich	-14540
sych	-14541
ຫລໍ່	-14542
ເຊີດ	-14543
ເດົາ	-14544
ເນົາ	-14545
ເອັບ	-14546
ແຍ້ງ	-14547
▁+/-	-14548
▁91-	-14549
▁GSM	-14550
▁QTY	-14551
▁Sle	-14552
▁hel	-14553
▁our	-14554
▁Đổi	-14555
▁ປອບ	-14556
▁ໂກງ	-14557
/2015	-14558
inois	-14559
ombie	-14560
ongee	-14561
otion	-14562
ປະສາດ	-14563
ສະຈາກ	-14564
▁Arab	-14565
▁Guan	-14566
▁HTML	-14567
▁Harv	-14568
▁Inch	-14569
▁Liệu	-14570
▁Ping	-14571
▁Snow	-14572
▁bass	-14573
▁ghét	-14574
▁nắng	-14575
▁trật	-14576
▁ຢັ້ງ	-14577
▁ສະຕີ	-14578
▁ໄຫມ້	-14579
icator	-14580
online	-14581
ບັນທືກ	-14582
ລູກຊາຍ	-14583
▁Great	-14584
▁Hacks	-14585
▁Sarah	-14586
▁ພິນາດ	-14587
▁ລະອຽດ	-14588
▁ສາເຫດ	-14589
▁ແນວໃດ	-14590
ategory	-14591
ຂົ່ມຂູ່	-14592
ລົ້ມເຫຼ	-14593
ຄົນຫນື່ງ	-14594
ທີ່ປອດໄພ	-14595
ທົດສະວັດ	-14596
▁Vintage	-14597
▁ເຮືອບິນ	-14598
ຄະນະກໍາມະ	-14599
ຄ່າທໍານຽມ	-14600
ທີ່ສຸດຂອງ	-14601
ຜັນຂະຫຍາຍ	-14602
▁Assembly	-14603
ປະທານອາຫານ	-14604
ເວລາດົນນານ	-14605
ໂດຍຜ່ານການ	-14606
ງານວາງສະແດງ	-14607
ບໍ່ດົນມານີ້	-14608
ປີທີ່ຜ່ານມາ	-14609
ວ່າເປັນຫຍັງ	-14610
▁Electronic	-14611
ເຮັດໃຫ້ມີແສງ	-14612
▁ດໍາລົງຊີວິດ	-14613
▁ສາດສະຫນາຈັກ	-14614
▁ຂ້າພະເຈົ້າຈະ	-14615
▁ຄ່າໃຊ້ຈ່າຍທັງ	-14616
▁ເຄື່ອງນຸ່ງຫົ່ມ	-14617
8.	-14618
=0	-14619
KE	-14620
oa	-14621
140	-14622
232	-14623
ENT	-14624
GHT	-14625
aut	-14626
aux	-14627
iế	-14628
mas	-14629
ຈອກ	-14630
ຟິນ	-14631
ຣິສ	-14632
ຫິດ	-14633
ຮາດ	-14634
▁Bồ	-14635
▁py	-14636
▁xá	-14637
▁ĐI	-14638
▁Đô	-14639
-150	-14640
arus	-14641
ebob	-14642
lace	-14643
oman	-14644
uran	-14645
ຄະຕິ	-14646
ຍື່ນ	-14647
ຖິ້ມ	-14648
▁218	-14649
▁480	-14650
▁ATM	-14651
▁Cha	-14652
▁Chữ	-14653
▁Cát	-14654
▁HKD	-14655
▁Ron	-14656
▁Tôn	-14657
▁lụa	-14658
▁ຕຽງ	-14659
▁ບໍາ	-14660
ຂໍ້ຫາ	-14661
ທີ່ມາ	-14662
ພູມໃຈ	-14663
ພົບປະ	-14664
ເຖົ່າ	-14665
ໃນມື້	-14666
▁8000	-14667
▁Ming	-14668
▁Walk	-14669
▁Weld	-14670
▁chổi	-14671
▁kiêu	-14672
atform	-14673
itamin	-14674
ຂອງຕົວ	-14675
ຊົງຈໍາ	-14676
ຜົວເມຍ	-14677
ວ່ານັກ	-14678
ຫ່າງໄກ	-14679
ະໂຍບາຍ	-14680
ແລະມັນ	-14681
▁Coins	-14682
▁Crush	-14683
▁Roger	-14684
▁Sound	-14685
▁Start	-14686
▁Triều	-14687
▁Tuyên	-14688
▁Xiang	-14689
▁ຈິດໃຈ	-14690
▁ບັນພະ	-14691
ປະຕິຮູບ	-14692
▁ComPro	-14693
▁corros	-14694
▁nhượng	-14695
▁ທີ່ພັກ	-14696
ທີ່ມາຈາກ	-14697
ສະເຫມີໄປ	-14698
ເພື່ອການ	-14699
ໂອລິມປິກ	-14700
▁2.6.4.1	-14701
▁Desktop	-14702
▁flicker	-14703
▁ຫຼັກສູດ	-14704
▁ອະທິການ	-14705
ifunction	-14706
ຫຼີກເວັ້ນ	-14707
▁ຊຶ່ງເປັນ	-14708
▁ທາງເລືອກ	-14709
▁ເກີດຂຶ້ນ	-14710
ປົກຫຸ້ມຂອງ	-14711
ຢ່າງແທ້ຈິງ	-14712
ສິ່ງທ້າທາຍ	-14713
▁Argentina	-14714
▁ລະດັບຄວາມ	-14715
ໄດ້ຮັບຂໍ້ມູນ	-14716
▁ເດືອນກໍລະກົດ	-14717
ມີຄວາມຫຍຸ້ງຍາກ	-14718
ສິ່ງທີ່ພວກເຮົາ	-14719
CT	-14720
UL	-14721
Up	-14722
mq	-14723
pg	-14724
ຝາ	-14725
ຫູ	-14726
ອໍ	-14727
——	-14728
20)	-14729
exe	-14730
ude	-14731
xml	-14732
ທົວ	-14733
ມືອ	-14734
ລອກ	-14735
ໂຟນ	-14736
▁Cà	-14737
▁KO	-14738
▁Nữ	-14739
▁lí	-14740
▁vk	-14741
-500	-14742
.1.1	-14743
:51%	-14744
boss	-14745
fect	-14746
test	-14747
thew	-14748
ຊ້າງ	-14749
▁-40	-14750
▁2.3	-14751
▁22:	-14752
▁Apg	-14753
▁Bìa	-14754
▁III	-14755
▁McG	-14756
▁Sat	-14757
▁Tần	-14758
▁Viv	-14759
▁YJD	-14760
▁air	-14761
▁cóc	-14762
▁ins	-14763
▁keo	-14764
▁pan	-14765
▁đúp	-14766
▁ຄາມ	-14767
▁ຄົດ	-14768
▁ສີດ	-14769
ORDER	-14770
ittle	-14771
ບໄຊທ໌	-14772
▁100,	-14773
▁Body	-14774
▁Cams	-14775
▁Gard	-14776
▁Hiển	-14777
▁Josh	-14778
▁Suit	-14779
▁Thậm	-14780
▁chốt	-14781
▁gold	-14782
▁hiếp	-14783
▁hước	-14784
▁rồng	-14785
Online	-14786
Pieces	-14787
abolic	-14788
evelop	-14789
iverse	-14790
ຍິນຍອມ	-14791
ໄດ້ວ່າ	-14792
▁2009.	-14793
▁Nokia	-14794
▁Queen	-14795
▁ກະດູກ	-14796
▁ລໍຖ້າ	-14797
ຊ່ວຍເຫຼ	-14798
ພຣະເຢຊູ	-14799
ມູນນິທິ	-14800
▁BORDER	-14801
▁Boston	-14802
▁McCain	-14803
▁khuynh	-14804
▁trương	-14805
▁ກັບການ	-14806
inthians	-14807
rostatic	-14808
ເທົ່າທຽມ	-14809
ແບບພິເສດ	-14810
▁Channel	-14811
▁altcoin	-14812
▁crusher	-14813
▁ຂາຍສົ່ງ	-14814
▁ອານາຈັກ	-14815
osilicate	-14816
ທີ່ຮຸນແຮງ	-14817
▁Detector	-14818
▁Magnetic	-14819
▁RayHaber	-14820
▁Whatsapp	-14821
▁ທ້ອງຖິ່ນ	-14822
▁ພ້ອມດ້ວຍ	-14823
▁ເຂັ້ມແຂງ	-14824
ຂອງທ່ານເອງ	-14825
ພື້ນຖານຂອງ	-14826
▁ທະນາຍຄວາມ	-14827
▁ລະຫັດຜ່ານ	-14828
▁ອາດຈະເປັນ	-14829
▁ປະທານປະເທດ	-14830
▁ເຄື່ອງຫມາຍ	-14831
▁ເຕັກໂນໂລຢີ	-14832
ປ້ອງກັນປະເທດ	-14833
▁Corinthians	-14834
▁ກ່ອນຫນ້ານີ້	-14835
▁ເຊັ່ນດຽວກັນ	-14836
ແລະເຕັກໂນໂລຊີ	-14837
/9	-14838
PM	-14839
ga	-14840
iq	-14841
sw	-14842
ຸຍ	-14843
ẾT	-14844
▁”	-14845
,5%	-14846
-1,	-14847
25,	-14848
414	-14849
606	-14850
Bro	-14851
IAN	-14852
aka	-14853
ງຽບ	-14854
ຊ້ມ	-14855
ຣີ່	-14856
ສອກ	-14857
ົານ	-14858
ແກມ	-14859
▁IB	-14860
▁IV	-14861
▁MK	-14862
apor	-14863
eler	-14864
iện	-14865
uela	-14866
ໄມໂຄ	-14867
▁Bru	-14868
▁Hủy	-14869
▁Jai	-14870
▁NEW	-14871
▁NGH	-14872
▁Rio	-14873
▁Sus	-14874
▁Tok	-14875
▁UPS	-14876
▁Wei	-14877
▁mix	-14878
▁mốc	-14879
▁san	-14880
▁ຍູ້	-14881
▁ບູນ	-14882
▁ໂມນ	-14883
-1000	-14884
Quick	-14885
elfie	-14886
istic	-14887
▁Club	-14888
▁Iowa	-14889
▁Jeff	-14890
▁Khám	-14891
▁Nhập	-14892
▁Nâng	-14893
▁Rice	-14894
▁Sant	-14895
▁Side	-14896
▁chèn	-14897
▁giáp	-14898
▁lánh	-14899
▁lùng	-14900
▁vạch	-14901
▁ລ່ຽງ	-14902
▁ເຍຊູ	-14903
ກັນກັບ	-14904
ບອກວ່າ	-14905
ສາຍແອວ	-14906
ຫລັງຄາ	-14907
ໄດ້ປຽບ	-14908
▁Penny	-14909
▁Vimeo	-14910
▁ester	-14911
▁ມໍເຕີ	-14912
chester	-14913
tattoos	-14914
ນາທິການ	-14915
ມະຫາຊົນ	-14916
ຫຸ່ນຍົນ	-14917
ອົບອຸ່ນ	-14918
▁khuếch	-14919
essional	-14920
ການປະຊຸມ	-14921
ລົ້ມເຫຼວ	-14922
ສະແດງອອກ	-14923
▁Pacific	-14924
▁youjian	-14925
▁ພັນລ້ານ	-14926
▁ສິ່ງນີ້	-14927
ຂະແຫນງການ	-14928
ງ່າຍທີ່ຈະ	-14929
ທີ່ສົມບູນ	-14930
ລັກສະນະຂອງ	-14931
ສິ້ນສຸດລົງ	-14932
▁Countdown	-14933
▁Litbright	-14934
▁ຂໍ້ມູນເກມ	-14935
ສາມາດໄດ້ຮັບ	-14936
ຫນ້າເຊື່ອຖື	-14937
▁ເພາະສະນັ້ນ	-14938
▁Corporation	-14939
▁ນັກວິທະຍາສາດ	-14940
ຂອງການຄົ້ນຄວ້າ	-14941
ບໍ່ຈໍາເປັນຕ້ອງ	-14942
▁ແລະຂ້າພະເຈົ້າ	-14943
AV	-14944
PL	-14945
ÁY	-14946
-55	-14947
.22	-14948
302	-14949
701	-14950
Hub	-14951
SON	-14952
omo	-14953
ret	-14954
tra	-14955
uda	-14956
ຈົມ	-14957
ຫມູ	-14958
າກະ	-14959
ເກງ	-14960
ເຈດ	-14961
ເວຍ	-14962
ໂອບ	-14963
▁BV	-14964
▁Dĩ	-14965
▁VM	-14966
▁ບີ	-14967
▁ຟໍ	-14968
702.	-14969
Tech	-14970
chim	-14971
ears	-14972
etic	-14973
ຄື້ນ	-14974
ຕຸ້ງ	-14975
ຫ່ວງ	-14976
ອັນຕ	-14977
ອາຍາ	-14978
ີເຈີ	-14979
ເພີງ	-14980
ແຫວນ	-14981
່າວກ	-14982
▁139	-14983
▁DNA	-14984
▁GTA	-14985
▁Hex	-14986
▁Mời	-14987
▁PNG	-14988
▁SEC	-14989
▁Trị	-14990
▁bám	-14991
▁bón	-14992
▁hưu	-14993
▁ind	-14994
▁làn	-14995
▁lợn	-14996
▁mat	-14997
▁mọc	-14998
▁phe	-14999
▁ບວກ	-15000
▁ປວງ	-15001
▁ຟລີ	-15002
▁ແມ້	-15003
12345	-15004
email	-15005
ທີ່ສະ	-15006
ສະຫລະ	-15007
▁2030	-15008
▁Fold	-15009
▁Lòng	-15010
▁bead	-15011
▁bách	-15012
▁chôn	-15013
▁soft	-15014
▁tele	-15015
▁ເບົາ	-15016
ປະເພນີ	-15017
ປານກາງ	-15018
ເຊີແລນ	-15019
ໂດຍລວມ	-15020
▁Clark	-15021
▁Neuro	-15022
▁Views	-15023
▁sướng	-15024
▁thỉnh	-15025
▁ໂມດູນ	-15026
ນໍາໃຊ້ອ	-15027
ເຕືອນໄພ	-15028
▁Hadoop	-15029
▁Pieces	-15030
▁Pongee	-15031
▁hentai	-15032
▁ສົມລົດ	-15033
▁ເສຍຫາຍ	-15034
ແຕ່ວັນທີ	-15035
▁Resorts	-15036
▁peptide	-15037
▁ປ່ຽນແປງ	-15038
▁ຮູບຮ່າງ	-15039
▁ໃຊ້ເວລາ	-15040
ການກວດສອບ	-15041
ຂອງອິນເດຍ	-15042
ຄວາມໄວສູງ	-15043
ຄ້າຍຄືກັບ	-15044
ຕໍ່ສູ້ກັບ	-15045
ວຸດທິສະພາ	-15046
▁Michigan	-15047
▁tutorial	-15048
▁ການພະນັນ	-15049
▁ບ່ອນນັ່ງ	-15050
▁ເສື້ອຜ້າ	-15051
ຜູ້ບໍລິໂພກ	-15052
ເຕັມໄປດ້ວຍ	-15053
▁Melbourne	-15054
▁ຊື່ຍີ່ຫໍ້	-15055
▁ຢ່າງຫນ້ອຍ	-15056
ແບ່ງອອກເປັນ	-15057
▁Tianeptine	-15058
▁3.2.16084.2	-15059
ເຮັດຄວາມສະອາດ	-15060
ທາງດ້ານຮ່າງກາຍ	-15061
▁ໂດຍສະເພາະແມ່ນ	-15062
ທາງດ້ານການເມືອງ	-15063
▁ນາຍົກລັດຖະມົນຕີ	-15064
BF	-15065
NC	-15066
ືງ	-15067
(11	-15068
-45	-15069
/05	-15070
170	-15071
219	-15072
330	-15073
:05	-15074
các	-15075
och	-15076
ຄະນ	-15077
▁#2	-15078
▁81	-15079
▁Eg	-15080
74-8	-15081
opro	-15082
ring	-15083
ດ່ຽວ	-15084
ພົ້ນ	-15085
ລັ່ງ	-15086
▁$50	-15087
▁145	-15088
▁155	-15089
▁8.1	-15090
▁8.9	-15091
▁CẬY	-15092
▁Dou	-15093
▁bóc	-15094
▁dồi	-15095
▁lit	-15096
▁mel	-15097
▁new	-15098
▁nhi	-15099
▁syn	-15100
▁tab	-15101
▁tem	-15102
▁đắn	-15103
▁ມ້າ	-15104
achus	-15105
izera	-15106
riend	-15107
ກໍ່ຄື	-15108
ຂໍໃຫ້	-15109
ວິກິດ	-15110
ສົດໃສ	-15111
▁Lồng	-15112
▁Name	-15113
▁Taxi	-15114
▁Ther	-15115
▁Thủy	-15116
▁Tiết	-15117
▁film	-15118
▁menu	-15119
▁phay	-15120
▁trùm	-15121
ກູ້ຢືມ	-15122
ຈະເຮັດ	-15123
ຕ້ອງມີ	-15124
▁2,000	-15125
▁Chris	-15126
▁Kenya	-15127
▁Khark	-15128
▁Voice	-15129
▁ເຊືອກ	-15130
ຂົ່ມຂືນ	-15131
ຢາງພາລາ	-15132
ຫັນປ່ຽນ	-15133
ອັນຕລາຍ	-15134
ອາຟຣິກາ	-15135
▁Advent	-15136
▁Howard	-15137
▁League	-15138
▁Travel	-15139
▁Vladim	-15140
▁ຕົກລົງ	-15141
▁ທາງວິນ	-15142
▁ອະໄຫລ່	-15143
▁ເຮົາຈະ	-15144
▁ໂຮງຫມໍ	-15145
ethylene	-15146
ຂີ້ເຖົ່າ	-15147
ຄວາມເຢັນ	-15148
ຄໍາເວົ້າ	-15149
ຈອນເຕັ້ນ	-15150
ເມື່ອວັນ	-15151
▁Charles	-15152
▁ການເກັບ	-15153
▁ບັນເທີງ	-15154
ທໍາອິດທີ່	-15155
ວິສະວະກອນ	-15156
▁Building	-15157
▁ປ່ອງຢ້ຽມ	-15158
▁ໃນທີ່ສຸດ	-15159
ຄິດກ່ຽວກັບ	-15160
ເຊົ້າວັນທີ	-15161
▁Bungalows	-15162
▁Extrusion	-15163
▁ການຂະຫຍາຍ	-15164
▁ການຈັດການ	-15165
▁ບໍ່ພຽງແຕ່	-15166
▁ເພີ່ມທະວີ	-15167
ການທ່ອງທ່ຽວ	-15168
ຮູບພາບໄປສູ່	-15169
ແລະການຜະລິດ	-15170
ແຫຼ່ງຂໍ້ມູນ	-15171
▁ການບໍລິຫານ	-15172
ຍິນດີຕ້ອນຮັບ	-15173
ເວົ້າກ່ຽວກັບ	-15174
ເຫມາະສົມສໍາລັບ	-15175
Bl	-15176
TV	-15177
ÂU	-15178
ậ	-15179
▁q	-15180
234	-15181
buy	-15182
cal	-15183
iev	-15184
mir	-15185
uge	-15186
ຄຽດ	-15187
ແຊມ	-15188
ແຖບ	-15189
ໂສກ	-15190
▁(9	-15191
▁SF	-15192
▁ev	-15193
▁fo	-15194
▁ສື	-15195
agle	-15196
ersh	-15197
ປັ່ນ	-15198
▁11.	-15199
▁Arc	-15200
▁CCC	-15201
▁CMC	-15202
▁Chó	-15203
▁Cru	-15204
▁ETC	-15205
▁Lâm	-15206
▁MIU	-15207
▁Raw	-15208
▁Reb	-15209
▁SAR	-15210
▁ang	-15211
▁det	-15212
▁hem	-15213
▁hỡi	-15214
▁lim	-15215
▁mil	-15216
▁trễ	-15217
▁đồn	-15218
▁ຈານ	-15219
▁ຖັງ	-15220
▁ທຽມ	-15221
▁ລາມ	-15222
ganik	-15223
reamc	-15224
zuela	-15225
ຖະແຫລ	-15226
ສະຕິງ	-15227
ໃບໄມ້	-15228
▁Disk	-15229
▁Duct	-15230
▁Gray	-15231
▁Jess	-15232
▁MCSA	-15233
▁Note	-15234
▁Phản	-15235
▁Rain	-15236
▁TGGT	-15237
▁Tank	-15238
▁Tiểu	-15239
▁Tony	-15240
▁Wuxi	-15241
▁data	-15242
▁găng	-15243
▁tưới	-15244
▁ພະຍຸ	-15245
▁ເຊັບ	-15246
▁★★★★	-15247
loader	-15248
ດຽວກັບ	-15249
ທີ່ອາດ	-15250
ຮັບການ	-15251
ໂປ່ງໃສ	-15252
▁11.23	-15253
▁Manag	-15254
▁after	-15255
▁ປະສົງ	-15256
▁ອິດສະ	-15257
▁ແຫນ່ງ	-15258
ຄວາມລັບ	-15259
ຜ່ານແດນ	-15260
ວິໄສທັດ	-15261
ເກີດເຫດ	-15262
ເງິນຂອງ	-15263
ເຊື້ອໄຟ	-15264
▁Safety	-15265
▁ຕົນເອງ	-15266
▁ທີ່ສຸດ	-15267
▁ທ່ານມີ	-15268
▁ປະເຊີນ	-15269
enbolone	-15270
ກຕ່າງຫາກ	-15271
ບ່ອນນັ່ງ	-15272
ເຖິງຄວາມ	-15273
ໂລກລະບາດ	-15274
▁College	-15275
▁Edition	-15276
▁Textile	-15277
▁ມື້ຄ່ໍາ	-15278
▁ລັງເຮັດ	-15279
▁ລາຄາຂອງ	-15280
ສະເຫນີໃຫ້	-15281
ສ່ວນຫນຶ່ງ	-15282
ອະລູມິນຽມ	-15283
▁Landmark	-15284
ຕົວທ່ານເອງ	-15285
ເຫລົ່ານັ້ນ	-15286
▁Hydraulic	-15287
▁ການຮ່ວມມື	-15288
▁ເຊິ່ງແມ່ນ	-15289
▁ການບໍລິໂພກ	-15290
ຕໍ່ໄປຂອງທ່ານ	-15291
09	-15292
sự	-15293
ຕົ	-15294
໊ດ	-15295
.09	-15296
307	-15297
:08	-15298
="0	-15299
ECO	-15300
ahn	-15301
như	-15302
ori	-15303
ຊິວ	-15304
▁$5	-15305
▁Pc	-15306
▁pu	-15307
▁ຕໍ	-15308
.500	-15309
2016	-15310
6789	-15311
XBET	-15312
avan	-15313
chen	-15314
enyl	-15315
iper	-15316
room	-15317
ກ້າມ	-15318
ຄ້າງ	-15319
ຫມຸນ	-15320
ຮຸ່ນ	-15321
ໂຫວດ	-15322
▁---	-15323
▁850	-15324
▁CÁC	-15325
▁ILS	-15326
▁Kaw	-15327
▁lip	-15328
▁mâu	-15329
▁ngụ	-15330
▁pok	-15331
▁ກວນ	-15332
▁ລີ້	-15333
▁ຫັກ	-15334
shirt	-15335
ກໍລະນ	-15336
ຜະສົມ	-15337
ລະບົດ	-15338
ເລົ່າ	-15339
ໄດ້ໃນ	-15340
▁Dail	-15341
▁Gaza	-15342
▁Nghỉ	-15343
▁Team	-15344
▁khâu	-15345
▁móng	-15346
▁post	-15347
▁thuỷ	-15348
▁ປິ່ນ	-15349
outube	-15350
plorer	-15351
ທ່ານມີ	-15352
ພັດລົມ	-15353
ຢ່າງມີ	-15354
ຫຼືການ	-15355
ຮູ້ສືກ	-15356
ໃບຫນ້າ	-15357
ໄວລຸ້ນ	-15358
▁2005.	-15359
▁Ether	-15360
▁Stone	-15361
▁được	-15362
▁ຈະຖືກ	-15363
ຕົກແຕ່ງ	-15364
ທີ່ຜ່ານ	-15365
ອານຸຍາດ	-15366
▁Candle	-15367
▁Daniel	-15368
▁Jizera	-15369
▁Roller	-15370
▁SERIES	-15371
▁silica	-15372
▁ການຕັດ	-15373
▁ສີສົ້ມ	-15374
ຕ້ອງເຮັດ	-15375
ລະດັບຊາດ	-15376
ຫລາຍຂຶ້ນ	-15377
ເຂົ້າກັບ	-15378
▁ສັງກະສີ	-15379
▁ເຈົ້າຂໍ	-15380
▁ແມ່ນຖືກ	-15381
ຂອງອົງການ	-15382
ທີ່ຊັດເຈນ	-15383
ອິສາລະເອວ	-15384
▁Printing	-15385
ສໍາເລັດຮູບ	-15386
ໄດ້ກາຍເປັນ	-15387
▁Massachus	-15388
▁collector	-15389
▁ຜູ້ທີ່ໄດ້	-15390
ກ້ອງຖ່າຍຮູບ	-15391
ໃນທົ່ວປະເທດ	-15392
▁ໄດ້ຈັດຕັ້ງ	-15393
ທີ່ມີຄຸນນະພາບ	-15394
ໄດ້ຮັບອະນຸຍາດ	-15395
▁ການເຄື່ອນໄຫວ	-15396
▁ຂອງເຂົາເຈົ້າ	-15397
ເຊັ່ນດຽວກັນກັບ	-15398
ຂໍ້ມູນຂອງພວກເຮົາ	-15399
::	-15400
AW	-15401
HG	-15402
To	-15403
xx	-15404
ос	-15405
/06	-15406
128	-15407
AND	-15408
IDS	-15409
SPY	-15410
afe	-15411
dig	-15412
idi	-15413
ket	-15414
ÁCH	-15415
ຊິບ	-15416
ບົບ	-15417
ຢິບ	-15418
▁LT	-15419
▁Rw	-15420
▁ôm	-15421
▁đế	-15422
▁≤0	-15423
GEAR	-15424
Link	-15425
atab	-15426
etty	-15427
ຄວັນ	-15428
ຕົ້ມ	-15429
ສະເຕ	-15430
ັກຄີ	-15431
ິເຈີ	-15432
▁***	-15433
▁205	-15434
▁3.1	-15435
▁DIY	-15436
▁Hal	-15437
▁Kaz	-15438
▁Sắp	-15439
▁TCP	-15440
▁Tit	-15441
▁Tod	-15442
▁add	-15443
▁cur	-15444
▁gấu	-15445
▁hái	-15446
▁las	-15447
▁lin	-15448
▁múa	-15449
▁nha	-15450
▁zlp	-15451
▁ຕານ	-15452
▁ຜົມ	-15453
▁ອຶດ	-15454
▁້ໍາ	-15455
-2000	-15456
Không	-15457
alian	-15458
amide	-15459
phalt	-15460
zania	-15461
ປະມູນ	-15462
▁Dark	-15463
▁Foot	-15464
▁Ford	-15465
▁From	-15466
▁Plan	-15467
▁Sept	-15468
▁This	-15469
▁cage	-15470
▁ຊີວະ	-15471
▁ເມລິ	-15472
cation	-15473
design	-15474
odcast	-15475
ຂອງສານ	-15476
ຈາກຜູ້	-15477
ປະເສີດ	-15478
ແຫວງຫາ	-15479
▁18.91	-15480
▁Analy	-15481
▁EVFTA	-15482
▁Store	-15483
▁Ultra	-15484
▁Watch	-15485
▁vegas	-15486
engzhou	-15487
ຄວາມບໍ່	-15488
ສູງເຖິງ	-15489
ແລະເຮັດ	-15490
▁ການຂາຍ	-15491
▁ຈັດການ	-15492
ປະກົດຕົວ	-15493
ປັບອາກາດ	-15494
ຜູ້ຫນຶ່ງ	-15495
▁Impulse	-15496
▁Wolford	-15497
▁ສະຊອບແວ	-15498
ລັດຖະສະພາ	-15499
▁Ultimate	-15500
▁ຫຼາຍກ່ວາ	-15501
ຂອງຫວຽດນາມ	-15502
ດ້ວຍຕົນເອງ	-15503
ເຂດພື້ນທີ່	-15504
ໂອກາດທີ່ຈະ	-15505
▁jailbreak	-15506
▁ກ່ອນທີ່ຈະ	-15507
ດໍາເນີນຄະດີ	-15508
ທີ່ເອີ້ນວ່າ	-15509
ເປັນປົກກະຕິ	-15510
ໃນການອອກແບບ	-15511
▁ກ້ອງຖ່າຍຮູບ	-15512
ການເຊື່ອມໂລຫະ	-15513
ຢ່າງວ່ອງໄວແລະ	-15514
2-	-15515
6.	-15516
7%	-15517
=3	-15518
số	-15519
ນໍ	-15520
-29	-15521
-5)	-15522
="3	-15523
CHF	-15524
JIA	-15525
aze	-15526
của	-15527
hou	-15528
low	-15529
tec	-15530
ugu	-15531
uto	-15532
vad	-15533
ງົວ	-15534
ຕີ້	-15535
ປອກ	-15536
▁HC	-15537
▁Mi	-15538
▁PV	-15539
▁wp	-15540
▁ໄດ	-15541
ancy	-15542
anka	-15543
quir	-15544
thon	-15545
ured	-15546
▁$1,	-15547
▁DHL	-15548
▁Ear	-15549
▁Flu	-15550
▁Ice	-15551
▁Jew	-15552
▁Kor	-15553
▁Kos	-15554
▁PLN	-15555
▁Phí	-15556
▁THB	-15557
▁Ven	-15558
▁nàn	-15559
▁ຈິກ	-15560
▁ແຂກ	-15561
iesel	-15562
ຖືວ່າ	-15563
ສະມັດ	-15564
ສາດສະ	-15565
ອົກຊີ	-15566
ເຮົາມ	-15567
ໂດເມນ	-15568
▁10.1	-15569
▁Boat	-15570
▁Bold	-15571
▁Chúc	-15572
▁FXCC	-15573
▁Gulf	-15574
▁Trạm	-15575
▁phổi	-15576
▁tatt	-15577
▁ĐÁNG	-15578
▁ຍ່ອຍ	-15579
▁ຕຸ້ນ	-15580
▁ຕ້ອນ	-15581
▁ສ່ອງ	-15582
tattoo	-15583
ລາຍຮັບ	-15584
ຮາງວັນ	-15585
ໍລິສັດ	-15586
▁2010.	-15587
▁5,000	-15588
▁Chuẩn	-15589
▁Guard	-15590
▁chiết	-15591
▁chước	-15592
ນໍາເອົາ	-15593
ສະໂມສອນ	-15594
ສ່ວນທີ່	-15595
ໄດ້ເປັນ	-15596
▁Airbus	-15597
▁ມັນຍັງ	-15598
▁ສົມບັດ	-15599
ກວາງຕຸ້ງ	-15600
ເນື້ອທີ່	-15601
ເວທີປາໄສ	-15602
ແລະລະບົບ	-15603
▁Firefox	-15604
▁Glasgow	-15605
▁Medical	-15606
▁ຖ່ານຫີນ	-15607
ຄັ້ງທີສອງ	-15608
▁ເວັບໄຊຕ໌	-15609
ຕາມກົດຫມາຍ	-15610
ມີປະສົບການ	-15611
ຢູ່ທີ່ນັ້ນ	-15612
ສະບັບເລກທີ	-15613
ອິນໂດເນເຊຍ	-15614
ໃນທ້ອງຖິ່ນ	-15615
▁ເຈົ້າຈຶ່ງ	-15616
ຕິດຕາມກວດກາ	-15617
ທັງຫມົດແມ່ນ	-15618
ບໍາລຸງຮັກສາ	-15619
▁ກ່າວຄໍາເຫັນ	-15620
ка	-15621
та	-15622
ຍໍ	-15623
235	-15624
801	-15625
abe	-15626
ebb	-15627
mit	-15628
unk	-15629
vid	-15630
yme	-15631
ລີດ	-15632
ວອນ	-15633
ືອຍ	-15634
ໂກນ	-15635
▁ED	-15636
▁NJ	-15637
▁Oh	-15638
▁RJ	-15639
▁SJ	-15640
▁tơ	-15641
▁ອໍ	-15642
adel	-15643
enia	-15644
furt	-15645
idad	-15646
iety	-15647
ocol	-15648
ough	-15649
roph	-15650
ພລາສ	-15651
ລາມິ	-15652
ຫນານ	-15653
ໆນີ້	-15654
▁!!!	-15655
▁(16	-15656
▁(5)	-15657
▁122	-15658
▁Aff	-15659
▁Che	-15660
▁Pup	-15661
▁Rap	-15662
▁Sir	-15663
▁Yes	-15664
▁bia	-15665
▁gối	-15666
▁inc	-15667
▁key	-15668
▁loa	-15669
▁max	-15670
▁tow	-15671
▁win	-15672
▁ທວນ	-15673
▁ມິນ	-15674
▁ຫິວ	-15675
▁ແນນ	-15676
burgh	-15677
chiều	-15678
ordan	-15679
ource	-15680
ruary	-15681
ລົດເມ	-15682
ສາມັນ	-15683
▁86-0	-15684
▁Bell	-15685
▁Hans	-15686
▁Lace	-15687
▁MCSE	-15688
▁NASA	-15689
▁Twin	-15690
▁gang	-15691
▁mess	-15692
▁view	-15693
▁work	-15694
▁ແຕ່ນ	-15695
ension	-15696
oshibo	-15697
ຂື້ນໃນ	-15698
ຄອນເທນ	-15699
ຈະຊ່ວຍ	-15700
ຕົວຕົນ	-15701
ບໍ່ທັນ	-15702
ສະຫລອງ	-15703
ເຊື່ອງ	-15704
ເຟສບຸກ	-15705
ເຫລືອງ	-15706
ແລະຖືກ	-15707
ໂປຼຕີນ	-15708
ໃຕ້ຂອງ	-15709
▁2009,	-15710
▁Brass	-15711
▁CHÚNG	-15712
▁Final	-15713
▁Princ	-15714
▁Steve	-15715
▁★★★★★	-15716
ລະບຸວ່າ	-15717
ແຈ້ງວ່າ	-15718
▁String	-15719
▁Tesser	-15720
▁ການຈັດ	-15721
▁	-15722
n	-15723
h	-15724
t	-15725
າ	-15726
i	-15727
ນ	-15728
c	-15729
g	-15730
a	-15731
່	-15732
ກ	-15733
o	-15734
ດ	-15735
້	-15736
ງ	-15737
r	-15738
u	-15739
ັ	-15740
ເ	-15741
ອ	-15742
ະ	-15743
m	-15744
e	-15745
ມ	-15746
,	-15747
ວ	-15748
l	-15749
ລ	-15750
ີ	-15751
s	-15752
.	-15753
đ	-15754
ບ	-15755
ສ	-15756
à	-15757
ົ	-15758
ທ	-15759
ຫ	-15760
v	-15761
p	-15762
y	-15763
0	-15764
b	-15765
á	-15766
ິ	-15767
ແ	-15768
ຍ	-15769
d	-15770
ໍ	-15771
ຂ	-15772
k	-15773
ư	-15774
ຄ	-15775
ຕ	-15776
ປ	-15777
ພ	-15778
1	-15779
ຈ	-15780
ື	-15781
ໃ	-15782
2	-15783
C	-15784
T	-15785
ô	-15786
ຮ	-15787
ຊ	-15788
ໄ	-15789
ộ	-15790
ạ	-15791
ế	-15792
ູ	-15793
ả	-15794
ó	-15795
ệ	-15796
S	-15797
ຸ	-15798
ê	-15799
ố	-15800
ấ	-15801
:	-15802
-	-15803
ủ	-15804
M	-15805
5	-15806
ớ	-15807
ờ	-15808
ໂ	-15809
N	-15810
ể	-15811
P	-15812
3	-15813
x	-15814
B	-15815
ề	-15816
ợ	-15817
ຜ	-15818
H	-15819
A	-15820
â	-15821
ຽ	-15822
ຖ	-15823
L	-15824
8	-15825
4	-15826
ì	-15827
D	-15828
6	-15829
ậ	-15830
ú	-15831
ự	-15832
ơ	-15833
í	-15834
q	-15835
9	-15836
ị	-15837
ຢ	-15838
ọ	-15839
ầ	-15840
7	-15841
ụ	-15842
G	-15843
ữ	-15844
ã	-15845
ứ	-15846
/	-15847
R	-15848
)	-15849
V	-15850
(	-15851
ă	-15852
E	-15853
I	-15854
f	-15855
ở	-15856
ຼ	-15857
w	-15858
K	-15859
ຶ	-15860
F	-15861
Đ	-15862
O	-15863
ắ	-15864
ặ	-15865
W	-15866
ổ	-15867
ồ	-15868
ò	-15869
ử	-15870
U	-15871
ừ	-15872
ằ	-15873
ຟ	-15874
ù	-15875
ຣ	-15876
X	-15877
ẽ	-15878
Q	-15879
z	-15880
ỉ	-15881
ỏ	-15882
ẩ	-15883
J	-15884
é	-15885
?	-15886
;	-15887
_	-15888
ý	-15889
ໆ	-15890
ỗ	-15891
Y	-15892
ũ	-15893
ĩ	-15894
%	-15895
ễ	-15896
!	-15897
$	-15898
ẫ	-15899
"	-15900
>	-15901
j	-15902
ຝ	-15903
ẻ	-15904
*	-15905
+	-15906
&	-15907
໌	-15908
Z	-15909
ỹ	-15910
“	-15911
”	-15912
–	-15913
'	-15914
ẹ	-15915
ỳ	-15916
=	-15917
]	-15918
[	-15919
ỡ	-15920
£	-15921
#	-15922
è	-15923
ẳ	-15924
õ	-15925
@	-15926
©	-15927
ỷ	-15928
Â	-15929
Á	-15930
Ô	-15931
°	-15932
<	-15933
€	-15934
»	-15935
~	-15936
×	-15937
—	-15938
ẵ	-15939
•	-15940
໊	-15941
Ả	-15942
’	-15943
Ấ	-15944
À	-15945
̣	-15946
Ú	-15947
≤	-15948
໋	-15949
́	-15950
\	-15951
±	-15952
Ư	-15953
Ý	-15954
Ở	-15955
{	-15956
}	-15957
Ủ	-15958
★	-15959
®	-15960
а	-15961
→	-15962
о	-15963
·	-15964
̀	-15965
Ố	-15966
Ứ	-15967
Ệ	-15968
е	-15969
Ạ	-15970
ö	-15971
Í	-15972
≥	-15973
и	-15974
с	-15975
н	-15976
р	-15977
Ê	-15978
Ế	-15979
	-15980
к	-15981
Φ	-15982
●	-15983
฿	-15984
ะ	-15985
Ậ	-15986
‘	-15987
т	-15988
น	-15989
`	-15990
ä	-15991
̉	-15992
Ớ	-15993
Ó	-15994
′	-15995
Ã	-15996
