<unk>	0
<s>	0
</s>	0
��	-0
ng	-1
▁t	-2
▁c	-3
nh	-4
▁đ	-5
າກ	-6
ềE	-7
ອກ	-8
ັກ	-9
▁v	-10
▁th	-11
▁l	-12
▁h	-13
▁ch	-14
▁m	-15
▁b	-16
▁ແ	-17
▁k	-18
ານ	-19
▁ເ	-20
▁s	-21
▁tr	-22
▁nh	-23
ທີ	-24
▁ກ	-25
ລະ	-26
▁n	-27
້າ	-28
່ກ	-29
▁g	-30
▁kh	-31
າມ	-32
▁T	-33
▁ng	-34
ác	-35
▁và	-36
▁C	-37
▁d	-38
ph	-39
ຂອກ	-40
ໍາ	-41
▁ph	-42
ັນ	-43
iệ	-44
ວກ	-45
ông	-46
ິກ	-47
ủa	-48
an	-49
ົກ	-50
▁của	-51
ົາ	-52
▁gi	-53
ên	-54
▁2	-55
er	-56
in	-57
▁ສ	-58
້ກ	-59
▁1	-60
ời	-61
ຫນ	-62
່າ	-63
ột	-64
ັບ	-65
ch	-66
▁là	-67
▁N	-68
ທີ່	-69
ທີແ	-70
▁các	-71
▁M	-72
qu	-73
ົ້າ	-74
▁S	-75
ượ	-76
iế	-77
▁r	-78
ື່	-79
ới	-80
00	-81
ປະ	-82
ong	-83
ất	-84
on	-85
ເຮ	-86
ການ	-87
▁một	-88
ັດ	-89
▁x	-90
ມີ	-91
▁có	-92
່າກ	-93
▁B	-94
ôi	-95
▁qu	-96
ສະ	-97
ແລະ	-98
ຈະ	-99
ại	-100
úng	-101
▁ແລະ	-102
▁P	-103
ềEt	-104
ບໍ	-105
▁ພ	-106
▁H	-107
ình	-108
uy	-109
້ອກ	-110
ược	-111
▁E	-112
iề	-113
ười	-114
າຍ	-115
▁L	-116
ຫຼ	-117
ູແ	-118
ững	-119
01	-120
ar	-121
້ນ	-122
ວ່າ	-123
▁V	-124
▁ນ	-125
ເປ	-126
ạn	-127
▁cho	-128
▁,	-129
ິດ	-130
ຈົ້າ	-131
▁tôi	-132
▁đềE	-133
▁trong	-134
en	-135
▁chúng	-136
ຫລ	-137
▁người	-138
▁được	-139
ày	-140
າດ	-141
ຸກ	-142
▁(	-143
ang	-144
▁ອ	-145
es	-146
or	-147
ຽກ	-148
iều	-149
ັ້ກ	-150
▁Đ	-151
ື່ອ	-152
▁ລ	-153
ay	-154
ິ່ກ	-155
ີກ	-156
▁D	-157
at	-158
▁ຕ	-159
່ນ	-160
ເຮົາ	-161
▁Ch	-162
ao	-163
▁không	-164
▁những	-165
▁ngh	-166
▁A	-167
▁ທ	-168
▁với	-169
ເຂ	-170
iên	-171
ân	-172
▁-	-173
ải	-174
ai	-175
..	-176
ເກ	-177
▁G	-178
ກາກ	-179
am	-180
▁/	-181
ີແ	-182
▁Th	-183
ướ	-184
້າກ	-185
▁thềE	-186
ເພ	-187
al	-188
▁K	-189
anh	-190
▁ຂ	-191
ần	-192
ອນ	-193
ản	-194
iện	-195
▁ta	-196
ung	-197
▁ມ	-198
▁201	-199
▁đã	-200
າວ	-201
ູກ	-202
▁bạn	-203
ến	-204
່ວ	-205
່ານ	-206
iể	-207
່ອກ	-208
▁ການ	-209
▁Tr	-210
ài	-211
em	-212
ພະ	-213
▁3	-214
▁ຈ	-215
ành	-216
iết	-217
ươ	-218
inh	-219
▁R	-220
ực	-221
▁ho	-222
ູ້	-223
as	-224
ống	-225
ầu	-226
ic	-227
et	-228
▁ໂ	-229
ước	-230
ຫມ	-231
▁ຊ	-232
ối	-233
▁hềE	-234
ແມ	-235
ບໍແ	-236
ະນ	-237
ol	-238
ận	-239
▁như	-240
▁cả	-241
it	-242
àn	-243
ing	-244
ật	-245
ເລ	-246
ương	-247
ấy	-248
▁vềE	-249
ây	-250
ườ	-251
້ອ	-252
▁này	-253
ົວ	-254
ົນ	-255
▁bềE	-256
▁đó	-257
ằng	-258
▁ຮ	-259
ức	-260
ດກ	-261
ường	-262
▁F	-263
ro	-264
ໍາລ	-265
ພວກ	-266
▁sự	-267
áng	-268
el	-269
▁nă	-270
▁ເຈົ້າ	-271
່ຽ	-272
ac	-273
▁ບ	-274
àng	-275
ຶ່ກ	-276
ết	-277
ọc	-278
▁ຜ	-279
ơn	-280
ະລ	-281
st	-282
ính	-283
ເຂົາ	-284
ộng	-285
ີ່	-286
ືກ	-287
le	-288
▁nó	-289
▁đến	-290
ໍແ	-291
▁sẽ	-292
ເປັກ	-293
au	-294
ềEth	-295
ຶກ	-296
▁ຂອກ	-297
ội	-298
້ວ	-299
▁làm	-300
áy	-301
ào	-302
▁ດ	-303
om	-304
ot	-305
ເຈົ້າ	-306
▁khi	-307
ốc	-308
ນແ	-309
▁ເຮ	-310
ພາ	-311
▁công	-312
▁5	-313
ặc	-314
▁Nh	-315
ຢູແ	-316
iệc	-317
▁ເປ	-318
ເວ	-319
ືອກ	-320
▁dụ	-321
ຢ່າກ	-322
áo	-323
▁4	-324
ົດ	-325
ed	-326
ou	-327
ົມ	-328
ຈາກ	-329
ຸດ	-330
êu	-331
▁ra	-332
▁ວ	-333
ຫວ	-334
ໍ່	-335
▁I	-336
▁chềE	-337
ມາ	-338
ập	-339
ສາ	-340
át	-341
▁mà	-342
ທາກ	-343
▁ພວກ	-344
▁ປ	-345
ích	-346
▁khác	-347
oại	-348
ເປັນ	-349
iệu	-350
ກັກ	-351
ບໍ່	-352
▁.	-353
▁từ	-354
▁điều	-355
id	-356
▁Q	-357
eo	-358
▁ທີແ	-359
້າພະ	-360
ềEtr	-361
ັ່ກ	-362
ັ້ນ	-363
▁ຖ	-364
ộc	-365
▁ມີ	-366
▁W	-367
້ມ	-368
▁ສະ	-369
ái	-370
ເຊ	-371
▁ຫນ	-372
▁nhà	-373
▁ປະ	-374
▁việc	-375
▁Ng	-376
ເທ	-377
▁vào	-378
ục	-379
▁ເກ	-380
ບກ	-381
ấp	-382
ສາມ	-383
ດີ	-384
iệt	-385
▁sềE	-386
▁thế	-387
ຕະ	-388
ùng	-389
ເຫ	-390
▁trên	-391
▁ກາກ	-392
iến	-393
ter	-394
ເສ	-395
▁mình	-396
ền	-397
▁ກັກ	-398
ổi	-399
...	-400
ີ້	-401
il	-402
ad	-403
▁ຈະ	-404
ຖິກ	-405
òng	-406
▁phải	-407
ນີແ	-408
▁6	-409
▁động	-410
▁ຍ	-411
is	-412
▁dụng	-413
▁ềE	-414
ແຕ	-415
ລາ	-416
ượng	-417
▁đầu	-418
▁thu	-419
ເມ	-420
ur	-421
ຊີ	-422
ánh	-423
ແມ່ນ	-424
án	-425
ູ່	-426
âu	-427
▁cách	-428
ạo	-429
▁chuy	-430
ບັນ	-431
▁năm	-432
▁xu	-433
ະກ	-434
ứng	-435
▁rằng	-436
mm	-437
▁con	-438
▁ທີ່	-439
ຫາ	-440
ia	-441
▁U	-442
▁nghiệ	-443
úc	-444
▁Qu	-445
ăn	-446
▁Ph	-447
ôn	-448
ນັ້ກ	-449
ິນ	-450
▁hơn	-451
▁gia	-452
oo	-453
▁nhiều	-454
ảo	-455
ື່ອກ	-456
▁Kh	-457
▁cu	-458
ຮັກ	-459
ịch	-460
▁học	-461
ຖືກ	-462
20	-463
ອບ	-464
▁y	-465
ách	-466
ion	-467
ຮັບ	-468
ăng	-469
ơi	-470
▁8	-471
ຕິ	-472
ồng	-473
ặt	-474
re	-475
▁máy	-476
▁quan	-477
ắt	-478
im	-479
▁hàng	-480
ຫຍ	-481
ũng	-482
ເພື່ອ	-483
ກແ	-484
▁tại	-485
ົບ	-486
▁sản	-487
▁p	-488
▁to	-489
âm	-490
▁O	-491
▁thành	-492
▁nào	-493
áp	-494
▁J	-495
▁ແຕ	-496
ຍແ	-497
ưở	-498
▁Gi	-499
▁X	-500
▁_	-501
ສິ່ກ	-502
ສັກ	-503
▁ເປັກ	-504
ຕ້ອກ	-505
ag	-506
▁ເຮົາ	-507
▁thấy	-508
▁hoặc	-509
▁ເພ	-510
ລ້ວ	-511
iển	-512
ເຕ	-513
ếu	-514
່ວກ	-515
ưởng	-516
ốn	-517
ໍາລັບ	-518
000	-519
ຂຶ	-520
ໂລ	-521
ảng	-522
▁nhất	-523
ạt	-524
ູນ	-525
▁“	-526
ະລິດ	-527
ຫນຶ່ກ	-528
ົ່ກ	-529
▁hình	-530
ig	-531
▁ບໍແ	-532
▁ngày	-533
ắc	-534
ọng	-535
ກະ	-536
ợp	-537
ຢູ່	-538
▁tiế	-539
ốt	-540
ເອ	-541
▁quy	-542
ຫລາກ	-543
▁ຫຼ	-544
▁ເມ	-545
▁7	-546
້ແ	-547
▁...	-548
ack	-549
and	-550
▁lại	-551
▁cũng	-552
ỗi	-553
ຕົວ	-554
ow	-555
ລິ	-556
▁0	-557
ທໍາ	-558
ອາ	-559
ວິ	-560
ເຂົ້າ	-561
້ານ	-562
▁anh	-563
ທັກ	-564
▁do	-565
ນໍາ	-566
ພາກ	-567
▁đị	-568
▁theo	-569
ent	-570
us	-571
ẩm	-572
ສາມາດ	-573
▁cấp	-574
▁ແມ	-575
ສະຫນ	-576
▁10	-577
ct	-578
ຣະ	-579
ໍາລັກ	-580
EC	-581
ດຍ	-582
iểm	-583
ເຮັກ	-584
່ມ	-585
▁hợp	-586
ẫn	-587
▁&	-588
ນະ	-589
▁xuất	-590
ຍາ	-591
ໍານ	-592
▁năng	-593
ສຸກ	-594
▁nhận	-595
▁sử	-596
eb	-597
ຕາມ	-598
ຮກ	-599
▁Và	-600
ີ່ມ	-601
ຂະ	-602
ເຮັດ	-603
50	-604
ện	-605
▁chính	-606
▁biết	-607
ສຶກ	-608
່ຽວ	-609
▁$	-610
201	-611
່ຽວກ	-612
ົ່າ	-613
ຫາກ	-614
▁vì	-615
▁ເຂ	-616
ທະ	-617
▁9	-618
ລົກ	-619
່າວ	-620
▁ເລ	-621
ess	-622
ທ່ານ	-623
ຫນ້າ	-624
▁đang	-625
ấn	-626
▁thời	-627
ຈັກ	-628
ềEl	-629
ບາກ	-630
ọi	-631
10	-632
ມື	-633
ES	-634
▁*	-635
▁Chúng	-636
ອອກ	-637
▁20	-638
▁sống	-639
▁dự	-640
▁Các	-641
ậy	-642
ữa	-643
ຜູແ	-644
un	-645
▁nói	-646
▁đi	-647
▁thực	-648
▁em	-649
▁phẩm	-650
com	-651
້ອຍ	-652
▁cao	-653
▁w	-654
ạnh	-655
້ວກ	-656
ir	-657
▁nhân	-658
▁gì	-659
່ອນ	-660
▁mu	-661
▁kho	-662
▁tin	-663
ພາບ	-664
ip	-665
▁giới	-666
os	-667
ເຖິກ	-668
ບິ່ກ	-669
ຜູ້	-670
▁bằng	-671
iểu	-672
▁nghiệp	-673
ປະກ	-674
ຂ້າພະ	-675
th	-676
iêu	-677
ຸມ	-678
▁thông	-679
ສູກ	-680
iềE	-681
ép	-682
ເວລາ	-683
ບັກ	-684
ຍາກ	-685
ຫລື	-686
▁lớ	-687
ສ້າກ	-688
▁hội	-689
ine	-690
kh	-691
່ວມ	-692
▁thiết	-693
▁2018	-694
iền	-695
▁"	-696
▁tế	-697
▁gian	-698
▁lu	-699
▁ông	-700
▁cuộc	-701
▁nước	-702
▁tuy	-703
▁lượng	-704
ວິກ	-705
▁in	-706
▁ມັກ	-707
ỏi	-708
ົ່ວ	-709
▁Trung	-710
lo	-711
ăm	-712
ໂກ	-713
▁lý	-714
òn	-715
ສາກ	-716
ໍາກ	-717
▁cùng	-718
êm	-719
ແນ	-720
▁phát	-721
ເນ	-722
ạc	-723
▁qua	-724
ທຸກ	-725
ềEđ	-726
▁ເຊ	-727
um	-728
▁ພະ	-729
▁cơ	-730
▁cứ	-731
ອົກ	-732
ຮູ້	-733
ູບ	-734
▁Co	-735
▁kết	-736
ປີ	-737
▁+	-738
ສໍາ	-739
▁nghĩ	-740
EA	-741
▁cầu	-742
▁Quốc	-743
ມັກ	-744
ềEc	-745
ởi	-746
▁ຂ້າພະ	-747
້ໍາ	-748
▁tự	-749
▁tất	-750
▁hiện	-751
▁tiếp	-752
▁trình	-753
▁toàn	-754
▁đồng	-755
ຜະລິດ	-756
າຍແ	-757
EM	-758
ທະນ	-759
ລາວ	-760
▁định	-761
ກັບ	-762
ສໍາລັບ	-763
ra	-764
ຊາກ	-765
ແລ້ວ	-766
▁điện	-767
te	-768
ອາກ	-769
ຕັ້ກ	-770
▁hành	-771
▁vụ	-772
▁cảm	-773
ຈິກ	-774
່ຽວກັບ	-775
▁ວ່າ	-776
ຽດ	-777
▁giá	-778
ພັກ	-779
▁rất	-780
▁liệu	-781
▁thì	-782
iv	-783
▁lời	-784
ul	-785
ພິ	-786
of	-787
ຕ່າກ	-788
້ຮັບ	-789
▁kinh	-790
▁loại	-791
▁tạo	-792
-1	-793
ảnh	-794
ຕໍ່	-795
▁12	-796
àm	-797
▁Y	-798
ềEch	-799
▁tháng	-800
ຸ່ມ	-801
EP	-802
▁tốt	-803
▁ທ່ານ	-804
ọn	-805
▁ຫ	-806
ab	-807
ພັນ	-808
▁tu	-809
▁trọng	-810
ແມ່ກ	-811
▁ເວ	-812
▁yêu	-813
ທິ	-814
ທີ່ມີ	-815
ວຽກ	-816
ìm	-817
▁tính	-818
op	-819
úp	-820
າະ	-821
.0	-822
▁ລະ	-823
ສິກ	-824
ap	-825
gi	-826
ທ່າກ	-827
ຖານ	-828
ີດ	-829
ໂລກ	-830
ຮ່ວມ	-831
ấu	-832
▁cần	-833
▁Nam	-834
ວນ	-835
▁bao	-836
▁mới	-837
▁lớn	-838
ồi	-839
▁nhưng	-840
▁phần	-841
▁phí	-842
ຂຶ້ກ	-843
▁hai	-844
▁dân	-845
ດາ	-846
ສົມ	-847
▁In	-848
▁Tôi	-849
ຕໍແ	-850
▁19	-851
ắn	-852
ດັກ	-853
▁ເຫ	-854
ຂໍ	-855
▁muốn	-856
ຫມາກ	-857
▁cung	-858
້ອມ	-859
▁đối	-860
ợi	-861
ຫຼື	-862
ພວກເຮົາ	-863
ທີ່ຈະ	-864
ບໍລິ	-865
ưa	-866
▁ແຕແ	-867
ນາມ	-868
ບບ	-869
ãy	-870
ảm	-871
ື້ນ	-872
▁Ngài	-873
one	-874
óa	-875
ເອກ	-876
▁ấy	-877
▁f	-878
▁trước	-879
▁>	-880
▁sinh	-881
ສອກ	-882
ướng	-883
ຕາ	-884
ຽນ	-885
ắng	-886
▁15	-887
▁đổi	-888
út	-889
ck	-890
▁triển	-891
ET	-892
ຍັກ	-893
▁Một	-894
▁chất	-895
ລູກ	-896
ືແ	-897
▁ເມື່ອ	-898
ht	-899
ການກ	-900
▁sau	-901
ນ້ອກ	-902
າຍກ	-903
▁thứ	-904
▁vậy	-905
ຽດນາມ	-906
ẩn	-907
ລັກ	-908
▁tâm	-909
ແດກ	-910
ື່ກ	-911
▁bu	-912
▁ຢ	-913
ồn	-914
▁ນີແ	-915
່ວນ	-916
▁ty	-917
ຈໍາ	-918
▁viên	-919
▁nhau	-920
30	-921
ຕອກ	-922
ື້ອ	-923
▁bản	-924
ສົ່ກ	-925
ER	-926
ລິກ	-927
ềEv	-928
▁bảo	-929
ED	-930
▁ເຖິກ	-931
ers	-932
ເລື່ອກ	-933
ut	-934
▁Sh	-935
▁ມັນ	-936
ເບິ່ກ	-937
▁bất	-938
ື່ນແ	-939
▁11	-940
▁lên	-941
▁ຜູ້	-942
▁dịch	-943
ạng	-944
ເຫັກ	-945
▁thoại	-946
▁ເພື່ອ	-947
.1	-948
▁ວິ	-949
▁còn	-950
ຫວຽດນາມ	-951
▁ảnh	-952
▁Máy	-953
uyên	-954
▁ຮັກ	-955
ແທ	-956
▁ລັກ	-957
ັດທະນ	-958
▁ຈາກ	-959
ແຕແ	-960
ÁE	-961
ະຫນ	-962
êng	-963
▁thương	-964
ain	-965
ແກ	-966
ໂດຍ	-967
▁liên	-968
ພຣະ	-969
▁thức	-970
ຫຼາກ	-971
▁ý	-972
▁ເປັນ	-973
ển	-974
ເອົາ	-975
▁lo	-976
▁ຖ້າ	-977
▁Việt	-978
ຍກ	-979
ຽວ	-980
ụi	-981
▁nên	-982
▁200	-983
ີນ	-984
art	-985
ust	-986
ວກເຮົາ	-987
▁chuyện	-988
ạch	-989
▁ຫນ້າ	-990
ám	-991
ລະກ	-992
▁bởi	-993
▁đềEc	-994
▁2019	-995
ex	-996
▁cái	-997
▁thường	-998
ອດ	-999
▁trang	-1000
ເກີກ	-1001
▁sáng	-1002
óng	-1003
▁chủ	-1004
▁Công	-1005
od	-1006
ຕົກ	-1007
ỉnh	-1008
iêng	-1009
▁giáo	-1010
ian	-1011
▁tài	-1012
ie	-1013
▁lòng	-1014
▁nhiên	-1015
▁đình	-1016
▁Tháng	-1017
▁tác	-1018
▁Trong	-1019
▁trường	-1020
ລາກ	-1021
▁St	-1022
ét	-1023
ight	-1024
ưu	-1025
ửa	-1026
▁2017	-1027
▁cứu	-1028
est	-1029
.5	-1030
ສກ	-1031
úi	-1032
▁Z	-1033
ino	-1034
ືອນ	-1035
ີມ	-1036
ຽມ	-1037
▁vật	-1038
co	-1039
▁ນັ້ກ	-1040
▁thềEđ	-1041
▁đây	-1042
▁đường	-1043
ui	-1044
ຫ່ກ	-1045
ưng	-1046
ປະສ	-1047
▁tình	-1048
ນາກ	-1049
ດ້ວກ	-1050
ate	-1051
▁quyền	-1052
ຫຍັກ	-1053
▁khu	-1054
ảy	-1055
av	-1056
▁US	-1057
▁dẫn	-1058
▁sao	-1059
▁doanh	-1060
ມີກ	-1061
▁ລາວ	-1062
ຮູແ	-1063
▁bắt	-1064
▁quả	-1065
▁hay	-1066
▁ແມ່ນ	-1067
າມກ	-1068
EB	-1069
ປກ	-1070
ສຸດ	-1071
if	-1072
▁ຢູແ	-1073
ist	-1074
າແ	-1075
▁nghiệm	-1076
ມແ	-1077
▁sách	-1078
ຕົ	-1079
60	-1080
12	-1081
▁tư	-1082
ak	-1083
▁kế	-1084
▁chu	-1085
▁hiệu	-1086
▁giải	-1087
▁ປີ	-1088
ຫວ່າກ	-1089
▁su	-1090
ສາຫ	-1091
uyền	-1092
ເຫັນ	-1093
ệt	-1094
ອື່ນແ	-1095
▁mạnh	-1096
ອັກ	-1097
ນັກ	-1098
80	-1099
▁điểm	-1100
ấm	-1101
▁quốc	-1102
ໂນ	-1103
▁ບັນ	-1104
▁ບາກ	-1105
ອີກ	-1106
▁ບໍ່	-1107
▁nếu	-1108
▁ຜູແ	-1109
.2	-1110
▁ອາ	-1111
ib	-1112
nd	-1113
ບັດ	-1114
ard	-1115
ừng	-1116
ເທດ	-1117
ạy	-1118
ອມ	-1119
ແບກ	-1120
asino	-1121
▁ứng	-1122
▁tìm	-1123
ắp	-1124
86	-1125
່ຽກ	-1126
▁100	-1127
▁ພວກເຮົາ	-1128
ark	-1129
ຫຼັກ	-1130
▁lập	-1131
ແຜ	-1132
ẳng	-1133
▁giúp	-1134
▁đo	-1135
▁giao	-1136
ຊຸມ	-1137
▁xe	-1138
▁nơi	-1139
▁bụi	-1140
▁hoàn	-1141
▁ເຮັກ	-1142
ພຽກ	-1143
td	-1144
ail	-1145
ປະຕິ	-1146
ệnh	-1147
▁khí	-1148
Ch	-1149
▁trung	-1150
ềEb	-1151
▁thật	-1152
▁kỳ	-1153
ປົກ	-1154
▁mọi	-1155
▁tập	-1156
ầy	-1157
ຂຶ້ນ	-1158
ຸ່ກ	-1159
-2	-1160
▁ສໍາ	-1161
▁tiêu	-1162
ວມ	-1163
ແບບ	-1164
ຜົນ	-1165
ຂ້າ	-1166
lu	-1167
ຈັດ	-1168
ói	-1169
▁Pro	-1170
▁chềEem	-1171
▁báo	-1172
ສາຫະກ	-1173
iz	-1174
40	-1175
ep	-1176
ຫລັກ	-1177
▁ສິ່ກ	-1178
11	-1179
▁tiền	-1180
▁nghềE	-1181
ບແ	-1182
▁ທາກ	-1183
ຊາ	-1184
ຢູ່ແ	-1185
▁30	-1186
▁ທັກ	-1187
ໂດກ	-1188
▁ເຂົາ	-1189
ຸນ	-1190
ທລະ	-1191
ສາດ	-1192
ເມື່ອ	-1193
້ອນ	-1194
all	-1195
▁ສາມ	-1196
▁ຕ້ອກ	-1197
ສັດ	-1198
້ມູນ	-1199
ນີ້	-1200
ation	-1201
ຊີວິກ	-1202
▁16	-1203
▁pháp	-1204
▁lực	-1205
ựa	-1206
▁ÁE	-1207
▁ăn	-1208
▁mặt	-1209
eng	-1210
oài	-1211
▁hỏi	-1212
▁ມາ	-1213
ín	-1214
óc	-1215
ໍາມ	-1216
ry	-1217
▁hoạt	-1218
19	-1219
▁ຫມ	-1220
EF	-1221
ub	-1222
ວາກ	-1223
▁thay	-1224
EL	-1225
ເຊື່ອ	-1226
ສ່ວນ	-1227
ເພາະ	-1228
▁nay	-1229
▁phục	-1230
▁tiên	-1231
pe	-1232
ill	-1233
▁đặt	-1234
og	-1235
ວດ	-1236
▁trực	-1237
ìn	-1238
ແນວ	-1239
▁vực	-1240
▁[	-1241
iệm	-1242
).	-1243
ob	-1244
▁biệt	-1245
ứa	-1246
▁Ltd	-1247
ຍະ	-1248
າດແ	-1249
ều	-1250
▁an	-1251
ຫນັກ	-1252
uyện	-1253
ຫວັກ	-1254
▁tham	-1255
EN	-1256
▁thích	-1257
ầm	-1258
ຍິກ	-1259
▁chứng	-1260
per	-1261
▁đềEđ	-1262
ເພດ	-1263
▁18	-1264
ທົ່ວ	-1265
ຮ້ອກ	-1266
▁hềEđ	-1267
▁ກແ	-1268
ຸປະກ	-1269
▁ອົກ	-1270
sh	-1271
▁ກະ	-1272
▁phụ	-1273
ເຈ	-1274
▁tay	-1275
ັນຍາ	-1276
ổng	-1277
ັບແ	-1278
▁Hội	-1279
▁Khi	-1280
iếu	-1281
▁Nếu	-1282
▁chọn	-1283
▁ເອ	-1284
ເດ	-1285
ທະຍາ	-1286
ຮຽກ	-1287
▁13	-1288
▁trẻ	-1289
▁mỗi	-1290
ua	-1291
1,	-1292
ພາະ	-1293
ນໍາແ	-1294
ast	-1295
ຕ່	-1296
ມາກ	-1297
▁xem	-1298
▁đại	-1299
▁ໂດກ	-1300
ທີ່ກ	-1301
),	-1302
ລະບ	-1303
▁ເດ	-1304
ແຂ	-1305
▁nữa	-1306
▁hóa	-1307
ຮູບ	-1308
▁chuyển	-1309
att	-1310
làm	-1311
▁đềEt	-1312
ເຮັດແ	-1313
ind	-1314
▁trềE	-1315
ຜ່ານ	-1316
▁vấn	-1317
▁Nhà	-1318
ver	-1319
▁chế	-1320
ຍ່	-1321
▁khách	-1322
▁ເພາະ	-1323
▁tăng	-1324
ກໍາ	-1325
ồm	-1326
ress	-1327
ະນະ	-1328
▁25	-1329
▁ນໍາ	-1330
45	-1331
oh	-1332
▁thuật	-1333
▁ຕົວ	-1334
ĩnh	-1335
▁ນາກ	-1336
ưới	-1337
▁2016	-1338
▁nhềE	-1339
▁câu	-1340
▁hướng	-1341
▁quá	-1342
15	-1343
▁ແນ	-1344
▁Những	-1345
▁ເສ	-1346
ຕະພັນ	-1347
ລກ	-1348
▁Bạn	-1349
se	-1350
ເພິ່ກ	-1351
ric	-1352
ົ່ານ	-1353
ຟ້າ	-1354
▁so	-1355
▁mục	-1356
NG	-1357
oft	-1358
ຢາກ	-1359
ềEthống	-1360
▁ດັ່ກ	-1361
▁web	-1362
EG	-1363
▁ແຕ່	-1364
ັ່ນ	-1365
▁cha	-1366
▁gồm	-1367
ôm	-1368
▁lần	-1369
▁ຫຼື	-1370
▁£	-1371
▁ດາວ	-1372
▁a	-1373
ce	-1374
ity	-1375
ຕິດ	-1376
ວັກ	-1377
ຈຸ	-1378
ນັ້ນ	-1379
ອິກ	-1380
▁USD	-1381
ạm	-1382
▁'	-1383
ບໍລິກ	-1384
iếm	-1385
ຊົນ	-1386
99	-1387
▁bình	-1388
ວິທີ	-1389
ສໍາກ	-1390
="	-1391
EH	-1392
ໂຫລ	-1393
▁tục	-1394
▁ລູກ	-1395
ຂ້ອກ	-1396
▁Điện	-1397
▁ໂກ	-1398
ell	-1399
ັດຖ	-1400
ຫມົກ	-1401
ort	-1402
ແຫ່ກ	-1403
▁phương	-1404
▁cềE	-1405
▁đều	-1406
ềEchức	-1407
ບັນດາ	-1408
▁50	-1409
pp	-1410
ment	-1411
ເວົ້າ	-1412
▁chơi	-1413
ສິ	-1414
▁lềE	-1415
▁ທຸກ	-1416
ສະແດກ	-1417
້ວຍ	-1418
▁mẹ	-1419
ກ່ຽວ	-1420
ສາມາກ	-1421
▁kiện	-1422
▁tuyến	-1423
áu	-1424
ພັດທະນ	-1425
ທິກ	-1426
▁nữ	-1427
25	-1428
▁14	-1429
▁trò	-1430
▁cụ	-1431
ຫະ	-1432
ຂ້າພະເຈົ້າ	-1433
ies	-1434
▁gọi	-1435
ữu	-1436
▁đềEch	-1437
▁ຈັກ	-1438
▁đặc	-1439
▁phềE	-1440
có	-1441
▁17	-1442
ດັ່ກ	-1443
bo	-1444
ord	-1445
ປ່ຽ	-1446
▁phòng	-1447
▁ຮູ້	-1448
XL	-1449
▁phân	-1450
ặp	-1451
▁tiết	-1452
ly	-1453
▁ເຂົ້າ	-1454
ເມືອກ	-1455
▁ແລ້ວ	-1456
ດິກ	-1457
▁ເຕ	-1458
▁giềE	-1459
▁miềE	-1460
▁quyết	-1461
ມກ	-1462
ເພີ່ມ	-1463
▁thân	-1464
hi	-1465
ຫຼາຍ	-1466
▁ຈີກ	-1467
▁Nhưng	-1468
ach	-1469
ủy	-1470
óm	-1471
▁đạo	-1472
▁ຂ້າພະເຈົ້າ	-1473
▁bay	-1474
SO	-1475
ເຕີ	-1476
▁ຖືກ	-1477
▁ໂດຍ	-1478
ey	-1479
.3	-1480
ານກ	-1481
ant	-1482
ມັນ	-1483
▁Điều	-1484
▁ທ່າກ	-1485
ສໍາລັກ	-1486
່າຍ	-1487
ຊອກ	-1488
່ວຍ	-1489
ັດສະ	-1490
ຂ້ອຍ	-1491
▁24	-1492
ກວ່າ	-1493
ອື່ກ	-1494
▁ເອກ	-1495
ວິດ	-1496
ທີ່ແ	-1497
▁ສໍາລັບ	-1498
▁lúc	-1499
າລະ	-1500
16	-1501
ຍົກ	-1502
▁thước	-1503
▁đầy	-1504
ເຫນ	-1505
ເລືອກ	-1506
ເພກ	-1507
▁and	-1508
▁sức	-1509
ook	-1510
ານແ	-1511
ew	-1512
ນີ	-1513
▁Châu	-1514
▁dựng	-1515
▁hạn	-1516
▁Có	-1517
▁hiểu	-1518
▁thanh	-1519
▁nghiên	-1520
▁vô	-1521
ະລິກ	-1522
▁xét	-1523
▁thềEtr	-1524
ຖື	-1525
ຖາກ	-1526
ẫu	-1527
▁lã	-1528
ນ້ໍາ	-1529
ສີ	-1530
▁đơn	-1531
▁chi	-1532
ິ່ນ	-1533
ສ່ວກ	-1534
ັນທີ	-1535
▁vui	-1536
ຸປະກອນ	-1537
ູ້ກ	-1538
ເສກ	-1539
ຍາຍ	-1540
▁kỹ	-1541
▁ອາກ	-1542
▁nhìn	-1543
ຕົ້ນ	-1544
▁đất	-1545
tr	-1546
▁ພຣະ	-1547
ເລີ່ມ	-1548
▁phép	-1549
▁ຢ່າກ	-1550
ຕິກ	-1551
▁truyền	-1552
▁thuộc	-1553
he	-1554
▁hết	-1555
▁tiếng	-1556
ຸລະກ	-1557
▁nghĩa	-1558
▁Nó	-1559
những	-1560
ຖ້າ	-1561
▁tới	-1562
ãi	-1563
ຜົກ	-1564
▁bên	-1565
▁ບັກ	-1566
-5	-1567
ເຫຼ	-1568
▁lịch	-1569
▁khả	-1570
ເທກ	-1571
ນຂອກ	-1572
▁ban	-1573
▁ກໍາ	-1574
▁ອີກ	-1575
Es	-1576
ຍາຍາມ	-1577
ik	-1578
▁chuẩn	-1579
▁thềEth	-1580
13	-1581
▁tềEchức	-1582
ສົກ	-1583
້ຮັບການ	-1584
▁ngay	-1585
▁tiến	-1586
▁tích	-1587
và	-1588
▁ສາ	-1589
ພື້ນ	-1590
yl	-1591
▁chiến	-1592
ຸດສາຫະກ	-1593
Ec	-1594
ສະຫນາ	-1595
▁ທີ	-1596
EW	-1597
ືອ	-1598
ຕອນ	-1599
▁di	-1600
▁ນັກ	-1601
▁cá	-1602
▁âm	-1603
່ອນແ	-1604
zh	-1605
ina	-1606
ິດທິ	-1607
ềEtrợ	-1608
là	-1609
75	-1610
▁bài	-1611
ươi	-1612
cm	-1613
ຮູ້ສຶກ	-1614
ash	-1615
ໍາມະ	-1616
ຫົວ	-1617
▁ba	-1618
▁ນີ້	-1619
EI	-1620
▁hãy	-1621
ທີ່ສຸດ	-1622
ະລັກ	-1623
▁cô	-1624
iềm	-1625
▁đời	-1626
▁Trang	-1627
▁lợi	-1628
▁chương	-1629
ເສດ	-1630
▁ແມ່ກ	-1631
35	-1632
▁tưởng	-1633
▁ai	-1634
▁áp	-1635
ຜະລິກ	-1636
▁chí	-1637
▁Man	-1638
ລອກ	-1639
ແມແ	-1640
ົ້າກ	-1641
▁ການກ	-1642
▁ໂທລະ	-1643
ສະຫນອກ	-1644
▁ngoài	-1645
ີເມ	-1646
▁luôn	-1647
▁#	-1648
àu	-1649
▁thêm	-1650
▁chuyên	-1651
ເຮົ	-1652
▁tức	-1653
ຂໍ້ມູນ	-1654
▁Ho	-1655
ເຮັດວຽກ	-1656
act	-1657
▁st	-1658
ນກ	-1659
▁ຊີ	-1660
ໂຫລກ	-1661
▁đánh	-1662
24	-1663
▁Hãy	-1664
ັດແ	-1665
▁tương	-1666
EE	-1667
age	-1668
▁cảnh	-1669
ox	-1670
▁tử	-1671
▁màu	-1672
▁xác	-1673
▁ຫລາກ	-1674
▁dài	-1675
▁dùng	-1676
ັມ	-1677
ັນແ	-1678
ềEthu	-1679
ແລະການ	-1680
ພັດທະນາ	-1681
ຸ້ກ	-1682
ặng	-1683
ອະ	-1684
▁khó	-1685
ຕີ	-1686
ພກ	-1687
▁tuyệt	-1688
ຂະຫນ	-1689
▁ຜະລິດ	-1690
▁mang	-1691
ຫານ	-1692
ເຫລ	-1693
ov	-1694
▁tối	-1695
▁tuổi	-1696
ໂຮກ	-1697
ປ້ອກ	-1698
▁thư	-1699
▁ລັບ	-1700
ຕະພັກ	-1701
▁ềEđ	-1702
▁ພາກ	-1703
▁:	-1704
ide	-1705
▁tải	-1706
ềEthành	-1707
oc	-1708
▁bán	-1709
các	-1710
▁Pr	-1711
ຸດສາຫະກໍາ	-1712
▁Hack	-1713
ມະ	-1714
▁hềEthống	-1715
are	-1716
▁địa	-1717
ສຽກ	-1718
lect	-1719
▁văn	-1720
▁ເຫດ	-1721
không	-1722
.6	-1723
ass	-1724
▁©	-1725
▁ຮູບ	-1726
ắm	-1727
▁ຟ	-1728
ive	-1729
▁cuối	-1730
▁minh	-1731
-0	-1732
▁đáng	-1733
▁ພາ	-1734
ít	-1735
້ນກ	-1736
▁xây	-1737
▁ລາກ	-1738
Th	-1739
▁dềE	-1740
▁ຂໍ	-1741
ằm	-1742
▁ທໍາ	-1743
ພວກເຂົາ	-1744
ນາ	-1745
ile	-1746
▁vi	-1747
18	-1748
70	-1749
▁Đại	-1750
ສຶກສາ	-1751
▁tinh	-1752
ຈຶ່ກ	-1753
▁ຕໍ່	-1754
ທຸລະກ	-1755
▁ຮູ້ສຶກ	-1756
▁túi	-1757
ພໍແ	-1758
▁ຂະຫນ	-1759
▁lẽ	-1760
ຊາວ	-1761
ຊິກ	-1762
ff	-1763
2018	-1764
ei	-1765
90	-1766
attoo	-1767
eat	-1768
້ຽກ	-1769
▁lưu	-1770
quot	-1771
▁dữ	-1772
▁ຫລື	-1773
200	-1774
▁chết	-1775
ẹp	-1776
▁đủ	-1777
ັດຖະ	-1778
▁gần	-1779
pt	-1780
ເບ	-1781
▁Ar	-1782
ບອກ	-1783
▁ເວົ້າ	-1784
ction	-1785
ປະຕິບັດ	-1786
ກ່ຽວກັບ	-1787
ຸ່ນ	-1788
▁ສີ	-1789
▁Không	-1790
ềm	-1791
ແຕກ	-1792
▁ແຜ	-1793
ແກແ	-1794
▁án	-1795
ẩu	-1796
âng	-1797
ດາກ	-1798
▁bệnh	-1799
ທໍາອິກ	-1800
▁dục	-1801
ax	-1802
ດັບ	-1803
ອະນ	-1804
▁Al	-1805
▁lọc	-1806
ເທື່ອ	-1807
ບໍລິສັດ	-1808
▁kiếm	-1809
ev	-1810
ນິ	-1811
-8	-1812
▁tín	-1813
▁khỏi	-1814
▁ເບິ່ກ	-1815
▁hữu	-1816
our	-1817
ite	-1818
▁luận	-1819
▁ສອກ	-1820
▁<	-1821
▁nghe	-1822
▁chống	-1823
▁tượng	-1824
ẵn	-1825
▁ແທ	-1826
ideo	-1827
▁kiểm	-1828
ອາດ	-1829
▁Vì	-1830
ຈໍານ	-1831
ແລະກ	-1832
▁yếu	-1833
▁khoản	-1834
▁ກັບ	-1835
▁ອອກ	-1836
▁Â	-1837
một	-1838
▁dạy	-1839
old	-1840
▁40	-1841
▁dù	-1842
▁thềEđược	-1843
ແຕ່ກ	-1844
▁hưởng	-1845
▁22	-1846
ປະເທດ	-1847
-3	-1848
▁by	-1849
ne	-1850
▁giữa	-1851
▁Col	-1852
▁thép	-1853
ຊົກ	-1854
ນນະ	-1855
▁60	-1856
▁2015	-1857
ຕັດ	-1858
▁Anh	-1859
▁ເຫັກ	-1860
ick	-1861
▁nguyên	-1862
ໍາເນ	-1863
▁ống	-1864
17	-1865
ec	-1866
ດຽວ	-1867
▁ເທ	-1868
ຖາມ	-1869
ish	-1870
▁ສັກ	-1871
▁đềEb	-1872
▁viết	-1873
▁ລາ	-1874
▁mềE	-1875
▁mềm	-1876
ເດັກ	-1877
▁ຫາກ	-1878
▁ດ້ວກ	-1879
ww	-1880
▁quản	-1881
▁đàn	-1882
▁linh	-1883
▁chỉnh	-1884
▁ຫາ	-1885
▁Giáo	-1886
ລະຫວ່າກ	-1887
ho	-1888
ịu	-1889
ows	-1890
▁ISO	-1891
▁giống	-1892
ượt	-1893
▁họ	-1894
ສົນ	-1895
▁Ro	-1896
ech	-1897
ບຸກ	-1898
.000	-1899
ຊື່	-1900
▁cộng	-1901
▁kẻ	-1902
▁giữ	-1903
▁Mark	-1904
ềEtrong	-1905
EU	-1906
23	-1907
▁ສຸກ	-1908
▁thềEt	-1909
▁An	-1910
▁trả	-1911
▁xuống	-1912
▁thưởng	-1913
ial	-1914
oly	-1915
ຫນຸ່ມ	-1916
▁phúc	-1917
▁ຝ	-1918
ຕາກ	-1919
▁dây	-1920
▁giảng	-1921
ແຕ່	-1922
▁EV	-1923
▁kim	-1924
ເລັກ	-1925
▁sát	-1926
Ep	-1927
eg	-1928
▁bà	-1929
▁ພິ	-1930
ບໍລິການ	-1931
ຫ້ອກ	-1932
▁tra	-1933
▁tềE	-1934
ừa	-1935
▁Pl	-1936
▁thần	-1937
14	-1938
▁nhóm	-1939
▁biến	-1940
EK	-1941
▁En	-1942
iệp	-1943
▁ເດືອນ	-1944
òa	-1945
▁Sự	-1946
tern	-1947
▁Casino	-1948
▁đềEth	-1949
ນ໌	-1950
,000	-1951
▁sẵn	-1952
▁nhiệt	-1953
▁tội	-1954
▁khẩu	-1955
າຍຸ	-1956
▁86	-1957
▁tuần	-1958
up	-1959
iếp	-1960
ບໍ່ແ	-1961
ເຊິ່ກ	-1962
▁diện	-1963
.4	-1964
▁ລິ	-1965
▁xăm	-1966
▁vài	-1967
▁Người	-1968
▁mô	-1969
▁Con	-1970
▁ຫນຶ່ກ	-1971
ສານ	-1972
▁cửa	-1973
▁ຂ້າ	-1974
roid	-1975
ửi	-1976
▁đưa	-1977
້າວ	-1978
ດ້ວຍ	-1979
▁đóng	-1980
ເທົ່າ	-1981
ຕໍ	-1982
ໂຫຍ	-1983
aser	-1984
▁ນ້ໍາ	-1985
ທົດ	-1986
ການແ	-1987
ະນໍາ	-1988
▁danh	-1989
900	-1990
uyến	-1991
▁ĐềE	-1992
▁diềE	-1993
ເຂົ້າແ	-1994
່າມ	-1995
▁Âu	-1996
uồn	-1997
ຮອກ	-1998
▁cây	-1999
▁trí	-2000
ພູ	-2001
ẩy	-2002
của	-2003
▁ຈິກ	-2004
EO	-2005
ậm	-2006
▁nhập	-2007
▁rộng	-2008
ຊ່ວຍ	-2009
▁ước	-2010
▁ສໍາລັກ	-2011
ປຸກ	-2012
້າຍ	-2013
▁ຍັກ	-2014
່ນດິກ	-2015
lot	-2016
ັ້ມ	-2017
ຈົກ	-2018
▁đau	-2019
▁00	-2020
ເຜ	-2021
ກົກ	-2022
ềEvà	-2023
▁ເອົາ	-2024
▁vời	-2025
ບໍ່ມີ	-2026
ộn	-2027
ຜິກ	-2028
ປ່ຽນແ	-2029
ລແ	-2030
ມ່ນ	-2031
ນທີ່	-2032
ert	-2033
ກໍາລັກ	-2034
▁tranh	-2035
ເຫມ	-2036
ດ້ານ	-2037
່ຽວກັກ	-2038
▁cáo	-2039
ator	-2040
▁2014	-2041
ss	-2042
▁i	-2043
▁buổi	-2044
ເລກ	-2045
▁ký	-2046
ເອີ	-2047
,5	-2048
▁xảy	-2049
▁xung	-2050
ໍລະ	-2051
▁--	-2052
▁ສາມາກ	-2053
▁ດີ	-2054
▁ích	-2055
▁ຕໍແ	-2056
▁vọng	-2057
▁thử	-2058
ື້	-2059
▁toán	-2060
▁ຕອກ	-2061
▁chềEđ	-2062
▁khoảng	-2063
▁Mỹ	-2064
▁kiến	-2065
ມົດ	-2066
▁lỗi	-2067
▁nguyện	-2068
end	-2069
▁cải	-2070
▁nhanh	-2071
ge	-2072
▁Sau	-2073
ໂຕ	-2074
ans	-2075
ich	-2076
ທີ່ດີ	-2077
28	-2078
ix	-2079
ạp	-2080
▁chân	-2081
ກ່າວ	-2082
▁ສ້າກ	-2083
▁thềEch	-2084
uro	-2085
ຂີ້	-2086
ຖະກ	-2087
▁Tất	-2088
ềEcủa	-2089
ps	-2090
▁Chủ	-2091
▁thúc	-2092
▁đứa	-2093
ໂນໂລ	-2094
indows	-2095
▁ລາຍ	-2096
▁ສິກ	-2097
▁ຮູແ	-2098
▁trời	-2099
▁thiện	-2100
ດແ	-2101
ະນຸກ	-2102
NH	-2103
ສູແ	-2104
▁tù	-2105
▁Kích	-2106
▁nhiệm	-2107
ືນ	-2108
ື້ອກ	-2109
▁xã	-2110
▁vềEt	-2111
ນອກ	-2112
▁Un	-2113
own	-2114
▁Tải	-2115
▁riêng	-2116
ວາ	-2117
▁~	-2118
.00	-2119
ຈ້ກ	-2120
▁23	-2121
ເຫລື	-2122
▁suất	-2123
▁triệu	-2124
ຢາ	-2125
ậu	-2126
ກອກ	-2127
ລະອ	-2128
ແຂກ	-2129
▁of	-2130
▁vẫn	-2131
▁ສາກ	-2132
▁ວິທີ	-2133
ລາຍ	-2134
▁bềEđ	-2135
ລີ	-2136
ອບແ	-2137
kg	-2138
ິ້ກ	-2139
▁2020	-2140
ຜ່ານມາ	-2141
ັກໂນໂລ	-2142
.9	-2143
▁ຈົ່ກ	-2144
▁ຫຼັກ	-2145
▁ຕິດ	-2146
ເຊັ່ກ	-2147
.8	-2148
ah	-2149
ກະທ	-2150
ຫມາຍ	-2151
ịnh	-2152
▁rồi	-2153
▁tấm	-2154
inter	-2155
▁mại	-2156
▁kích	-2157
▁ປະເພດ	-2158
▁bềEb	-2159
▁hềEs	-2160
▁ເມືອກ	-2161
▁•	-2162
ສັບ	-2163
ື້ກ	-2164
ແຮກ	-2165
▁BềE	-2166
▁tên	-2167
ore	-2168
ທະຍາແ	-2169
ຫກ	-2170
ເລີກ	-2171
ປະໂຫຍ	-2172
▁Đông	-2173
▁Làm	-2174
້ຖືກ	-2175
▁cập	-2176
ດອກ	-2177
້ຽມ	-2178
▁Tuy	-2179
ຜະລິດຕະພັນ	-2180
ໂອ	-2181
▁Sp	-2182
▁ລົກ	-2183
▁mm	-2184
ຂ່າວ	-2185
້ອຍແ	-2186
▁dưới	-2187
ndroid	-2188
▁ໂຮກ	-2189
▁biểu	-2190
ຂະນະ	-2191
▁trái	-2192
ື່ມ	-2193
▁Ser	-2194
▁mạng	-2195
▁ເຊິ່ກ	-2196
ປ່ຽນແປກ	-2197
ອັນ	-2198
▁chung	-2199
▁ຫວຽດນາມ	-2200
ost	-2201
▁niên	-2202
ັບສະຫນ	-2203
ຜິດ	-2204
▁trợ	-2205
▁nhu	-2206
night	-2207
gắng	-2208
ຈະແ	-2209
▁Su	-2210
▁ເຊື່ອ	-2211
ບ້າກ	-2212
người	-2213
22	-2214
▁lành	-2215
EV	-2216
IN	-2217
▁tả	-2218
▁ໂທລະສັກ	-2219
▁2013	-2220
▁Rong	-2221
▁ຊຶ່ກ	-2222
▁ເພິ່ກ	-2223
ເດີ	-2224
▁Sản	-2225
▁hềEtrợ	-2226
ets	-2227
▁21	-2228
iếc	-2229
ອນແ	-2230
▁hút	-2231
ram	-2232
ok	-2233
ສະຖານ	-2234
▁dành	-2235
iêm	-2236
▁ແຂ	-2237
ບ່ອກ	-2238
▁Liên	-2239
▁hy	-2240
▁ຫລ	-2241
ປ່ຽກ	-2242
ະຊຸມ	-2243
ສໍາລັບການ	-2244
....	-2245
.7	-2246
▁sắc	-2247
ເຊື່ອມ	-2248
▁đa	-2249
ber	-2250
icro	-2251
▁nền	-2252
ມືແ	-2253
ຶ້ກ	-2254
▁ຕາມ	-2255
ດໍາເນ	-2256
▁giảm	-2257
du	-2258
▁mặc	-2259
▁gặp	-2260
▁Dust	-2261
ແຕກຕ່າກ	-2262
ens	-2263
ກໍ່	-2264
ຮຽນ	-2265
▁ຂ້ອກ	-2266
▁ánh	-2267
▁bềEl	-2268
▁chia	-2269
▁ຫນັກ	-2270
éo	-2271
▁Min	-2272
AC	-2273
ພະຍາຍາມ	-2274
-6	-2275
▁nội	-2276
ຮັກສາ	-2277
nên	-2278
coin	-2279
AS	-2280
úa	-2281
ຂໍແ	-2282
ຕະລ	-2283
▁trưởng	-2284
ສູນ	-2285
▁Com	-2286
ເຫດ	-2287
▁Fl	-2288
▁ນະ	-2289
່ວາ	-2290
▁Đối	-2291
▁đẹp	-2292
▁Loại	-2293
ລວມ	-2294
ອດແ	-2295
▁đỡ	-2296
▁thiên	-2297
▁đềEgi	-2298
Eb	-2299
ưỡ	-2300
ຊ່ວກ	-2301
▁ເຫດກາກ	-2302
▁€	-2303
ຊືແ	-2304
lock	-2305
▁vềEs	-2306
ທີ່ມີກ	-2307
▁duy	-2308
▁bóng	-2309
lector	-2310
▁ພັກ	-2311
▁ít	-2312
▁mù	-2313
▁sợi	-2314
▁xin	-2315
▁ຫນ້າທໍາອິກ	-2316
▁Ô	-2317
ngh	-2318
▁áo	-2319
iếng	-2320
ຊຶ່ກ	-2321
ềElại	-2322
ຣີ	-2323
ເພື່ອກ	-2324
2,	-2325
ຂ້າກ	-2326
88	-2327
iang	-2328
ປັບ	-2329
▁gửi	-2330
▁chịu	-2331
▁sẻ	-2332
▁trai	-2333
▁nguồn	-2334
ູດ	-2335
າມແ	-2336
▁càng	-2337
▁Đây	-2338
essoft	-2339
ອົບ	-2340
▁Cl	-2341
▁cực	-2342
▁ຈໍາ	-2343
ຊີວິດ	-2344
▁ຕາ	-2345
▁ơn	-2346
ວ່າກ	-2347
▁cềEgắng	-2348
ທຶກ	-2349
ພົກ	-2350
olog	-2351
▁nổi	-2352
ປະກອບ	-2353
33	-2354
cK	-2355
iss	-2356
▁phản	-2357
▁đềEh	-2358
▁ຫມາກ	-2359
Tr	-2360
▁mức	-2361
ປະສົກ	-2362
ve	-2363
▁j	-2364
ure	-2365
ສິນ	-2366
▁rõ	-2367
▁Van	-2368
ຽວກ	-2369
▁hôm	-2370
▁ສູກ	-2371
▁phong	-2372
▁sĩ	-2373
▁đạt	-2374
-4	-2375
▁26	-2376
▁ນາ	-2377
▁ເລື່ອກ	-2378
cho	-2379
▁mất	-2380
▁ngành	-2381
ຽບ	-2382
amp	-2383
ຮ່າກ	-2384
cKnight	-2385
ເກີດ	-2386
▁500	-2387
▁ນອກ	-2388
▁ອີເມ	-2389
--	-2390
line	-2391
ເຮືອກ	-2392
▁luật	-2393
▁casino	-2394
▁xa	-2395
▁đềEtr	-2396
ຕົວຢ່າກ	-2397
▁thềEtrường	-2398
">	-2399
▁xử	-2400
▁ຂແ	-2401
ộp	-2402
100	-2403
ບ່ກ	-2404
▁Ex	-2405
▁ngươi	-2406
▁start	-2407
able	-2408
ãn	-2409
ank	-2410
int	-2411
ິດແ	-2412
▁35	-2413
▁nối	-2414
ມ່	-2415
▁ເນ	-2416
▁gềE	-2417
▁ຫນາ	-2418
▁phạm	-2419
ນະກ	-2420
ເກັບ	-2421
Em	-2422
ếp	-2423
ịa	-2424
▁Car	-2425
▁từng	-2426
ud	-2427
ຫຼາຍກ	-2428
ổn	-2429
▁ຂ້ອຍ	-2430
▁độc	-2431
▁đúng	-2432
EJ	-2433
ຶດ	-2434
▁đá	-2435
▁lấy	-2436
ລັດຖະ	-2437
▁đông	-2438
az	-2439
ຂາກ	-2440
ກະຕິ	-2441
ຫຼືອ	-2442
ມາຊິກ	-2443
▁chẳng	-2444
UR	-2445
tt	-2446
▁dur	-2447
▁loạt	-2448
her	-2449
າດຕະ	-2450
▁ຈຶ່ກ	-2451
▁ດາວນ໌	-2452
▁EVessoft	-2453
▁Đó	-2454
▁gái	-2455
▁lạc	-2456
▁thiếu	-2457
ປັນ	-2458
▁Với	-2459
▁gây	-2460
ice	-2461
ກັນ	-2462
▁ແກ	-2463
▁Phi	-2464
▁ລະຫ	-2465
▁(201	-2466
▁chưa	-2467
với	-2468
ເຂົ້າຮ່ວມ	-2469
ັກກ	-2470
▁mối	-2471
▁đôi	-2472
▁khoa	-2473
ນນະພາບ	-2474
▁hoạch	-2475
ủng	-2476
ຂະຫຍ	-2477
ປະຊາ	-2478
ປົວ	-2479
ຜ່າກ	-2480
▁Collector	-2481
▁No	-2482
▁ມາກ	-2483
▁ວັນ	-2484
ຍອມ	-2485
ວັນ	-2486
ເຫລືອ	-2487
▁đềElàm	-2488
ແຫນ	-2489
▁vận	-2490
èn	-2491
orm	-2492
▁ອະ	-2493
▁lao	-2494
▁môi	-2495
ester	-2496
ໂດ	-2497
▁u	-2498
ລົມ	-2499
▁bảng	-2500
▁chiếc	-2501
▁hôn	-2502
▁họp	-2503
.,	-2504
▁thánh	-2505
ໍ້າ	-2506
▁trềEthành	-2507
ຍິ່ກ	-2508
▁phủ	-2509
▁đềEn	-2510
ໂອກ	-2511
nt	-2512
ລຸ	-2513
▁Ngày	-2514
▁ngôn	-2515
gle	-2516
ັ້ນແ	-2517
▁ສົກ	-2518
▁chắc	-2519
ower	-2520
▁mắt	-2521
ingbo	-2522
▁tiện	-2523
ຶນ	-2524
▁Bản	-2525
▁ຫົວ	-2526
ru	-2527
ພະລັກ	-2528
1)	-2529
74	-2530
uang	-2531
▁suy	-2532
▁tùy	-2533
ire	-2534
ຝຶກ	-2535
ພິມ	-2536
io	-2537
ອຍ	-2538
oll	-2539
▁chức	-2540
▁ກ່ອກ	-2541
ິວ	-2542
ork	-2543
ແປກ	-2544
▁nỗi	-2545
ຈັດຕັ້ກ	-2546
ບັນຫາ	-2547
▁hềEđã	-2548
▁quý	-2549
ສາມາດແ	-2550
26	-2551
uyết	-2552
ພະຍາກ	-2553
ຕູ	-2554
ພາຍແ	-2555
ເສດຖະກ	-2556
▁Bl	-2557
▁al	-2558
▁ມະ	-2559
ef	-2560
▁du	-2561
▁xúc	-2562
▁ວິກ	-2563
36	-2564
77	-2565
ສຸ	-2566
▁Hai	-2567
▁ດາວນ໌ໂຫລກ	-2568
2)	-2569
▁Cu	-2570
▁ຢູ່	-2571
ສະເຫນ	-2572
ເຮົາມ	-2573
▁Trước	-2574
ree	-2575
▁cử	-2576
onus	-2577
▁Giá	-2578
▁giả	-2579
▁nặng	-2580
▁ຂະ	-2581
▁khăn	-2582
ທິດ	-2583
ບົກ	-2584
ỏng	-2585
dàng	-2586
ວ່າມ	-2587
▁ອັກ	-2588
▁ຂ່າວ	-2589
:/	-2590
▁Tại	-2591
▁quanh	-2592
▁giản	-2593
▁thảo	-2594
▁vợ	-2595
ລ້ຽກ	-2596
ແຜ່ນດິກ	-2597
▁phối	-2598
8,	-2599
▁70	-2600
▁AS	-2601
▁ກອກ	-2602
ology	-2603
oogle	-2604
▁Phần	-2605
▁tỉnh	-2606
▁ອີເມລແ	-2607
ary	-2608
▁La	-2609
ວ້າກ	-2610
▁đảm	-2611
ບົດ	-2612
▁ຊື່	-2613
▁dung	-2614
▁thiệu	-2615
Ph	-2616
://	-2617
▁bé	-2618
▁đẩy	-2619
▁niềm	-2620
▁thềEb	-2621
▁1,	-2622
rypt	-2623
õi	-2624
ໂຍ	-2625
▁cắt	-2626
▁tho	-2627
▁chấp	-2628
ຈຸດ	-2629
ຟັກ	-2630
▁ຢາກ	-2631
▁nhựa	-2632
▁ພວກເຂົາ	-2633
ທານ	-2634
▁ທະ	-2635
ເຫຼືອ	-2636
▁Main	-2637
ສະນະ	-2638
▁đềEs	-2639
China	-2640
▁nhật	-2641
▁ເຮັດ	-2642
ພຣະອົກ	-2643
echn	-2644
▁kính	-2645
ມົກ	-2646
ປະເທກ	-2647
▁Thiết	-2648
NC	-2649
ເສຍ	-2650
▁Ad	-2651
ຕະຫຼ	-2652
uôi	-2653
▁dạng	-2654
ía	-2655
ເທິກ	-2656
▁mật	-2657
▁mừng	-2658
▁ເພີ່ມ	-2659
ົບການ	-2660
▁tịch	-2661
org	-2662
▁ເຈ	-2663
ພາສາ	-2664
▁gói	-2665
▁phá	-2666
▁lớp	-2667
▁lựa	-2668
▁đoàn	-2669
ຝຸ່ນ	-2670
▁sang	-2671
▁vềEc	-2672
VC	-2673
pr	-2674
ins	-2675
▁Em	-2676
▁Ste	-2677
ຕະລາກ	-2678
▁lãnh	-2679
▁nhạc	-2680
itcoin	-2681
ace	-2682
ນທາກ	-2683
ົນຕີ	-2684
▁ghi	-2685
▁ຊົ່ວ	-2686
▁ຊີວິກ	-2687
95	-2688
OS	-2689
uan	-2690
ແມ່	-2691
▁bày	-2692
▁Ông	-2693
▁ສະນ	-2694
▁ແນວ	-2695
ປະຊຸມ	-2696
▁ຫຼາກ	-2697
ດົກ	-2698
ົບກ	-2699
▁Do	-2700
▁Equ	-2701
▁tôn	-2702
▁ພຽກ	-2703
▁thất	-2704
rom	-2705
▁bàn	-2706
▁mẫu	-2707
▁thú	-2708
óp	-2709
orex	-2710
▁HềE	-2711
▁tốc	-2712
▁quân	-2713
ິ່ນປົວ	-2714
▁300	-2715
▁Euro	-2716
▁đăng	-2717
▁bềEph	-2718
▁thềElàm	-2719
▁e	-2720
▁giác	-2721
ont	-2722
ຫໍແ	-2723
ຮ້າກ	-2724
▁phút	-2725
▁?	-2726
der	-2727
▁Am	-2728
▁ຕົ	-2729
▁bước	-2730
▁ຫລັກ	-2731
ຈໍານວນ	-2732
cr	-2733
ໍານາກ	-2734
▁khai	-2735
ສາດສະຫນາ	-2736
ຫລວກ	-2737
▁thủy	-2738
▁đứng	-2739
ທີ່ທ່ານ	-2740
TD	-2741
ນ້ອຍ	-2742
▁cạnh	-2743
▁thềEh	-2744
▁Koh	-2745
▁ທີ່ຢູແ	-2746
ão	-2747
let	-2748
ee	-2749
▁To	-2750
▁ວຽກ	-2751
ຂະສິກ	-2752
▁Nhận	-2753
ສະເພາະ	-2754
▁phù	-2755
▁đấu	-2756
press	-2757
▁đềEx	-2758
ົ່ມ	-2759
ຂຶ້ນກ	-2760
ເຫມາະ	-2761
▁phước	-2762
ດໍາເນີນ	-2763
85	-2764
ລະດັບ	-2765
ase	-2766
ated	-2767
▁TNH	-2768
▁ພໍແ	-2769
▁chắn	-2770
▁vùng	-2771
vir	-2772
▁Kỳ	-2773
▁vv	-2774
ພະອົກ	-2775
ອະນຸ	-2776
▁ສ່ວກ	-2777
▁the	-2778
▁Địa	-2779
▁Slot	-2780
▁TNHH	-2781
▁CH	-2782
ebei	-2783
▁nằm	-2784
▁bềEm	-2785
ທີ່ສຸກ	-2786
▁thách	-2787
ຸ້ມ	-2788
▁chiều	-2789
ສິດ	-2790
▁27	-2791
▁ngữ	-2792
ານຂອກ	-2793
▁đềEl	-2794
ອອກແບບ	-2795
▁khiển	-2796
21	-2797
ames	-2798
▁Sam	-2799
ຖືກຕ້ອກ	-2800
▁trềEnên	-2801
ưỡng	-2802
▁thềEc	-2803
ທຸລະກິກ	-2804
ຊວກ	-2805
ພ້ອມ	-2806
▁Thời	-2807
▁ອຸປະກອນ	-2808
▁lâu	-2809
້ເຫັນ	-2810
man	-2811
ສັ່ກ	-2812
▁=	-2813
ear	-2814
ແກ້ແ	-2815
▁ຊາກ	-2816
▁sạch	-2817
▁thấp	-2818
9,	-2819
▁CO	-2820
ເມລິກ	-2821
▁tổng	-2822
ົ່ານີ້	-2823
ຫລອກ	-2824
ດູ	-2825
▁bạc	-2826
▁hồi	-2827
attoos	-2828
▁trách	-2829
ມື້ນ	-2830
▁vải	-2831
▁ໂລກ	-2832
▁ສົມ	-2833
▁video	-2834
▁°	-2835
▁ເວລາ	-2836
▁ຍາ	-2837
ical	-2838
zhou	-2839
ສະພາ	-2840
ềEcó	-2841
ມີການ	-2842
ສອບ	-2843
ຸນາ	-2844
ສົມບ	-2845
AM	-2846
ock	-2847
Ed	-2848
ug	-2849
ipment	-2850
ld	-2851
ທົກ	-2852
ທ້ອກ	-2853
▁Việc	-2854
▁Ningbo	-2855
ຂັກ	-2856
ສາຍ	-2857
້ການ	-2858
▁mua	-2859
▁mong	-2860
af	-2861
uổi	-2862
ຂໍ້	-2863
ດຽວກ	-2864
▁bềEs	-2865
SD	-2866
ິມ	-2867
▁Air	-2868
▁đích	-2869
▁ກ່ຽວ	-2870
ຊະ	-2871
ຍາວ	-2872
ຢັ້ກ	-2873
ເຕີມ	-2874
▁Bot	-2875
▁đềEm	-2876
ປິ່ນປົວ	-2877
eth	-2878
ube	-2879
ຢາມ	-2880
ຊ່ອກ	-2881
▁vòng	-2882
▁Prote	-2883
ipp	-2884
▁ກິກ	-2885
▁Mach	-2886
▁ຮ້າກ	-2887
ລໍາ	-2888
▁sợ	-2889
ປອດແ	-2890
▁vềEv	-2891
aw	-2892
▁Mar	-2893
▁ຊາວ	-2894
ປະເພດ	-2895
ເປັນກ	-2896
▁ຖະຫນ	-2897
▁Thành	-2898
Ef	-2899
ຂແ	-2900
▁You	-2901
▁đọc	-2902
້ເວລາ	-2903
▁ພະລັກ	-2904
ກໍ	-2905
ພູມ	-2906
▁lĩnh	-2907
▁thậm	-2908
▁vĩnh	-2909
▁nam	-2910
▁ແດກ	-2911
▁thống	-2912
ons	-2913
▁xứ	-2914
▁đô	-2915
ized	-2916
ຕົ້ກ	-2917
▁ຮັບ	-2918
▁ຫ້ອກ	-2919
ສະຫນັບສະຫນ	-2920
▁bây	-2921
▁đội	-2922
ປະຈໍາ	-2923
▁đoạn	-2924
ແສກ	-2925
▁cm	-2926
▁gh	-2927
ັດຈຸ	-2928
▁bánh	-2929
▁chạy	-2930
▁ແລະອື່ນແ	-2931
▁»	-2932
ບາຍ	-2933
▁2,	-2934
▁Hy	-2935
▁vẻ	-2936
້ນໍາ	-2937
▁tắc	-2938
ທົ່ວແ	-2939
▁ຈໍານ	-2940
▁dềEdàng	-2941
ຊົມ	-2942
▁ຕະ	-2943
▁ກົກ	-2944
▁ປົກ	-2945
▁ວັກ	-2946
▁thăm	-2947
▁ຊ່ອກ	-2948
▁ຂະຫນາກ	-2949
ue	-2950
ót	-2951
enc	-2952
ເປີດ	-2953
▁Sol	-2954
▁Val	-2955
▁ຜະລິດຕະພັກ	-2956
ປາກ	-2957
▁ພ້ອມ	-2958
▁Equipment	-2959
ຊັກ	-2960
▁thủ	-2961
▁biển	-2962
▁thềEgi	-2963
3,	-2964
94	-2965
ຈາລະ	-2966
ັ່ນຕອກ	-2967
▁GB	-2968
ກ່ອກ	-2969
ໂທລະ	-2970
▁hại	-2971
ềElực	-2972
▁ຫວັກ	-2973
າມເປັນ	-2974
AN	-2975
log	-2976
ຂາຍ	-2977
ຫມັກ	-2978
່ການ	-2979
▁Gr	-2980
ເຕັມ	-2981
ເດີນທາກ	-2982
ທ່ອກ	-2983
ບຸກກ	-2984
ລ້ອມ	-2985
▁hoá	-2986
▁htt	-2987
ມະນຸກ	-2988
▁đềEph	-2989
▁Europe	-2990
ID	-2991
ood	-2992
ົດແ	-2993
ົນແ	-2994
▁Lu	-2995
▁tỷ	-2996
ັດຕະ	-2997
▁mai	-2998
▁Danh	-2999
ຮູ້ຈັກ	-3000
▁giềEđ	-3001
▁ngoại	-3002
EAN	-3003
ມານ	-3004
ິລາ	-3005
▁sứ	-3006
ຫລາຍ	-3007
▁EUR	-3008
▁Theo	-3009
▁McKnight	-3010
ri	-3011
ອາຍຸ	-3012
ເຂັ້ມ	-3013
▁thuận	-3014
ປົກກະຕິ	-3015
echnology	-3016
▁Hoa	-3017
▁ເດັກ	-3018
າວິ	-3019
ແທກ	-3020
▁ຊອກ	-3021
▁Chiều	-3022
ຣະກ	-3023
ຮູກ	-3024
ຶ້ນ	-3025
ເຊື້ອ	-3026
ວິທະຍາ	-3027
ຮົມ	-3028
▁ຕັ້ກ	-3029
ead	-3030
▁Bonus	-3031
ຖົກ	-3032
▁kỷ	-3033
▁ເກມ	-3034
li	-3035
ເຂດ	-3036
▁chú	-3037
▁giấy	-3038
▁Á	-3039
ປັກ	-3040
ລູກກ	-3041
▁soát	-3042
▁ປະຕິ	-3043
ອົບຮົມ	-3044
ຕໍ່ແ	-3045
▁dấu	-3046
▁ràng	-3047
▁chồng	-3048
▁thuốc	-3049
▁đềEcó	-3050
▁Nê	-3051
ປັບປຸກ	-3052
ແນະນໍາ	-3053
▁email	-3054
▁liêng	-3055
ith	-3056
▁LTD	-3057
▁cam	-3058
▁vàng	-3059
▁Printer	-3060
GH	-3061
▁ấn	-3062
▁sai	-3063
າມສຸກ	-3064
▁vềEm	-3065
ດິນ	-3066
load	-3067
ຊົ່ວ	-3068
▁ຍົກ	-3069
▁Chúa	-3070
▁sềEl	-3071
▁Android	-3072
▁et	-3073
ບ່ອນ	-3074
▁ອິກ	-3075
ềEthuật	-3076
65	-3077
ame	-3078
▁dòng	-3079
▁mười	-3080
ເຕັກໂນໂລ	-3081
DF	-3082
▁la	-3083
▁Ind	-3084
▁nâng	-3085
▁sềEh	-3086
▁xanh	-3087
▁Protection	-3088
ສັນ	-3089
eal	-3090
aric	-3091
າຖາມ	-3092
ິດສະ	-3093
▁Thứ	-3094
▁Vậy	-3095
▁thi	-3096
▁đức	-3097
ລະບົບ	-3098
ອາກາດ	-3099
ting	-3100
ເຫລົ່າ	-3101
່ຽວຂ້ອກ	-3102
ềEtrí	-3103
▁1000	-3104
▁thập	-3105
onment	-3106
ໍ່ສ້າກ	-3107
▁Chính	-3108
27	-3109
ON	-3110
້ຈ	-3111
nhà	-3112
ື່ນ	-3113
ềEtừ	-3114
ເສົ້າ	-3115
▁vềEđ	-3116
▁thềEd	-3117
▁Intern	-3118
vironment	-3119
ນິກ	-3120
▁New	-3121
ເວັບແ	-3122
▁ເລືອກ	-3123
▁Túi	-3124
▁sâu	-3125
▁ຕາກ	-3126
▁ຮ່ວມ	-3127
ວກເຂົາ	-3128
ón	-3129
ປວກ	-3130
▁đền	-3131
▁ແທແ	-3132
▁buồn	-3133
▁nuôi	-3134
ອຸປະກອນ	-3135
òi	-3136
nes	-3137
ilic	-3138
TA	-3139
de	-3140
ium	-3141
▁Từ	-3142
▁Lan	-3143
▁truy	-3144
▁vềEnhững	-3145
ota	-3146
ater	-3147
▁bào	-3148
▁cấu	-3149
ery	-3150
lic	-3151
▁ເສກ	-3152
▁Cách	-3153
▁Road	-3154
ັດທະນະ	-3155
້ຽມຢາມ	-3156
▁ຜະລິດຕະພັນ	-3157
Et	-3158
ພົບ	-3159
▁ຕໍ່ແ	-3160
▁Environment	-3161
2017	-3162
ເພື່ອແ	-3163
ເສັ້ນ	-3164
ềEs	-3165
▁80	-3166
▁dõi	-3167
▁trì	-3168
▁ຂຶ້ກ	-3169
500	-3170
ຕອບ	-3171
▁hầu	-3172
▁phi	-3173
ວັນທີ	-3174
ສະພາບ	-3175
ink	-3176
▁TH	-3177
▁XL	-3178
▁đáp	-3179
▁suốt	-3180
ຂະຫຍາຍ	-3181
▁Botou	-3182
▁ກ່ຽວກັບ	-3183
▁ທີ່ຜ່ານມາ	-3184
▁Environmental	-3185
min	-3186
ດວກ	-3187
▁Mười	-3188
▁trải	-3189
▁ສະແດກ	-3190
ອຸດສາຫະກໍາ	-3191
sE	-3192
ປະກາກ	-3193
▁Tổng	-3194
▁hạnh	-3195
▁ຕ່າກ	-3196
ສະເຫນີ	-3197
PS	-3198
ớn	-3199
▁Hol	-3200
▁góp	-3201
ໂຮ	-3202
ຂາວ	-3203
▁Blu	-3204
▁ສົ່ກ	-3205
▁nềElực	-3206
IC	-3207
rop	-3208
ຊາຍ	-3209
▁ນີ	-3210
2019	-3211
▁dựa	-3212
be	-3213
▁loài	-3214
ໂທ	-3215
ແທ້ແ	-3216
▁Tin	-3217
▁ຕົກ	-3218
29	-3219
iber	-3220
ດວ່າ	-3221
ອາຊີ	-3222
▁ລະບ	-3223
ລະອຽກ	-3224
▁ຊ່ວກ	-3225
າມຕ້ອກ	-3226
▁ເລີ່ມ	-3227
▁mẽ	-3228
▁hiểm	-3229
2.	-3230
by	-3231
ໂມກ	-3232
ຊະນ	-3233
▁Hà	-3234
▁xo	-3235
ດ້າກ	-3236
▁vềEph	-3237
ຜະລິດຕະພັກ	-3238
:00	-3239
▁PC	-3240
▁150	-3241
▁vai	-3242
▁đêm	-3243
▁ມີກ	-3244
ກະທົບ	-3245
55	-3246
▁Mã	-3247
ສິດທິ	-3248
ml	-3249
ome	-3250
▁mã	-3251
▁hậu	-3252
▁hồn	-3253
Hebei	-3254
▁giám	-3255
ປະສິດທິ	-3256
ຕແ	-3257
ອະທິ	-3258
▁Ban	-3259
▁khắc	-3260
ຕັດສິກ	-3261
▁Windows	-3262
ົ່ານັ້ກ	-3263
76	-3264
ath	-3265
▁(3	-3266
▁ຖົກ	-3267
obile	-3268
ềElọc	-3269
▁thềEs	-3270
▁co	-3271
▁ຜົກ	-3272
ເມລິກາ	-3273
MP	-3274
ຈີກ	-3275
ເວັນ	-3276
▁khắp	-3277
ຕັກ	-3278
ົາກ	-3279
▁28	-3280
ຫຸ້ມ	-3281
▁ềEđây	-3282
▁1.	-3283
▁AP	-3284
▁tri	-3285
▁xếp	-3286
▁tảng	-3287
ຝຶກອົບຮົມ	-3288
Eh	-3289
ble	-3290
ຂົນ	-3291
▁ác	-3292
▁ນິ	-3293
ຈໍາກ	-3294
່ນອກ	-3295
▁mùa	-3296
ວິທີການ	-3297
▁ນີ້ແມ່ນ	-3298
▁ຍີ່	-3299
ອາດຈະ	-3300
AR	-3301
ade	-3302
oot	-3303
ສາວ	-3304
ຫວັດ	-3305
▁Trên	-3306
▁ນ້ອກ	-3307
ềEbiến	-3308
ron	-3309
ຂົາ	-3310
ເອກະ	-3311
▁Poly	-3312
▁hack	-3313
▁ກ່ຽວກັກ	-3314
▁45	-3315
atch	-3316
ິດຈະ	-3317
ເຫນືອ	-3318
ຮ່ວມມື	-3319
▁Micro	-3320
CH	-3321
cl	-3322
uf	-3323
ເຢ	-3324
ene	-3325
ີໂອ	-3326
▁hu	-3327
▁Tag	-3328
▁khiến	-3329
ເວລາທີ່	-3330
ແຫ	-3331
arn	-3332
▁ưu	-3333
▁ເກີກ	-3334
▁trạng	-3335
ວ່າທ່ານ	-3336
ect	-3337
ິ້ນ	-3338
້ມກ	-3339
▁Fr	-3340
▁Ngh	-3341
▁ຜ້າ	-3342
chain	-3343
ECh	-3344
ານາ	-3345
ເຈັກ	-3346
▁thiêng	-3347
▁sư	-3348
▁Tây	-3349
▁vềEth	-3350
▁ຂະຫນາດ	-3351
89	-3352
ປາ	-3353
duct	-3354
▁phê	-3355
ອຸ	-3356
ẹn	-3357
wit	-3358
ດີກ	-3359
▁hơi	-3360
▁lai	-3361
▁ngo	-3362
▁quay	-3363
▁trềEv	-3364
▁ກໍາລັກ	-3365
4,	-3366
oid	-3367
ມັດ	-3368
rộng	-3369
▁City	-3370
ຜູ້ກ	-3371
pc	-3372
ດຸ	-3373
ຣກ	-3374
lex	-3375
ond	-3376
ົ້ມ	-3377
ກຸ່ມ	-3378
າຂອກ	-3379
▁Bag	-3380
ປັດຈຸ	-3381
▁bềEt	-3382
▁thềEnh	-3383
ໍ່ແ	-3384
▁The	-3385
ສັນຍາ	-3386
ພອກ	-3387
ຂ້າມ	-3388
▁Bắc	-3389
▁van	-3390
▁chữa	-3391
ັດຕະໂນ	-3392
▁Thông	-3393
CS	-3394
IL	-3395
cc	-3396
oa	-3397
່ແ	-3398
▁đào	-3399
ຈາລະນາ	-3400
▁ປະເທດ	-3401
39	-3402
ton	-3403
uit	-3404
ບັບ	-3405
▁trữ	-3406
▁ລວມ	-3407
▁chóng	-3408
▁ອຸດສາຫະກໍາ	-3409
ແລະແ	-3410
ລັກສະນະ	-3411
ພົວ	-3412
ຫນີ	-3413
▁''	-3414
▁lẫn	-3415
ເຫຼັກ	-3416
▁vững	-3417
ໂຍກ	-3418
▁thái	-3419
ວດລ້ອມ	-3420
ush	-3421
▁Khu	-3422
▁Thái	-3423
ທ໌	-3424
ຢູ	-3425
orld	-3426
▁cửu	-3427
▁hoa	-3428
▁tuân	-3429
▁Trọng	-3430
▁khích	-3431
ສະມາຊິກ	-3432
ໂມ	-3433
ner	-3434
out	-3435
ຸນຫະ	-3436
▁mời	-3437
▁ແຂກ	-3438
ເຮົາກ	-3439
▁hềEb	-3440
▁ສັນຍາ	-3441
ເຂົາເຈົ້າ	-3442
ືບ	-3443
ສົນແ	-3444
▁bức	-3445
▁hềEc	-3446
ທົດລອກ	-3447
▁sềEngười	-3448
ບານ	-3449
ອິດ	-3450
ount	-3451
rict	-3452
▁nóng	-3453
lockchain	-3454
net	-3455
ory	-3456
▁Nội	-3457
ການເກ	-3458
▁Dist	-3459
▁trao	-3460
44	-3461
ພິວ	-3462
ອາຊ	-3463
��,	-3464
ເດືອນ	-3465
▁bềEh	-3466
ຂະຫນາດ	-3467
▁vềEch	-3468
ພື້ນຖານ	-3469
▁ນ້ໍາຫນັກ	-3470
-20	-3471
ats	-3472
ຂຽກ	-3473
▁Br	-3474
າມສະ	-3475
▁dầu	-3476
▁màn	-3477
ທີ່ເປັນ	-3478
ຸນຫະພູມ	-3479
ເພີ່ມເຕີມ	-3480
land	-3481
ກັບກ	-3482
▁vua	-3483
▁0086	-3484
yr	-3485
ics	-3486
▁khóa	-3487
▁niệm	-3488
▁vềEl	-3489
ບໍ່ແມ່ນ	-3490
▁chuyến	-3491
ລື	-3492
ົດກ	-3493
avid	-3494
ປົກກ	-3495
ມືຖື	-3496
▁chăm	-3497
���	-3498
▁ນັ້ນ	-3499
▁ສະຫນ	-3500
ໂປ	-3501
ະນາ	-3502
▁sp	-3503
▁ຍາກ	-3504
ຫນ້ອກ	-3505
ົນເອກ	-3506
▁Nhật	-3507
▁sàng	-3508
ềEtrên	-3509
▁ດາວໂຫລກ	-3510
38	-3511
CL	-3512
IS	-3513
▁Sk	-3514
▁ຕິ	-3515
ະນາກ	-3516
▁hộp	-3517
ຫຍຸ້ກ	-3518
ໍລະນີ	-3519
▁lắng	-3520
▁trắng	-3521
▁cận	-3522
▁100%	-3523
▁diệt	-3524
▁Ngoài	-3525
67	-3526
▁ac	-3527
▁ຟັກ	-3528
ເດືອກ	-3529
nesota	-3530
ປະໂຫຍດ	-3531
▁On	-3532
ອາຫາກ	-3533
▁nông	-3534
▁viện	-3535
▁ປະເພກ	-3536
ກ່ອນ	-3537
ແຂ່ກ	-3538
▁kéo	-3539
▁ngài	-3540
▁Nhiều	-3541
▁xuyên	-3542
ủi	-3543
ane	-3544
▁Cr	-3545
otor	-3546
ebook	-3547
▁ສ່ວນ	-3548
▁ເຊີກ	-3549
ບໍລິສັກ	-3550
▁thềElà	-3551
▁vềEcác	-3552
▁Technology	-3553
▁32	-3554
່ວຍແ	-3555
▁hềEt	-3556
▁sềEt	-3557
ວະ	-3558
này	-3559
ັບກ	-3560
ille	-3561
ໂລຫະ	-3562
▁App	-3563
6,	-3564
ມພິວ	-3565
▁ກົດ	-3566
▁chềEcó	-3567
ຂັ້ນ	-3568
ຊ່ຽວ	-3569
▁ລະຫັດ	-3570
bon	-3571
ອາແ	-3572
▁90	-3573
▁Phụ	-3574
▁sáu	-3575
▁sửa	-3576
▁cánh	-3577
▁trềElại	-3578
ທີ່ກ່ຽວຂ້ອກ	-3579
32	-3580
pl	-3581
ູ່ແ	-3582
້ຈິກ	-3583
ຫນ້ານ	-3584
ັດທະນະທໍາ	-3585
ລົດ	-3586
▁sóc	-3587
▁sắp	-3588
▁thẻ	-3589
▁ຮອກ	-3590
▁ບໍລິສັດ	-3591
▁ພະຍາຍາມ	-3592
ໍ້	-3593
und	-3594
▁da	-3595
ະເທດ	-3596
sm	-3597
ém	-3598
ơm	-3599
osh	-3600
ມອກ	-3601
▁29	-3602
▁băng	-3603
ທຸລະກິດ	-3604
▁Ả	-3605
ຫັກ	-3606
▁bè	-3607
ຜູ້ແ	-3608
ີດໍາ	-3609
▁LED	-3610
▁sềEđ	-3611
າມປອດແ	-3612
▁ບັນດາ	-3613
ູນແ	-3614
▁SềE	-3615
▁hát	-3616
ufact	-3617
ປະມາກ	-3618
ປະຕິບັກ	-3619
ux	-3620
ifi	-3621
les	-3622
ຍາດ	-3623
▁ຜົນ	-3624
▁ASEAN	-3625
▁ເພາະວ່າ	-3626
▁phềEbiến	-3627
ຊື້	-3628
ທ້າກ	-3629
▁hòa	-3630
▁khuyến	-3631
ọt	-3632
▁Or	-3633
soft	-3634
ເຫມີ	-3635
▁Màu	-3636
▁ຊືແ	-3637
ອາຫານ	-3638
ັດສະດຸ	-3639
▁khuyên	-3640
▁thềEcó	-3641
ເລີ່ມຕົ້ນ	-3642
ầng	-3643
ຂື້ນ	-3644
ຍ້ອກ	-3645
▁Bài	-3646
ບໍລິກາກ	-3647
CC	-3648
Nh	-3649
TS	-3650
ະບ	-3651
▁75	-3652
▁hủy	-3653
enn	-3654
ແພກ	-3655
▁ຍິກ	-3656
▁châu	-3657
ບັນທຶກ	-3658
▁hềEch	-3659
▁Cơ	-3660
ຖະຫນ	-3661
ປ່ອກ	-3662
ufactur	-3663
▁lái	-3664
▁ຈັດ	-3665
1%	-3666
ຊກ	-3667
ຕ້ອນ	-3668
▁Quảng	-3669
▁vềEsự	-3670
ual	-3671
້ແກ	-3672
ວ່າມັນ	-3673
ປະຊາຊົນ	-3674
▁Be	-3675
▁may	-3676
▁ກະລ	-3677
ilter	-3678
▁Forex	-3679
▁hềEcó	-3680
5)	-3681
AL	-3682
ign	-3683
▁HD	-3684
▁tàu	-3685
ບັນລຸ	-3686
ສະຫວັກ	-3687
EQ	-3688
▁lệnh	-3689
▁ຕົວຢ່າກ	-3690
ເລັດ	-3691
▁mái	-3692
▁ຂໍແ	-3693
ດເຫັນ	-3694
▁miêu	-3695
▁chềEc	-3696
▁ເດືອກ	-3697
ວີ	-3698
▁Wh	-3699
▁ກໍ	-3700
▁Hải	-3701
▁thí	-3702
▁ເລັກ	-3703
▁Steel	-3704
34	-3705
7,	-3706
EY	-3707
uk	-3708
▁Sc	-3709
▁ví	-3710
ນັກກ	-3711
▁đoán	-3712
ຈໍານວກ	-3713
AT	-3714
▁ຖື	-3715
▁ພີ	-3716
��.	-3717
▁tầm	-3718
▁ຈົກ	-3719
ທໍາມະ	-3720
ານາຈັກ	-3721
▁đềEnh	-3722
go	-3723
່ອຍ	-3724
▁Dr	-3725
lass	-3726
▁PVC	-3727
▁nguy	-3728
▁tiểu	-3729
ຂົາເຈົ້າ	-3730
èo	-3731
én	-3732
▁trụ	-3733
▁Laser	-3734
▁thềEn	-3735
▁ພຣະອົກ	-3736
ລຸກ	-3737
ເຂກ	-3738
ຝຸ່ກ	-3739
▁tộc	-3740
▁lược	-3741
▁ກ່າວ	-3742
ແລ	-3743
ແຍກ	-3744
▁bốn	-3745
▁khỏ	-3746
▁Kinh	-3747
▁luyện	-3748
▁thềEx	-3749
▁District	-3750
EX	-3751
້ມີ	-3752
ປ່ຽນ	-3753
▁phiên	-3754
▁quang	-3755
▁BềElọc	-3756
▁sh	-3757
▁ປາ	-3758
ອ້າກ	-3759
▁xấu	-3760
▁ມາດ	-3761
ềEcho	-3762
▁bềEc	-3763
ເນື່ອກ	-3764
▁ສະພາບ	-3765
▁ວິທະຍາແ	-3766
-10	-3767
ose	-3768
ລະປະ	-3769
▁tận	-3770
ເປົ້າ	-3771
▁lạnh	-3772
▁phim	-3773
ສົນທະນ	-3774
ຮູ້ວ່າ	-3775
▁ສະຖານ	-3776
▁ເຊັ່ກ	-3777
ທີ່ແຕກຕ່າກ	-3778
31	-3779
▁ô	-3780
arter	-3781
▁đềEd	-3782
ການຜະລິດ	-3783
▁Bitcoin	-3784
ບິກ	-3785
▁ໂລ	-3786
uyển	-3787
▁ngắn	-3788
▁nhằm	-3789
▁ແລະແ	-3790
▁ສາມາດ	-3791
ຂົນສົ່ກ	-3792
▁chềElà	-3793
ເຫມາະສົມ	-3794
ept	-3795
ອິນ	-3796
ຈົ່ກ	-3797
▁Sơn	-3798
▁hảo	-3799
▁ເຫລ	-3800
າກນັ້ນ	-3801
▁Cheat	-3802
▁ວິທີການ	-3803
ຖາ	-3804
ເຟ	-3805
ຂົກ	-3806
ຊາດ	-3807
▁31	-3808
ener	-3809
ຕ້ານ	-3810
ອ່າກ	-3811
▁for	-3812
▁ເຫຼ	-3813
▁trận	-3814
ufacturer	-3815
erts	-3816
ound	-3817
▁+86	-3818
▁can	-3819
▁đốc	-3820
▁Long	-3821
▁ຫຼາຍ	-3822
ທີ່ຈະແ	-3823
Eg	-3824
ກິກ	-3825
ແທແ	-3826
▁ad	-3827
ິນດີ	-3828
▁nạn	-3829
້ທ່ານ	-3830
▁Black	-3831
OR	-3832
ຊຸກ	-3833
ເຫຍ	-3834
▁3,	-3835
ປະກັນ	-3836
▁trúc	-3837
acebook	-3838
!!	-3839
ກົດ	-3840
▁PH	-3841
▁on	-3842
▁Năm	-3843
▁Par	-3844
▁núi	-3845
▁vừa	-3846
▁ນັບ	-3847
ໂອກາດ	-3848
▁than	-3849
▁ດ້ວຍ	-3850
▁đềEkh	-3851
▁ຮູບພາກ	-3852
▁nghềEthuật	-3853
Ew	-3854
າທີ	-3855
ສ່ຽກ	-3856
▁pro	-3857
ducts	-3858
68	-3859
AD	-3860
▁lạ	-3861
ited	-3862
▁khảo	-3863
▁thẳng	-3864
▁thềEl	-3865
▁ຖະຫນົກ	-3866
ຍ່າກ	-3867
ເປີກ	-3868
▁CNC	-3869
▁Thế	-3870
▁ngôi	-3871
▁Valve	-3872
ຂີ້ຝຸ່ນ	-3873
37	-3874
ero	-3875
ຫຼຸດ	-3876
▁ພັນ	-3877
RO	-3878
den	-3879
uất	-3880
ເຫກ	-3881
ອາກາກ	-3882
▁Hình	-3883
ຕິດຕໍ່	-3884
▁cường	-3885
ທົ່ວໂລກ	-3886
ựng	-3887
▁Ba	-3888
▁vũ	-3889
ware	-3890
ຫຼວກ	-3891
▁lửa	-3892
▁sạn	-3893
▁ແບກ	-3894
ບັນຊີ	-3895
ordpress	-3896
300	-3897
ãnh	-3898
ency	-3899
ອອນແ	-3900
▁khỏe	-3901
ặn	-3902
ake	-3903
irt	-3904
ous	-3905
urr	-3906
ກະທໍາ	-3907
▁Inst	-3908
▁trăm	-3909
ນຜະລິດ	-3910
▁ພະອົກ	-3911
▁ເຮັດແ	-3912
fo	-3913
ພີ	-3914
▁Như	-3915
▁nhẹ	-3916
▁Tiếp	-3917
▁khởi	-3918
ເຂັ້ມແຂກ	-3919
ເສດຖະກິດ	-3920
98	-3921
▁±	-3922
ຕໍ່ກ	-3923
ແນວແ	-3924
▁Can	-3925
▁tạp	-3926
▁phía	-3927
▁World	-3928
▁thềEph	-3929
້າພະເຈົ້າ	-3930
lim	-3931
ສະຫຼ	-3932
ຮັບແ	-3933
▁mát	-3934
jiang	-3935
▁David	-3936
▁thuyết	-3937
orn	-3938
ເດກ	-3939
▁bì	-3940
ustr	-3941
▁Cam	-3942
▁ຖາມ	-3943
ໍານົດ	-3944
▁bang	-3945
▁ຜູ້ກ	-3946
▁khuôn	-3947
▁≤	-3948
ວັດ	-3949
ວົກ	-3950
ແຜ່ກ	-3951
▁kêu	-3952
▁sềEd	-3953
▁ອ້າກ	-3954
witter	-3955
ຶດສະພາ	-3956
▁Thanh	-3957
▁vềEtrí	-3958
▁đềEcho	-3959
hai	-3960
ີ້ກ	-3961
ulse	-3962
▁Xin	-3963
▁hối	-3964
ໍາລາກ	-3965
▁ເຈັກ	-3966
ເຮົາມີ	-3967
5,	-3968
IT	-3969
ຮມ	-3970
eed	-3971
▁Sm	-3972
▁cư	-3973
▁ຕອນ	-3974
▁1500	-3975
▁ຢ້າກ	-3976
ເຫຼົ່ານີ້	-3977
nc	-3978
less	-3979
່ວນແ	-3980
▁cậy	-3981
ຂະຫນາກ	-3982
າມສາມາດ	-3983
ບວນ	-3984
ສະແ	-3985
▁lưới	-3986
▁thuê	-3987
▁ການແ	-3988
ບໍ່ສາມາດ	-3989
ode	-3990
ິ້ມ	-3991
▁Top	-3992
▁đèn	-3993
▁cuốn	-3994
▁thải	-3995
▁bềEch	-3996
▁tường	-3997
▁Manufacturer	-3998
ùn	-3999
ult	-4000
▁120	-4001
▁Blue	-4002
▁ແຫ່ກ	-4003
ປະໂຫຍກ	-4004
ຮັບຜິດ	-4005
ສາຫະກິດ	-4006
TC	-4007
sia	-4008
ຕ່ໍາ	-4009
ທຸກກ	-4010
▁Vào	-4011
▁căn	-4012
▁nghi	-4013
ຸປະກອກ	-4014
▁Chương	-4015
-7	-4016
1.	-4017
lin	-4018
▁36	-4019
ລືອກ	-4020
▁đám	-4021
▁chút	-4022
▁quần	-4023
▁ຮ້ອກ	-4024
ລັດຖະມ	-4025
47	-4026
ale	-4027
ທົນ	-4028
ຜ້າ	-4029
ềEh	-4030
▁Zh	-4031
ster	-4032
ວ່ານ	-4033
▁lầm	-4034
▁trừ	-4035
▁Chất	-4036
ສະຫນັບສະຫນູນ	-4037
ລວກ	-4038
▁DC	-4039
▁cs	-4040
▁ມື	-4041
ະແດກ	-4042
▁gốc	-4043
▁Holm	-4044
▁vượt	-4045
ເຈົ້າກ	-4046
▁thắng	-4047
▁thềEm	-4048
ownload	-4049
ສັບມືຖື	-4050
ຫນ້ານີແ	-4051
▁ສໍາລັບການ	-4052
ພແ	-4053
ger	-4054
ຊ່ວຍແ	-4055
ຈາກການ	-4056
▁ທ່ານສາມາດ	-4057
):	-4058
ipt	-4059
rist	-4060
▁Pay	-4061
▁Phát	-4062
▁phán	-4063
▁ຂໍ້ມູນ	-4064
ຊ່ວຍເຫຼືອ	-4065
St	-4066
app	-4067
ype	-4068
▁lá	-4069
▁ເຢ	-4070
▁800	-4071
▁cân	-4072
ແມ່ນກ	-4073
▁cứng	-4074
▁ເລີກ	-4075
ຢ້ຽມຢາມ	-4076
▁hềEvới	-4077
lt	-4078
ỏa	-4079
ກົວ	-4080
ຊໍາ	-4081
ີ້ມ	-4082
▁Gh	-4083
▁UV	-4084
ຫມູແ	-4085
▁600	-4086
▁ດຽວ	-4087
▁ທັນ	-4088
ເນື້ອ	-4089
▁đềEv	-4090
▁Power	-4091
ດິ	-4092
▁2.	-4093
ella	-4094
ທາລະ	-4095
▁đảo	-4096
▁Giới	-4097
ສະຖານທີ່	-4098
ທ້າ	-4099
▁nềE	-4100
▁Đức	-4101
▁ລົມ	-4102
▁buộc	-4103
ຂຽນ	-4104
▁kê	-4105
ຫຼ່ກ	-4106
້ມູກ	-4107
▁Thủ	-4108
▁mãi	-4109
▁ວິນ	-4110
▁Minh	-4111
ດຽວກັນ	-4112
ອານາຈັກ	-4113
AP	-4114
mp	-4115
ແດແ	-4116
ຶກສາ	-4117
▁XXL	-4118
9001,	-4119
າມກົດ	-4120
ນຜະລິກ	-4121
▁bềEth	-4122
▁ເສັ້ນ	-4123
SM	-4124
ise	-4125
www	-4126
▁pm	-4127
▁ổn	-4128
ingd	-4129
▁Web	-4130
▁ກຸ່ມ	-4131
▁ປ່ຽກ	-4132
▁ສະຫກ	-4133
ພົວພັນ	-4134
▁Google	-4135
▁mềErộng	-4136
IP	-4137
oz	-4138
ull	-4139
zhen	-4140
ເອີ້ກ	-4141
▁Thiên	-4142
▁lương	-4143
ທົບ	-4144
ີເມວ	-4145
▁2010	-4146
▁ແນະນໍາ	-4147
▁HềEthống	-4148
/0	-4149
96	-4150
arm	-4151
▁250	-4152
▁lắp	-4153
▁ຊຸກ	-4154
▁ແມແ	-4155
▁Heng	-4156
▁Nước	-4157
▁vềEb	-4158
ຕິດຕາມ	-4159
▁Chứng	-4160
▁Series	-4161
▁hềEkhông	-4162
▁ລາຍລະອຽກ	-4163
ຂາ	-4164
iao	-4165
▁MH	-4166
▁am	-4167
▁lò	-4168
▁ສຽກ	-4169
ryptoc	-4170
Sh	-4171
ຕໍາ	-4172
ແທນ	-4173
▁TR	-4174
ອ້ອມ	-4175
ຮ້ອນ	-4176
▁bột	-4177
▁sân	-4178
▁đen	-4179
▁Shen	-4180
▁Slots	-4181
▁thềEg	-4182
:5	-4183
els	-4184
ສີມ	-4185
ຝ່າກ	-4186
ລາຍກ	-4187
▁Thu	-4188
ູ້ນໍາ	-4189
▁Video	-4190
▁dường	-4191
▁ບໍ່ມີ	-4192
yd	-4193
gen	-4194
▁AC	-4195
ທຸກແ	-4196
ເສີມ	-4197
▁hạt	-4198
▁tai	-4199
▁ບອກ	-4200
▁ແຮກ	-4201
▁ngồi	-4202
▁ແລະກ	-4203
▁ສະນັ້ນ	-4204
we	-4205
ສະຫ	-4206
ເກມ	-4207
▁hoang	-4208
▁ສີດໍາ	-4209
ພວກເຮົາແ	-4210
▁ພວກເຮົາແ	-4211
3.	-4212
El	-4213
ụp	-4214
air	-4215
ລັນ	-4216
▁ຕຸ	-4217
ນັ່ກ	-4218
▁70%	-4219
▁Mai	-4220
▁thù	-4221
▁ຖ້າຫາກ	-4222
ສອນ	-4223
▁ẩn	-4224
ther	-4225
້ວາກ	-4226
▁hắn	-4227
▁ສາດ	-4228
▁trông	-4229
▁ອາທິກ	-4230
lor	-4231
pcs	-4232
▁Sử	-4233
▁XX	-4234
▁ngủ	-4235
US	-4236
lug	-4237
▁ແລ	-4238
ຜ່ອນ	-4239
▁Jet	-4240
ປະສົມ	-4241
ແທ້ຈິກ	-4242
▁hềEsẽ	-4243
່ຽວກັບການ	-4244
xy	-4245
ườn	-4246
▁un	-4247
▁ໂອ	-4248
ເຮືອ	-4249
▁khối	-4250
ys	-4251
ẹo	-4252
ດຶກ	-4253
ions	-4254
▁bác	-4255
ating	-4256
ໍາລົກ	-4257
▁Đăng	-4258
▁hềEsơ	-4259
ຂະຫນາດແ	-4260
▁Mobile	-4261
eld	-4262
ຍົມ	-4263
ຜ່າ	-4264
▁CS	-4265
▁Res	-4266
4)	-4267
iew	-4268
ohn	-4269
ທັນ	-4270
ພຣະກ	-4271
▁thụ	-4272
▁nhôm	-4273
▁dưỡng	-4274
▁thềEthao	-4275
OT	-4276
▁de	-4277
▁Mỗi	-4278
abric	-4279
ອາທິກ	-4280
▁Comp	-4281
▁East	-4282
ທີ່ບໍ່	-4283
▁Phòng	-4284
▁hềEth	-4285
ຕິດຕັ້ກ	-4286
PC	-4287
ດາວ	-4288
ວິນ	-4289
ຶ້ມ	-4290
ລ້າກ	-4291
▁bảy	-4292
▁ềEb	-4293
້ຢ່າກ	-4294
▁Thương	-4295
ປະສົບການ	-4296
ທແ	-4297
ຊັບ	-4298
ເວລ	-4299
▁kia	-4300
▁móc	-4301
▁ປາກ	-4302
າຍເປັນ	-4303
▁Giang	-4304
▁ລະບົບ	-4305
▁ເນື່ອກ	-4306
ກກ	-4307
ີນແ	-4308
ແຕນ	-4309
▁Kế	-4310
ider	-4311
ຸດທະ	-4312
▁400	-4313
▁Tên	-4314
▁ຮຽກ	-4315
▁2000	-4316
▁khềE	-4317
▁ຜ່າກ	-4318
ຕະຫຼາດ	-4319
ứt	-4320
▁Ac	-4321
ສຸຂະ	-4322
▁hàn	-4323
lette	-4324
ຂະສິດ	-4325
ື້ອຍແ	-4326
▁Dịch	-4327
▁uống	-4328
▁Thánh	-4329
▁đềEcao	-4330
▁ລິຂະສິກ	-4331
:0	-4332
FC	-4333
ịt	-4334
່ອມ	-4335
▁ມິ	-4336
▁ພົກ	-4337
▁giận	-4338
▁mươi	-4339
▁đựng	-4340
ຮູບແບບ	-4341
ເອື້ອກ	-4342
▁Online	-4343
ພິຈາລະນາ	-4344
ອາເມລິກາ	-4345
▁ມັນເປັນ	-4346
3)	-4347
▁�	-4348
iet	-4349
ຍານ	-4350
ສືບ	-4351
▁tụ	-4352
▁Pre	-4353
ຫມັ້ນ	-4354
ເກົ່າ	-4355
▁trần	-4356
▁ເວັບແ	-4357
anc	-4358
igh	-4359
ບິນ	-4360
▁Quỹ	-4361
▁XXXL	-4362
▁ngạc	-4363
▁điệp	-4364
ອາກາດແ	-4365
ational	-4366
▁thềEcủa	-4367
6)	-4368
▁ca	-4369
▁cà	-4370
ຕ້າກ	-4371
▁Cop	-4372
▁kềE	-4373
▁tấn	-4374
▁���	-4375
ມາດຕະ	-4376
▁liệt	-4377
▁đềEg	-4378
ສະເຫມີ	-4379
oulette	-4380
ິດຈະກໍາ	-4381
▁chuyền	-4382
ຜົນກະທົບ	-4383
▁vềEviệc	-4384
▁Products	-4385
Ng	-4386
ຈິ	-4387
ບາດ	-4388
ສວກ	-4389
າຍົກ	-4390
▁hấp	-4391
▁ກັນ	-4392
▁ສີແ	-4393
▁Ảnh	-4394
▁cháu	-4395
▁khung	-4396
▁laser	-4397
ime	-4398
ley	-4399
urg	-4400
hình	-4401
jian	-4402
້ວຍກ	-4403
▁Pet	-4404
agram	-4405
ມາຈາກ	-4406
ສໍາເລັດ	-4407
ເສັ້ນທາກ	-4408
BS	-4409
ຊູ	-4410
ຖານະ	-4411
ແຫນກ	-4412
▁20%	-4413
▁Rel	-4414
▁you	-4415
edust	-4416
ຊ່ຽວຊ	-4417
▁chứa	-4418
▁nghềEs	-4419
▁đềEgiúp	-4420
isa	-4421
▁FX	-4422
▁ຈຸດ	-4423
▁Free	-4424
▁tĩnh	-4425
▁đềEk	-4426
▁Games	-4427
ຈໍາເປັນ	-4428
ĩa	-4429
ູນກ	-4430
ເຊກ	-4431
loem	-4432
ເຊີກ	-4433
▁Met	-4434
▁War	-4435
▁gió	-4436
▁www	-4437
ຊໍາລະ	-4438
ພິເສດ	-4439
▁phun	-4440
ທີ່ຢູແ	-4441
▁ແລະການ	-4442
Er	-4443
fl	-4444
ວນກ	-4445
ສູ່	-4446
▁Bởi	-4447
▁hứa	-4448
▁ກວ່າ	-4449
ບັນດາກ	-4450
ແມ່ນການ	-4451
▁ເຈົ້າກ	-4452
ົ້ກ	-4453
ົ້ນ	-4454
▁Cho	-4455
▁món	-4456
▁ໂມກ	-4457
ement	-4458
ເຊົ້າ	-4459
▁Thật	-4460
▁đỉnh	-4461
ທາລະນະ	-4462
48	-4463
In	-4464
ອຂ	-4465
▁pl	-4466
▁ພາສາ	-4467
▁gương	-4468
uốn	-4469
ຫ້າ	-4470
▁EC	-4471
hoặc	-4472
iver	-4473
ຊະນະ	-4474
▁ຂໍ້	-4475
▁ຟຣີ	-4476
▁ແມ່	-4477
▁ແສກ	-4478
▁ໂສກ	-4479
ຕາເວັນ	-4480
ນະກໍາມະ	-4481
▁nghiêm	-4482
ລັດຖະມົນຕີ	-4483
▁01	-4484
▁Du	-4485
atic	-4486
olor	-4487
ພື້ກ	-4488
ແຫ້ກ	-4489
ềElà	-4490
▁quà	-4491
▁ບົດ	-4492
▁Live	-4493
▁ບ້າກ	-4494
▁tránh	-4495
▁tướng	-4496
66	-4497
Hz	-4498
IF	-4499
ຖະ	-4500
▁@	-4501
ກະຕ	-4502
ດູກ	-4503
ຂໍ້ກ	-4504
ະກອບ	-4505
▁ຍີ່ຫໍແ	-4506
ryptocurr	-4507
ເຖ	-4508
▁3.	-4509
▁ອຸ	-4510
ນການ	-4511
່າໂນ	-4512
▁Mặc	-4513
▁Yêu	-4514
▁sắt	-4515
▁ຢ່າ	-4516
▁Dòng	-4517
ລັນດອກ	-4518
ເຫຍື້ອ	-4519
▁phềEH	-4520
▁Samloem	-4521
▁Polyester	-4522
72	-4523
oss	-4524
ດານ	-4525
ື້ມ	-4526
▁mực	-4527
▁ແຫນ	-4528
ຖະຫນາ	-4529
▁Park	-4530
▁Supp	-4531
▁thôi	-4532
ຕອນນີແ	-4533
▁ທໍາມະ	-4534
ມພິວເຕີ	-4535
▁sềElượng	-4536
MC	-4537
to	-4538
ada	-4539
cel	-4540
ອັດ	-4541
ີ່ກ	-4542
▁(1	-4543
ford	-4544
mail	-4545
ນໍ້າ	-4546
ສິນກ	-4547
ະເທກ	-4548
▁Mac	-4549
ເຊັ່ນ	-4550
ອໍານາກ	-4551
ນນະພາບສູກ	-4552
ູມ	-4553
ຈຸກ	-4554
ອຸດ	-4555
ໂພກ	-4556
▁IP	-4557
ທົບທ	-4558
▁tòa	-4559
ລະອຽດ	-4560
ລິຂະສິກ	-4561
▁giềEđây	-4562
▁Internet	-4563
OB	-4564
ຝັກ	-4565
▁ເບ	-4566
ປະຈຸ	-4567
ພື່ອ	-4568
▁bại	-4569
▁Trời	-4570
▁khôn	-4571
▁Được	-4572
▁ພື້ນ	-4573
▁chăng	-4574
▁thượng	-4575
▁thềEgiúp	-4576
ທີ່ດີທີ່ສຸດ	-4577
9)	-4578
ຈກ	-4579
ump	-4580
▁Ví	-4581
າມຫນ	-4582
▁Hot	-4583
▁Xem	-4584
ville	-4585
ສູນກາກ	-4586
ະຫວ່າກ	-4587
LC	-4588
▁El	-4589
ibbe	-4590
ຖຸນາ	-4591
▁Mẫu	-4592
▁hiển	-4593
▁Dương	-4594
ຍຸ	-4595
esh	-4596
ກໍແ	-4597
ອັບ	-4598
ເມີ	-4599
▁Gre	-4600
▁ອາດ	-4601
ອະນາກ	-4602
▁Tool	-4603
▁đừng	-4604
▁ຕົ້ນ	-4605
▁ຈໍານວນ	-4606
▁ປະເພດທຸລະກິກ	-4607
46	-4608
ts	-4609
ຂດ	-4610
een	-4611
ier	-4612
pot	-4613
ືອບ	-4614
read	-4615
້ໍາມ	-4616
▁Câu	-4617
▁đâu	-4618
Phone	-4619
ouble	-4620
ຊອກຫາ	-4621
ປະສົບ	-4622
ເຕີເນ	-4623
▁sóng	-4624
▁nghiền	-4625
▁ຜູ້ສົ່ກ	-4626
ịp	-4627
ượu	-4628
ໍລິ	-4629
▁ເຍ	-4630
perb	-4631
ປະຕູ	-4632
ຸມພາ	-4633
▁tồn	-4634
▁http	-4635
▁ເທົ່າ	-4636
▁ວິນາທີ	-4637
▁Minnesota	-4638
▁ↁ	-4639
ury	-4640
ຍີ່	-4641
▁37	-4642
▁ກາ	-4643
ance	-4644
▁ແກແ	-4645
ສາກົກ	-4646
▁ບ່ອນ	-4647
ຈະເປັນ	-4648
ເບື້ອກ	-4649
1-	-4650
con	-4651
uch	-4652
ລັດ	-4653
ໂຮ່	-4654
▁0,	-4655
▁05	-4656
ຫາວິ	-4657
ເຕີບ	-4658
າຮ້ອກ	-4659
▁kiệm	-4660
▁ngân	-4661
▁ອະທິ	-4662
າມຮູ້ສຶກ	-4663
▁bềEphận	-4664
Ấn	-4665
ếm	-4666
ESt	-4667
kra	-4668
như	-4669
yst	-4670
▁ex	-4671
▁ân	-4672
rằng	-4673
ີ່ມີ	-4674
ເຮືອນ	-4675
▁Bằng	-4676
▁ລ້ານ	-4677
່າໂນ້ກ	-4678
▁dương	-4679
▁ລະຫັກ	-4680
ma	-4681
pro	-4682
▁Bo	-4683
▁ép	-4684
ນະໂຍ	-4685
▁nén	-4686
້ຈ່າຍ	-4687
▁ສີຂາວ	-4688
້ພວກເຮົາ	-4689
▁ềEtrong	-4690
TF	-4691
ESh	-4692
ຊອບ	-4693
ຫັນ	-4694
Tube	-4695
orth	-4696
▁lãm	-4697
▁phó	-4698
▁tầng	-4699
ຕະຫລອກ	-4700
▁đềEcủa	-4701
▁ລິຂະສິດ	-4702
ຢີ	-4703
erv	-4704
ລໍແ	-4705
▁FR	-4706
ylon	-4707
▁Bao	-4708
▁ສຸດ	-4709
Tiếng	-4710
ọa	-4711
any	-4712
ຊີແ	-4713
ຸ້ນ	-4714
▁at	-4715
▁ly	-4716
▁ບແ	-4717
▁Des	-4718
▁cài	-4719
▁mến	-4720
▁hềEm	-4721
ສົມບູກ	-4722
ັດສະນະ	-4723
ເຫຼົ່າ	-4724
▁quảng	-4725
ສົນທະນາ	-4726
TT	-4727
ັສ	-4728
້ຂອກ	-4729
▁bơm	-4730
▁Post	-4731
▁quen	-4732
▁ອາຍຸ	-4733
ທີ່ສໍາກ	-4734
▁Machin	-4735
▁ເພື່ອກ	-4736
perbaric	-4737
▁ປະຕິບັດ	-4738
ກ່ອນຫນ້ານີແ	-4739
mer	-4740
ycl	-4741
ence	-4742
ສິນແ	-4743
▁đòi	-4744
cript	-4745
▁giai	-4746
▁ngoan	-4747
ປະສິດທິພາບ	-4748
ກາ	-4749
ພດ	-4750
▁z	-4751
nam	-4752
ຮາກ	-4753
ົາມ	-4754
▁55	-4755
ates	-4756
ຫ່າກ	-4757
້າຍແ	-4758
▁ເມກ	-4759
.2018	-4760
▁cuộn	-4761
▁cềEđ	-4762
ທີ່ຖືກ	-4763
▁ສະນັ້ກ	-4764
sk	-4765
oxy	-4766
ປິກ	-4767
ມືກ	-4768
ອບແວ	-4769
ໂຮ່ຈ	-4770
▁ມືແ	-4771
ລະກົກ	-4772
ັນຂອກ	-4773
ແມ່ນແ	-4774
▁Stre	-4775
▁ບັນຫາ	-4776
ຈໍາເປັກ	-4777
▁ຕິດຕໍ່	-4778
App	-4779
ສື່	-4780
ings	-4781
port	-4782
ອໍານ	-4783
ະນຸດ	-4784
▁vân	-4785
▁ລົດ	-4786
▁ແບບ	-4787
▁kiên	-4788
▁siêu	-4789
▁ຕົ້ກ	-4790
▁ເອກະ	-4791
▁đềEđược	-4792
8)	-4793
97	-4794
ືດ	-4795
ớm	-4796
rui	-4797
ຫີກ	-4798
ແຈ້ກ	-4799
▁Dis	-4800
▁Kết	-4801
▁Lin	-4802
▁ເພກ	-4803
▁sềEc	-4804
ft	-4805
ອວ	-4806
ເຈກ	-4807
▁ທິ	-4808
ທ້າຍ	-4809
ທໍລະ	-4810
▁Kit	-4811
▁ວາກ	-4812
▁Thực	-4813
ibbean	-4814
▁Chang	-4815
▁Trường	-4816
ຮັບປະກັນ	-4817
▁ພຶດສະພາ	-4818
1:	-4819
ຕຽມ	-4820
fish	-4821
shop	-4822
▁cơn	-4823
▁họa	-4824
▁Dong	-4825
▁hềEv	-4826
▁trục	-4827
▁đềEngh	-4828
ອີ	-4829
ຊັ້ນ	-4830
▁cầm	-4831
▁ສັດ	-4832
▁Bình	-4833
ຮູບພາບ	-4834
▁ວັນທີ	-4835
ເຕັກໂນໂລຊີ	-4836
Ev	-4837
ẫm	-4838
ຢືນ	-4839
້ແນ	-4840
acks	-4841
ania	-4842
ານເກ	-4843
▁rối	-4844
▁vốn	-4845
astic	-4846
ພິເສກ	-4847
▁2012	-4848
ພະນັກກ	-4849
▁ອື່ນແ	-4850
Chí	-4851
quy	-4852
ຮັດ	-4853
▁>>	-4854
over	-4855
ບໍ່ກ	-4856
▁rãi	-4857
enoid	-4858
ບັນຈຸ	-4859
▁Miss	-4860
▁quot	-4861
ເລື້ອຍແ	-4862
ຫຼາຍກວ່າ	-4863
▁Shenzhen	-4864
EZ	-4865
ih	-4866
້ຍ	-4867
acc	-4868
ຕ່ກ	-4869
ນ້າ	-4870
ສຸມ	-4871
▁Re	-4872
ແບ່ກ	-4873
▁hài	-4874
▁tiềm	-4875
ັດຕະໂນມັກ	-4876
▁Caribbean	-4877
TM	-4878
UM	-4879
ann	-4880
ify	-4881
ກ້າ	-4882
ແລກ	-4883
▁PM	-4884
▁vu	-4885
ikoo	-4886
້ຮັກ	-4887
▁che	-4888
▁ເທກ	-4889
ivers	-4890
ເອີ້ນ	-4891
▁cược	-4892
ຊໍາລະເກ	-4893
ວກເຮົາແ	-4894
▁Filter	-4895
▁ລວມທັກ	-4896
▁Blockchain	-4897
345	-4898
Est	-4899
ềEm	-4900
��:	-4901
▁Lào	-4902
▁Tám	-4903
▁Văn	-4904
▁min	-4905
ຂ້ອຍແ	-4906
ຊາຊົນ	-4907
▁khám	-4908
▁tặng	-4909
▁ngược	-4910
▁ກັນຍາ	-4911
▁Machine	-4912
Gi	-4913
kw	-4914
ụng	-4915
▁CN	-4916
▁mạ	-4917
shan	-4918
wide	-4919
ຍາດແ	-4920
ນແລະ	-4921
ປ່ອຍ	-4922
ົນລະ	-4923
▁220	-4924
▁OEM	-4925
▁lối	-4926
້ເປັນ	-4927
ໍ້ມູນ	-4928
▁Home	-4929
▁chào	-4930
ເຂົ້າເຖິກ	-4931
ຕີກ	-4932
▁Hi	-4933
▁ຕີ	-4934
່ນອນ	-4935
▁bật	-4936
▁ລອກ	-4937
▁poly	-4938
▁ềEđó	-4939
▁thang	-4940
ເວົ້າວ່າ	-4941
▁ການນໍາແ	-4942
ryptocurrency	-4943
ING	-4944
ນັບ	-4945
້ເກ	-4946
▁4,	-4947
ange	-4948
▁All	-4949
▁dệt	-4950
ທັນທີ	-4951
▁nhắc	-4952
▁vềEn	-4953
ປະຫວັດ	-4954
▁ບັນຊີ	-4955
ປັດຈຸບັກ	-4956
▁ແຜ່ນດິກ	-4957
oud	-4958
▁kg	-4959
idth	-4960
ອາຊຽກ	-4961
▁nhấn	-4962
▁vinh	-4963
▁https	-4964
▁sềEdữ	-4965
▁ເຊັ່ນ	-4966
▁ແນ່ນອກ	-4967
ຊະອານາຈັກ	-4968
su	-4969
ẽm	-4970
-15	-4971
ole	-4972
▁Cô	-4973
▁Ma	-4974
▁Ấn	-4975
ouse	-4976
▁máu	-4977
▁ໂອກ	-4978
ຫນ່ວກ	-4979
▁hềEl	-4980
▁đuổi	-4981
▁ປ່ອກ	-4982
ເສດຖະກິກ	-4983
▁ຖ້າທ່ານ	-4984
▁ສະພາບອາກາດແ	-4985
92	-4986
uck	-4987
▁Gu	-4988
▁com	-4989
▁gắn	-4990
aster	-4991
board	-4992
ເອົາແ	-4993
▁game	-4994
▁kiểu	-4995
ວັດທະນະທໍາ	-4996
MS	-4997
800	-4998
row	-4999
ປອກ	-5000
ປະທ	-5001
ຂອບແ	-5002
▁Vải	-5003
▁ຮູກ	-5004
▁bềEx	-5005
▁Hướng	-5006
ນີ້ແມ່ນ	-5007
ທີ່ພວກເຮົາ	-5008
olt	-5009
uộc	-5010
▁as	-5011
▁dã	-5012
ເລິກ	-5013
▁61%	-5014
▁Bán	-5015
▁Phó	-5016
▁bầu	-5017
▁coi	-5018
▁ráp	-5019
▁Đầu	-5020
ຂະບວນ	-5021
▁86-5	-5022
▁Cuối	-5023
▁Port	-5024
▁ທົ່ວ	-5025
▁Microsoft	-5026
▁Worldwide	-5027
84	-5028
ີບ	-5029
ớt	-5030
ott	-5031
▁6,	-5032
▁ມມ	-5033
▁ກະຕ	-5034
▁Nguy	-5035
▁Nhân	-5036
▁thác	-5037
▁tùng	-5038
▁ທີ່ແ	-5039
ທໍາອິດ	-5040
ວ່າການ	-5041
▁sềEth	-5042
▁wordpress	-5043
າຍົກລັດຖະມົນຕີ	-5044
bl	-5045
ke	-5046
▁·	-5047
ຕຽກ	-5048
▁cr	-5049
ບ້ານ	-5050
▁Bảo	-5051
▁bền	-5052
▁tái	-5053
▁tán	-5054
▁đột	-5055
▁ຜິກ	-5056
ລະບົກ	-5057
ຫຼາຍແ	-5058
▁ຫນຸ່ມ	-5059
ທົບທວນກ	-5060
▁Hengrui	-5061
CO	-5062
byg	-5063
▁Ed	-5064
▁Up	-5065
▁ດາ	-5066
ຜ່ອກ	-5067
▁Mục	-5068
▁tắm	-5069
▁đớn	-5070
▁Giải	-5071
▁SềEl	-5072
▁ຫວ່າກ	-5073
........	-5074
ວິທະຍາສາດ	-5075
ຣາ	-5076
ara	-5077
ips	-5078
ທູກ	-5079
ພີແ	-5080
ສີແ	-5081
▁Hu	-5082
ປຸ່ກ	-5083
ຫລົກ	-5084
▁Off	-5085
▁hãi	-5086
▁kém	-5087
ັບການ	-5088
ເຕັ້ກ	-5089
▁Ngay	-5090
▁biên	-5091
▁ngàn	-5092
▁vềEh	-5093
ສ່ວນຕົວ	-5094
▁sềEhữu	-5095
PP	-5096
da	-5097
ຟຣີ	-5098
ໂສກ	-5099
▁Cor	-5100
▁chữ	-5101
▁ghế	-5102
▁mòn	-5103
▁Play	-5104
▁ngăn	-5105
▁ບ່ອກ	-5106
bygden	-5107
▁Elect	-5108
ustrial	-5109
▁Suppli	-5110
ຟ້າອາກາດ	-5111
ເດັກນ້ອກ	-5112
▁tattoos	-5113
ພາດ	-5114
ital	-5115
▁tim	-5116
ຜັກ	-5117
ຸດກ	-5118
▁(5	-5119
ພິທີ	-5120
້ແກ່	-5121
ềEph	-5122
▁Lời	-5123
▁Net	-5124
▁rao	-5125
▁rào	-5126
▁ບັດ	-5127
Press	-5128
ຊະນິກ	-5129
າຍຂອກ	-5130
▁bềEd	-5131
▁hạng	-5132
ກໍລະນີ	-5133
ໂດຍການ	-5134
▁Light	-5135
▁hềEvà	-5136
▁ຊົ່ວໂມກ	-5137
IA	-5138
ຟູ	-5139
ize	-5140
ຈືແ	-5141
ສະກ	-5142
ິທີ	-5143
▁34	-5144
▁ໂທ	-5145
izer	-5146
າຍແກ	-5147
▁19,	-5148
▁Vật	-5149
▁ngũ	-5150
▁tắt	-5151
▁đem	-5152
ified	-5153
ສ່ວນແ	-5154
ະຫມັກ	-5155
▁West	-5156
▁ຫຍັກ	-5157
ikoooo	-5158
ວິດີໂອ	-5159
▁tuyên	-5160
▁Dedust	-5161
ຫຼາຍກ່ວາ	-5162
▁ເຕັກໂນໂລ	-5163
ອບກ	-5164
▁Tư	-5165
ateg	-5166
ແຜ່ນ	-5167
▁môn	-5168
utter	-5169
▁sánh	-5170
ຮຽນຮູ້	-5171
▁Đường	-5172
▁Thường	-5173
ele	-5174
ຝາກ	-5175
▁Le	-5176
▁Ben	-5177
▁lục	-5178
▁Đảo	-5179
▁ຈຸກ	-5180
-2018	-5181
າສັ່ກ	-5182
ທີ່ສຸດແ	-5183
ຮຽກຮ້ອກ	-5184
▁ວັດສະດຸ	-5185
4:	-5186
br	-5187
mg	-5188
Máy	-5189
ອດກ	-5190
▁ma	-5191
ales	-5192
oint	-5193
▁pha	-5194
▁sớm	-5195
▁ບຸກ	-5196
▁ລໍາ	-5197
່ນ້ອກ	-5198
▁Thay	-5199
▁chiếu	-5200
▁ຈໍານວກ	-5201
alv	-5202
inj	-5203
ເມກ	-5204
▁hò	-5205
ເດີກ	-5206
ເຜີກ	-5207
ປະທາກ	-5208
ຮ່ວມກ	-5209
▁thận	-5210
ຕົນເອກ	-5211
າມສ່ຽກ	-5212
ແມ່ຍິກ	-5213
▁sềEcác	-5214
ດເຫັນທີແ	-5215
▁Youjian	-5216
▁ສະມາຊິກ	-5217
QS	-5218
AMI	-5219
ool	-5220
raz	-5221
ຫັດ	-5222
▁33	-5223
▁PP	-5224
▁xi	-5225
khác	-5226
ຊື່ກ	-5227
▁PDF	-5228
▁khá	-5229
▁mod	-5230
▁ຊິກ	-5231
▁ຕັດ	-5232
▁loạn	-5233
▁rượu	-5234
▁ສໍາກ	-5235
ềEloại	-5236
limited	-5237
▁Thượng	-5238
▁bềEmặt	-5239
▁đềEtạo	-5240
ກ່ຽວກັບການ	-5241
▁◁	-5242
ava	-5243
ຈອກ	-5244
ເຊີ	-5245
▁ຢາ	-5246
ອ່ອກ	-5247
▁0.1	-5248
▁Bây	-5249
▁não	-5250
ຂຶ້ນແ	-5251
ສົມບັດ	-5252
ື້ອື່ກ	-5253
▁Quyến	-5254
▁thiểu	-5255
▁BềEthu	-5256
91	-5257
ວຍ	-5258
▁໌	-5259
-12	-5260
IềE	-5261
oph	-5262
ຂັບ	-5263
ຽນແ	-5264
▁CP	-5265
▁De	-5266
eric	-5267
ນຶ່ກ	-5268
▁Báo	-5269
▁Red	-5270
▁Đen	-5271
▁ແປກ	-5272
ັນແລະ	-5273
ົດລອກ	-5274
▁Cuộc	-5275
▁Pháp	-5276
▁mạch	-5277
▁ແຈ້ກ	-5278
▁ềEph	-5279
yclone	-5280
ຊື່ສຽກ	-5281
▁Facebook	-5282
pa	-5283
elt	-5284
ທອກ	-5285
ຣົກ	-5286
▁38	-5287
▁Mô	-5288
9002	-5289
sung	-5290
ັດຖຸ	-5291
າມາດ	-5292
່ານແ	-5293
▁11%	-5294
▁ວິດ	-5295
ookie	-5296
ustom	-5297
ວິຫາກ	-5298
້ສ້າກ	-5299
ềElàm	-5300
▁ສັ່ກ	-5301
▁Press	-5302
▁khiêm	-5303
▁thềEv	-5304
DM	-5305
HS	-5306
ấng	-5307
▁Dự	-5308
▁cl	-5309
▁ro	-5310
ຶ້ນແ	-5311
▁Eng	-5312
▁Thẻ	-5313
▁dần	-5314
▁mắc	-5315
▁tha	-5316
▁ສາຍ	-5317
▁ອິນ	-5318
▁Khoa	-5319
▁inch	-5320
ilicon	-5321
▁kềEtừ	-5322
▁ປະເທກ	-5323
▁HềEtrợ	-5324
▁bềEbụi	-5325
ສແ	-5326
▁Là	-5327
▁fl	-5328
▁vĩ	-5329
▁ຊາ	-5330
ສິ້ກ	-5331
irect	-5332
ນ້ອຍແ	-5333
▁ChềE	-5334
▁FAMI	-5335
▁Sinh	-5336
▁info	-5337
▁sông	-5338
▁ແຕ່ກ	-5339
▁ພັດທະນ	-5340
▁ເຂົາເຈົ້າ	-5341
78	-5342
ape	-5343
ຸນແ	-5344
ເວັກ	-5345
▁Ang	-5346
▁Fit	-5347
▁Max	-5348
▁USB	-5349
▁cáp	-5350
▁ຊົມ	-5351
າມສູກ	-5352
ແຫນ່ກ	-5353
▁diệu	-5354
ມື້ນີ້ມ	-5355
▁Chuyển	-5356
▁ເຈົ້າຈະ	-5357
ຕອບສະຫນອກ	-5358
ດິນຟ້າອາກາດ	-5359
iam	-5360
ild	-5361
the	-5362
▁ຍຸ	-5363
ກ້າວ	-5364
▁mét	-5365
▁Word	-5366
▁giây	-5367
▁ຫນາກ	-5368
ingdao	-5369
▁vuông	-5370
▁ມາດຕະ	-5371
▁ềEtrên	-5372
ຜູ້ຜະລິດ	-5373
▁Markets	-5374
ການພັດທະນາ	-5375
▁ສະຫນັບສະຫນ	-5376
kết	-5377
ດິດ	-5378
ູກກ	-5379
ແນກ	-5380
▁1:	-5381
▁Lo	-5382
▁kẽm	-5383
ition	-5384
▁John	-5385
▁Soft	-5386
▁chặt	-5387
▁nhềEđ	-5388
▁ຍິນດີ	-5389
ຕັດສິນແ	-5390
ການສຶກສາ	-5391
SS	-5392
ek	-5393
rew	-5394
ດຂອກ	-5395
▁1.5	-5396
▁Art	-5397
▁đón	-5398
▁ຊົກ	-5399
າມຈິກ	-5400
ໍາລຸກ	-5401
▁Hiệp	-5402
▁ninh	-5403
▁ຊ່ວຍ	-5404
ສໍາພັກ	-5405
▁hương	-5406
▁vềEmột	-5407
ການເຮັດວຽກ	-5408
ມື້ນີ້ມື້ອື່ກ	-5409
ເນດິນຟ້າອາກາດ	-5410
64	-5411
▁8,	-5412
ສະຫມ	-5413
ັນດາ	-5414
▁Mal	-5415
▁tóc	-5416
▁ຖາກ	-5417
▁nhẫn	-5418
▁ຫມູແ	-5419
ຕົ້ນຕໍ	-5420
ສໍາເລັກ	-5421
າແນະນໍາ	-5422
▁ກະລຸນາ	-5423
ອັນຕະລາກ	-5424
▁Download	-5425
top	-5426
ໍ່ກ	-5427
▁bê	-5428
ຫົວແ	-5429
▁Gia	-5430
ໍານົກ	-5431
▁Chín	-5432
▁cháy	-5433
▁viềE	-5434
ຕ້ອນຮັບ	-5435
▁bềEcho	-5436
▁thềEhiện	-5437
ùa	-5438
ốm	-5439
ari	-5440
ave	-5441
ors	-5442
ຮົາ	-5443
▁NO	-5444
ນີ້ແ	-5445
▁rời	-5446
▁ềEm	-5447
rypto	-5448
ອາຊີບ	-5449
ະນັກກ	-5450
▁Mini	-5451
▁ຜ່ານ	-5452
ມ່ນວ່າ	-5453
ເຕີບໂຕ	-5454
▁bềEsung	-5455
BA	-5456
bs	-5457
600	-5458
rad	-5459
ດິຈິ	-5460
້ນຫາ	-5461
▁(1)	-5462
elash	-5463
oster	-5464
▁Chơi	-5465
▁Tags	-5466
ົ່ານີແ	-5467
▁nhiềE	-5468
▁ເຂັ້ມ	-5469
ym	-5470
່ໍາ	-5471
EKoh	-5472
ປຶ້ມ	-5473
▁Gro	-5474
▁Tìm	-5475
▁hẹn	-5476
▁Đôi	-5477
enter	-5478
▁nhắn	-5479
ຮ່າໂນ້ກ	-5480
oy	-5481
ືມ	-5482
gia	-5483
raw	-5484
ຂອບ	-5485
ີ້ນ	-5486
ົ້ວ	-5487
▁5,	-5488
▁7,	-5489
▁Sw	-5490
vent	-5491
work	-5492
ໂຫລດ	-5493
▁HGH	-5494
ກະສັກ	-5495
▁Tiền	-5496
▁hềEh	-5497
▁tròn	-5498
▁cheat	-5499
▁thoát	-5500
ທີ່ແທ້ຈິກ	-5501
èm	-5502
▁\	-5503
ປີກ	-5504
ular	-5505
ລົ້ມ	-5506
▁Str	-5507
▁khô	-5508
▁rep	-5509
▁ຈີນ	-5510
ນິຍົມ	-5511
▁Sing	-5512
▁chép	-5513
▁ngọn	-5514
▁thịt	-5515
▁ương	-5516
▁ຕຸລາ	-5517
▁ລ້ຽກ	-5518
ໂຮ່ຈີມ	-5519
ເຮົາມີກ	-5520
KW	-5521
755	-5522
ຊີ້	-5523
ຣິກ	-5524
ັອດ	-5525
ີ່ແ	-5526
ເຜີ	-5527
▁4.	-5528
2011	-5529
raph	-5530
ລ່ວກ	-5531
▁110	-5532
▁cặp	-5533
▁nửa	-5534
▁ນະກ	-5535
▁ສູແ	-5536
ອີເມວ	-5537
▁ມີນາ	-5538
▁ແຂວກ	-5539
ຜູ້ນໍາ	-5540
ສະຫມັກ	-5541
ຂະນະທີ່	-5542
▁ເຫດຜົກ	-5543
aricella	-5544
▁Tattoos	-5545
Qu	-5546
ụy	-5547
ປ່າ	-5548
ຢືກ	-5549
▁Bi	-5550
▁IT	-5551
▁Se	-5552
reak	-5553
▁huy	-5554
▁ແທກ	-5555
ປະກອກ	-5556
ວິຊາກ	-5557
ເກືອກ	-5558
ແຕ່ລະ	-5559
▁ນິ້ວ	-5560
▁ເມສາ	-5561
▁ແຜ່ນ	-5562
ຂໍ້ມູກ	-5563
▁tattoo	-5564
▁ຕາຕະລາກ	-5565
69	-5566
7)	-5567
.0.2	-5568
ling	-5569
▁Nga	-5570
▁iOS	-5571
arton	-5572
ປະເພກ	-5573
▁Gold	-5574
▁ນາທີ	-5575
▁ລ້າກ	-5576
ັອດຕິກ	-5577
▁2018,	-5578
▁duyệt	-5579
▁ngang	-5580
ສາຫະກິກ	-5581
ດັນ	-5582
ຮອດ	-5583
▁($	-5584
▁Af	-5585
▁Tu	-5586
ooth	-5587
quan	-5588
ຊັ່ກ	-5589
▁Med	-5590
▁ມືກ	-5591
ປຶກສາ	-5592
ຫລາຍແ	-5593
▁gánh	-5594
▁trọn	-5595
▁ເຫນີ	-5596
ຈໍາກັກ	-5597
▁Fiber	-5598
hejiang	-5599
ອະນຸຍາກ	-5600
ຈຸດປະສົກ	-5601
ສາທາລະນະ	-5602
▁Holmbygden	-5603
eta	-5604
ແຜກ	-5605
▁bí	-5606
▁mơ	-5607
ສະຫກ	-5608
▁Hơn	-5609
▁đai	-5610
ethyl	-5611
▁Hàng	-5612
▁List	-5613
▁bềEn	-5614
▁thầy	-5615
61	-5616
OL	-5617
SP	-5618
ati	-5619
▁CD	-5620
▁is	-5621
ansp	-5622
ຂົ່ມ	-5623
▁Tài	-5624
▁buôn	-5625
▁cười	-5626
▁trại	-5627
▁nhiêu	-5628
▁phẳng	-5629
▁ທີ່ມີ	-5630
▁ພະຈິກ	-5631
ບໍລິຫານ	-5632
ປົກປ້ອກ	-5633
ềEchúng	-5634
▁ຜູ້ຜະລິກ	-5635
%.	-5636
4.	-5637
73	-5638
kỹ	-5639
EIn	-5640
uss	-5641
ມູກ	-5642
ວະກ	-5643
ີດກ	-5644
giữa	-5645
ເຈັບ	-5646
ເບີກ	-5647
▁Lưu	-5648
▁Rồi	-5649
▁góc	-5650
▁ອິດ	-5651
ສະບັບ	-5652
▁chụp	-5653
▁căng	-5654
ອອກແບກ	-5655
ນລິຂະສິກ	-5656
ານຈັດຕັ້ກ	-5657
na	-5658
ວແ	-5659
ays	-5660
gan	-5661
▁1/	-5662
▁ສຸ	-5663
EUSD	-5664
tain	-5665
ວັບແ	-5666
ສະລະ	-5667
ຫ່ວກ	-5668
▁Mid	-5669
▁Mon	-5670
▁Spe	-5671
▁cất	-5672
▁ຍາມ	-5673
ກະທົກ	-5674
ລະດັກ	-5675
▁Quản	-5676
▁lềEđ	-5677
▁thấm	-5678
▁tràn	-5679
ກັບການ	-5680
▁chềEs	-5681
▁Twitter	-5682
▁chềEcần	-5683
Kh	-5684
pm	-5685
box	-5686
oto	-5687
uts	-5688
▁Bas	-5689
▁thô	-5690
▁2011	-5691
▁Nhãn	-5692
▁Town	-5693
▁csgo	-5694
▁giết	-5695
▁tách	-5696
▁ຫນູກ	-5697
ການຂອກ	-5698
ສະຫນາມ	-5699
▁trưng	-5700
▁ຫມັ້ກ	-5701
▁ຮັກສາ	-5702
▁Americ	-5703
▁Server	-5704
▁ນອກຈາກ	-5705
▁ການຫຸ້ມ	-5706
GS	-5707
alk	-5708
iff	-5709
ະນຸ	-5710
ແກະ	-5711
▁Dây	-5712
▁Quận	-5713
▁hùng	-5714
kraine	-5715
າຍແກັສ	-5716
າມສົນແ	-5717
▁ທັນວາ	-5718
▁ສະບັບ	-5719
ສໍາລັບກ	-5720
▁International	-5721
ຊີກ	-5722
ຖຽກ	-5723
ທ່າ	-5724
▁Sa	-5725
ຕື່ມ	-5726
ແກ້ວ	-5727
▁Kho	-5728
▁dâm	-5729
▁mạc	-5730
▁soi	-5731
▁ຊຸດ	-5732
ລະຫັດ	-5733
ຫມັ້ກ	-5734
ໂອກາກ	-5735
ềEcác	-5736
▁chủng	-5737
▁đương	-5738
▁ກຸມພາ	-5739
ົ໋	-5740
150	-5741
rất	-5742
urn	-5743
ຈົດ	-5744
ຣັກ	-5745
່ມື	-5746
▁Is	-5747
▁Đã	-5748
▁ໂມ	-5749
ປ່ວກ	-5750
▁1.0	-5751
▁Win	-5752
▁ຕັກ	-5753
ềEChí	-5754
▁Thâm	-5755
▁chảy	-5756
▁phấn	-5757
▁ຂັ້ນ	-5758
▁ແບ່ກ	-5759
ດໍາລົກ	-5760
▁hềEtr	-5761
ວິທະຍາສາກ	-5762
▁ຂ້າພະເຈົ້າແ	-5763
="1	-5764
xin	-5765
ຮົກ	-5766
▁FS	-5767
▁ຫກ	-5768
atal	-5769
ຈະມີ	-5770
ມັດສະ	-5771
ເລກທີ	-5772
ềEđây	-5773
▁bềEv	-5774
▁ngềE	-5775
▁đềEtìm	-5776
▁ປະເພດຜະລິດຕະພັກ	-5777
ອຍແ	-5778
▁39	-5779
▁65	-5780
▁EN	-5781
ວຽກກ	-5782
▁car	-5783
Trung	-5784
uangd	-5785
▁Cộng	-5786
▁sềEb	-5787
▁ເຫມີ	-5788
ການລົກ	-5789
▁Chiết	-5790
▁hềEph	-5791
ໂຮ່ຈີມິກ	-5792
▁phềEHềEChí	-5793
ຂກ	-5794
ịn	-5795
alt	-5796
ຊຸດ	-5797
ບຸນ	-5798
▁(2	-5799
▁EM	-5800
▁en	-5801
▁ອີ	-5802
alax	-5803
azon	-5804
ທະເລ	-5805
▁Rob	-5806
▁San	-5807
▁Sáu	-5808
▁rút	-5809
▁đạp	-5810
▁ພາບ	-5811
▁ພີແ	-5812
▁ềEc	-5813
ເວັ້ນ	-5814
▁Star	-5815
▁ThềE	-5816
▁lỏng	-5817
▁ປ້ອກ	-5818
▁ຮ່າກ	-5819
ສະຖານະ	-5820
າມຮ້ອນ	-5821
▁North	-5822
▁Whats	-5823
▁hềElà	-5824
▁ເທື່ອ	-5825
ສົມບູນແ	-5826
▁Christ	-5827
ະລິດຕະພັນ	-5828
▁ໂທລະສັບມືຖື	-5829
82	-5830
PE	-5831
ìa	-5832
ຈາ	-5833
ros	-5834
ven	-5835
ຝູກ	-5836
ມິດ	-5837
ຢ່າ	-5838
▁EW	-5839
▁PR	-5840
form	-5841
ສະດາ	-5842
ຮູ້ກ	-5843
▁chứ	-5844
▁tàn	-5845
▁ວົກ	-5846
color	-5847
ຕິທໍາ	-5848
ວດສອບ	-5849
ềEvới	-5850
▁FREE	-5851
▁FXCL	-5852
▁khẩn	-5853
▁nhảy	-5854
▁phức	-5855
▁răng	-5856
▁Nhiệt	-5857
▁kháng	-5858
▁khủng	-5859
▁nhánh	-5860
▁phỏng	-5861
ພື້ນທີ່	-5862
ອຸນຫະພູມ	-5863
▁Instagram	-5864
▁Suppliers	-5865
203	-5866
ano	-5867
ãng	-5868
▁0.	-5869
▁Bà	-5870
ones	-5871
າກາກ	-5872
▁cám	-5873
▁dọc	-5874
▁tật	-5875
▁ແຕກ	-5876
ພັນທະ	-5877
ເຮັດກ	-5878
▁cổng	-5879
ຫາວິທະຍາແ	-5880
42	-5881
ST	-5882
ộm	-5883
ớp	-5884
eck	-5885
ged	-5886
ວດກ	-5887
▁Bột	-5888
▁ປະກ	-5889
ສະບັກ	-5890
ສິກໍາ	-5891
▁Asia	-5892
▁Tiêu	-5893
ເລັກໂຕ	-5894
ການນໍາແ	-5895
ບໍລິສຸກ	-5896
ແວດລ້ອມ	-5897
▁iPhone	-5898
ພວກເຮົາຈະ	-5899
▁ອຸນຫະພູມ	-5900
93	-5901
CN	-5902
GO	-5903
ces	-5904
ướp	-5905
elet	-5906
hoàn	-5907
ດຖະກ	-5908
ະລັດ	-5909
▁900	-5910
▁đúc	-5911
▁ປ່ຽ	-5912
▁ພາຍແ	-5913
ກໍ່ຕາມ	-5914
ທີ່ການ	-5915
້ານ້ອກ	-5916
▁Pulse	-5917
▁trượt	-5918
▁trềEcủa	-5919
▁Machinery	-5920
▁Industrial	-5921
MM	-5922
ມິ	-5923
ậc	-5924
ຂີແ	-5925
ວຍກ	-5926
ໂບກ	-5927
ວຂອກ	-5928
▁Mua	-5929
▁pin	-5930
▁ຊຸມ	-5931
▁ເຕີ	-5932
ເສັ້ກ	-5933
▁Đánh	-5934
ການສໍາ	-5935
ສົມບັກ	-5936
▁chiếm	-5937
▁ngừng	-5938
ພະເຈົ້າ	-5939
ຸດທະສາດ	-5940
▁ກໍລະກົກ	-5941
▁ແລະຂ້ອຍ	-5942
▁Hyperbaric	-5943
Ei	-5944
IR	-5945
]:	-5946
ຍູ	-5947
▁)	-5948
ico	-5949
ຽບທ	-5950
▁gỡ	-5951
Công	-5952
ຍ້ອນ	-5953
▁Ide	-5954
▁Mod	-5955
▁bùn	-5956
yshop	-5957
ສະດວກ	-5958
ດຽວກັກ	-5959
ຕົກລົກ	-5960
ອອກຈາກ	-5961
ຮັບຮອກ	-5962
▁Khách	-5963
▁bềEtr	-5964
▁bềElọc	-5965
ປັດຈຸບັນ	-5966
ຕາເວັນອອກ	-5967
ເຊື່ອມຕໍ່	-5968
▁ThềEloại	-5969
▁ສາດສະຫນາ	-5970
".	-5971
GB	-5972
MO	-5973
ốp	-5974
ENo	-5975
isc	-5976
qua	-5977
ລິນ	-5978
ັນກ	-5979
ເທີ	-5980
▁CF	-5981
▁cũ	-5982
ຊຸກຍ	-5983
ຖິ່ກ	-5984
ວິເກ	-5985
ະຊວກ	-5986
▁Bàn	-5987
▁Cao	-5988
▁Trò	-5989
▁cán	-5990
▁dậy	-5991
▁đáo	-5992
ລະວັກ	-5993
ສາກົນ	-5994
▁Phải	-5995
▁ຂ້າກ	-5996
▁nhuận	-5997
▁Street	-5998
ແລະອື່ນແ	-5999
En	-6000
ບູ	-6001
lob	-6002
ຍ່ກ	-6003
ິນກ	-6004
ific	-6005
ຕາລີ	-6006
ລູກແ	-6007
ຮຸ່ກ	-6008
▁20,	-6009
▁Aut	-6010
▁Box	-6011
▁lão	-6012
ềEbạc	-6013
▁Giao	-6014
▁ນໍ້າ	-6015
ດີກວ່າ	-6016
ຢູ່ທີ່	-6017
ທໍລະມາກ	-6018
ວິທະຍາແ	-6019
▁NguyềE	-6020
▁vềEtiên	-6021
ML	-6022
ະແ	-6023
▁o	-6024
dle	-6025
rol	-6026
vey	-6027
ຕຶກ	-6028
ອໍາ	-6029
ờng	-6030
▁ໂປ	-6031
coot	-6032
ຂື້ກ	-6033
ຟື້ນ	-6034
▁Cảm	-6035
▁Nói	-6036
▁chó	-6037
▁ນົກ	-6038
ດສ້າກ	-6039
▁Giấy	-6040
▁Hiện	-6041
▁Tiến	-6042
▁thảm	-6043
▁ເຕັມ	-6044
ຜູ້ທີ່	-6045
ັດສະຈັກ	-6046
▁ອໍານາກ	-6047
ềEtrường	-6048
▁Related	-6049
ຮັບຜິດຊອບ	-6050
▁SềElượng	-6051
DA	-6052
TO	-6053
-19	-6054
amb	-6055
oon	-6056
ຕູແ	-6057
▁03	-6058
2016	-6059
ềEđã	-6060
▁0.0	-6061
▁ປັບ	-6062
▁ພິມ	-6063
▁ມູນ	-6064
ດ້ວຍກ	-6065
ສະວະກ	-6066
▁huấn	-6067
▁quán	-6068
▁xách	-6069
▁ềEbên	-6070
ຂີ້ຝຸ່ກ	-6071
EMcKnight	-6072
▁ກ່ຽວກັບພວກເຮົາ	-6073
ຊິ	-6074
250	-6075
Pro	-6076
ແນແ	-6077
▁Pe	-6078
▁ເຟ	-6079
ness	-6080
▁Thư	-6081
▁bữa	-6082
▁trú	-6083
▁ປອກ	-6084
▁ສັນ	-6085
▁ແຜນ	-6086
ປະທານ	-6087
ເຕືອກ	-6088
▁Line	-6089
▁Đồng	-6090
▁ໂລຫະ	-6091
ທໍາລາກ	-6092
າຍກວ່າ	-6093
▁Shang	-6094
▁nghèo	-6095
ຂັ້ນຕອນ	-6096
▁nhường	-6097
▁ມິຖຸນາ	-6098
ls	-6099
its	-6100
lay	-6101
ຂຽວ	-6102
ທໍແ	-6103
▁SP	-6104
▁ໂດ	-6105
▁ảo	-6106
anta	-6107
ຣນິກ	-6108
▁đốt	-6109
Rider	-6110
ative	-6111
ຖາບັນ	-6112
▁Bảng	-6113
▁Chào	-6114
▁Ngân	-6115
▁Tian	-6116
▁khiêu	-6117
▁vềEgi	-6118
▁ềEphía	-6119
▁ມັນແມ່ນ	-6120
",	-6121
0)	-6122
Ej	-6123
ki	-6124
EQR	-6125
key	-6126
rag	-6127
ດີແ	-6128
ດໍາ	-6129
ຜິວ	-6130
ມື້	-6131
▁ID	-6132
▁KH	-6133
▁NH	-6134
▁mê	-6135
-200	-6136
umin	-6137
ສໍານ	-6138
▁sơn	-6139
▁ຂາກ	-6140
rylic	-6141
ການສະ	-6142
▁(200	-6143
▁MiềE	-6144
▁Seal	-6145
▁Xanh	-6146
▁giàu	-6147
▁tiêm	-6148
▁vâng	-6149
ທົດສອບ	-6150
ເຫມືອກ	-6151
▁certs	-6152
ທີ່ຫນ້າ	-6153
ທີ່ຜ່ານມາ	-6154
▁ພວກເຮົາມີ	-6155
ຂ້າພະເຈົ້າແ	-6156
41	-6157
sc	-6158
ກດ	-6159
▁Ủ	-6160
ີວິດ	-6161
ເປົ໋	-6162
ແຂວກ	-6163
▁4.0	-6164
▁Nha	-6165
▁tan	-6166
▁ສູນ	-6167
າມຮັກ	-6168
▁vườn	-6169
▁Đừng	-6170
ຊຸມຊົນ	-6171
▁thoải	-6172
ansposh	-6173
stRider	-6174
EAndroid	-6175
osterone	-6176
າມສາມາດແ	-6177
ເຈົ້າຂອກ	-6178
▁nghềEsĩ	-6179
”—	-6180
itt	-6181
ola	-6182
uối	-6183
ໂຣກ	-6184
▁Tự	-6185
vers	-6186
▁Ant	-6187
▁dối	-6188
▁ຕືແ	-6189
▁ລຶກ	-6190
▁ເຫມ	-6191
allet	-6192
ທະຫາກ	-6193
ເປົ່າ	-6194
▁củng	-6195
▁trộn	-6196
▁ກ່ອນ	-6197
▁ຖິ້ມ	-6198
ນທີ່ມີ	-6199
▁Triển	-6200
▁chuột	-6201
▁chềEtr	-6202
▁GiềEđây	-6203
າມເຂັ້ມແຂກ	-6204
▁thềEkhông	-6205
ລາຊະອານາຈັກ	-6206
43	-6207
49	-6208
51	-6209
TFE	-6210
ata	-6211
uri	-6212
▁CE	-6213
▁sc	-6214
ປື້ມ	-6215
ຢ້າກ	-6216
ຮ້ານ	-6217
▁Chu	-6218
▁For	-6219
▁bậc	-6220
▁ềEn	-6221
ສະພາກ	-6222
▁Flat	-6223
ເຫດກາກ	-6224
້ບໍລິການ	-6225
ເຕັກໂນໂລຢີ	-6226
ຈໍາເປັນຕ້ອກ	-6227
ky	-6228
-01	-6229
Ere	-6230
ere	-6231
ລຶກ	-6232
ິນແ	-6233
▁Dù	-6234
▁tà	-6235
▁tô	-6236
2020	-6237
EMin	-6238
aint	-6239
້ກັບ	-6240
▁11,	-6241
▁17,	-6242
▁Ref	-6243
▁Tập	-6244
▁gía	-6245
▁nắm	-6246
▁ຂັກ	-6247
ລະບຽບ	-6248
ສະແຕນ	-6249
ເຕັ້ນ	-6250
▁Bill	-6251
▁Giám	-6252
▁lãng	-6253
▁mảnh	-6254
▁tềEt	-6255
ềEtrưởng	-6256
▁Roulette	-6257
63	-6258
CD	-6259
400	-6260
ali	-6261
era	-6262
ướt	-6263
▁Bu	-6264
▁lẻ	-6265
▁mũ	-6266
ນຝາກ	-6267
ສຸມແ	-6268
▁2.5	-6269
▁Opt	-6270
▁lốc	-6271
▁rỗi	-6272
ining	-6273
ອຸດົມ	-6274
ືນຍົກ	-6275
▁Blog	-6276
▁Jack	-6277
▁khát	-6278
▁ຮຸ່ກ	-6279
▁trống	-6280
▁trồng	-6281
▁ThềEth	-6282
enerator	-6283
ນິລັນດອກ	-6284
ມັດສະກາກ	-6285
▁Qingdao	-6286
▁Zhejiang	-6287
▁ທໍາມະຊາກ	-6288
ການປ່ຽນແປກ	-6289
71	-6290
OW	-6291
ຖວ	-6292
▁‘	-6293
10,	-6294
eme	-6295
ext	-6296
olis	-6297
ouch	-6298
ອ່ານ	-6299
▁10,	-6300
▁Bất	-6301
▁Kim	-6302
▁bão	-6303
▁lăn	-6304
▁vết	-6305
▁yên	-6306
▁ປີແ	-6307
▁ແນະ	-6308
▁ủng	-6309
quare	-6310
▁Vacc	-6311
▁Zone	-6312
ookies	-6313
ຈັດການ	-6314
▁bềEkh	-6315
▁chuỗi	-6316
▁trùng	-6317
▁ເປົ້າ	-6318
ພື້ນຖາກ	-6319
ອະທິຖາກ	-6320
ປະເພດຂອກ	-6321
ວິສາຫະກິດ	-6322
je	-6323
aff	-6324
▁5.	-6325
▁85	-6326
ຖ່າຍ	-6327
ທະວີ	-6328
▁10%	-6329
▁Cap	-6330
▁Oce	-6331
▁oxy	-6332
▁ຍອມ	-6333
▁ຕອບ	-6334
▁ເຫກ	-6335
ປະດິດ	-6336
ົບກັບ	-6337
▁Dress	-6338
▁chềEb	-6339
ບໍລິຈາກ	-6340
▁ການລົກ	-6341
▁ເປັນຫຍັກ	-6342
oàn	-6343
yan	-6344
ປະມ	-6345
ແຜນ	-6346
▁9:	-6347
▁Xu	-6348
▁ກິ	-6349
▁Ủy	-6350
ເສລີ	-6351
ເສັກ	-6352
▁Cập	-6353
▁Sch	-6354
ກໍຕາມ	-6355
▁3000	-6356
▁Kiểm	-6357
▁chín	-6358
▁ngẫu	-6359
▁ກ້າວ	-6360
ສະຫຼອກ	-6361
ເຂົ້າກ	-6362
ເພື່ອນ	-6363
▁ມະນຸກ	-6364
ໂທລະສັກ	-6365
uangdong	-6366
ເກີດຂື້ນ	-6367
▁YouTube	-6368
▁ພັດທະນາ	-6369
VN	-6370
sự	-6371
va	-6372
ຫມແ	-6373
ອາວ	-6374
▁DN	-6375
ເທົາ	-6376
▁Cân	-6377
▁Hàn	-6378
▁cát	-6379
▁mấy	-6380
▁rơi	-6381
▁ຕິກ	-6382
alaxy	-6383
ender	-6384
ເພິ່ນ	-6385
▁Khóa	-6386
▁giày	-6387
▁ngập	-6388
▁ຂໍ້ກ	-6389
▁ມັນແ	-6390
▁ອອນແ	-6391
▁ອ່າກ	-6392
▁ອ່ານ	-6393
▁ແຜ່ກ	-6394
ategor	-6395
ມົດຂອກ	-6396
ຊີວິດຂອກ	-6397
▁thềEtìm	-6398
VD	-6399
ji	-6400
ka	-6401
oi	-6402
cer	-6403
ưỡi	-6404
ທາດ	-6405
▁ແຫ	-6406
ສິໂນ	-6407
ເກັກ	-6408
▁ອັດ	-6409
lugin	-6410
ຈະບໍ່	-6411
ເຂົາກ	-6412
▁Best	-6413
▁Chọn	-6414
▁hiệp	-6415
▁xuân	-6416
actory	-6417
cooter	-6418
▁chềEm	-6419
▁ລັດຖະ	-6420
▁ເຮືອກ	-6421
▁đềEcác	-6422
▁đềEcập	-6423
QL	-6424
EAl	-6425
ags	-6426
ກີກ	-6427
ພິກ	-6428
ສົບ	-6429
ເຕະ	-6430
ໂຫວ	-6431
▁ax	-6432
ກ້ອກ	-6433
▁Học	-6434
▁Lim	-6435
▁Rem	-6436
▁ÁEt	-6437
▁Đặc	-6438
ຫນ້າກ	-6439
ເຖົ້າ	-6440
▁Camp	-6441
▁lông	-6442
▁ngẫm	-6443
▁trôi	-6444
ີ່ທ່ານ	-6445
▁Chẳng	-6446
▁Trắng	-6447
▁thềEsử	-6448
▁ທີ່ຢູ່	-6449
ຫຼຸດຜ່ອນ	-6450
▁EWindows	-6451
▁;	-6452
.10	-6453
ett	-6454
khi	-6455
▁48	-6456
▁Gl	-6457
▁2.0	-6458
▁May	-6459
▁Pal	-6460
▁Rep	-6461
▁cản	-6462
▁gấp	-6463
▁ມື້	-6464
ເວລາດ	-6465
▁Tour	-6466
▁chối	-6467
▁lồng	-6468
▁miền	-6469
▁xoáy	-6470
▁ເປີກ	-6471
▁ເກົ່າ	-6472
▁ໂອກາກ	-6473
ເພາະວ່າ	-6474
▁giường	-6475
estosterone	-6476
62	-6477
FF	-6478
SA	-6479
.99	-6480
ຈີນ	-6481
ຖອກ	-6482
idge	-6483
ກ່ວາ	-6484
▁12,	-6485
▁sót	-6486
▁ທິກ	-6487
▁ນຶກ	-6488
ystem	-6489
ທະນາກ	-6490
▁Shop	-6491
▁nhãn	-6492
▁sềEm	-6493
ຈໍາກັດ	-6494
ຜູ້ຊາຍ	-6495
້າຍແຮກ	-6496
▁Group	-6497
▁chềEd	-6498
ທີ່ບໍ່ມີ	-6499
▁Cyclone	-6500
▁ປະສິດທິ	-6501
▁ການກັ່ນຕອກ	-6502
yn	-6503
▁≥	-6504
VAC	-6505
aul	-6506
way	-6507
ຈົນ	-6508
ໍ່າ	-6509
▁09	-6510
▁RF	-6511
▁TT	-6512
▁bi	-6513
irus	-6514
ຂວາກ	-6515
ູມິນ	-6516
ເຜົາ	-6517
່າຍແ	-6518
▁Led	-6519
▁She	-6520
▁lan	-6521
▁lặp	-6522
າມວ່າ	-6523
ຸນແຮກ	-6524
ເປັນແ	-6525
▁ຍ້ອກ	-6526
▁ຕື່ມ	-6527
ຕະຫຼາກ	-6528
ວິນຍາກ	-6529
ềElòng	-6530
▁chiên	-6531
▁phóng	-6532
ົ່ານັ້ນ	-6533
▁ເຫຼົ່າ	-6534
▁sềEtiền	-6535
ັດຕະໂນມັດ	-6536
ການກັ່ນຕອກ	-6537
ສະຫນັບສະຫນູກ	-6538
58	-6539
ms	-6540
ເຍ	-6541
▁າ	-6542
ướm	-6543
ຍລະ	-6544
▁..	-6545
▁9,	-6546
▁Me	-6547
▁sơ	-6548
▁ấm	-6549
2015	-6550
jack	-6551
ຍ້າກ	-6552
ມັນແ	-6553
ວິຊາ	-6554
ົ້ານ	-6555
▁Mat	-6556
▁đĩa	-6557
▁ຖານ	-6558
▁chặn	-6559
▁hồng	-6560
▁ສີແດກ	-6561
ານທີ່ຈະ	-6562
▁nghịch	-6563
ຊາວຫນຸ່ມ	-6564
▁Samsung	-6565
າມເປັນຈິກ	-6566
▁thềEthấy	-6567
-9	-6568
ny	-6569
vc	-6570
ລໍ	-6571
ສູ	-6572
ຜົວ	-6573
ມາແ	-6574
Ứng	-6575
▁hạ	-6576
▁xả	-6577
ຫມົດ	-6578
ໂຫວາ	-6579
▁(2)	-6580
▁quỹ	-6581
▁Đọc	-6582
ອຂ່າຍ	-6583
ໍາການ	-6584
▁Thêm	-6585
▁Tính	-6586
▁York	-6587
▁ຍິ່ກ	-6588
▁ທຸກແ	-6589
ເຫດຜົນ	-6590
▁Glass	-6591
▁Motor	-6592
▁Tiếng	-6593
▁khiết	-6594
▁tuyết	-6595
▁ປະສົກ	-6596
ຊ່ຽວຊານ	-6597
ປະຊາຊົກ	-6598
ສະຫະລັກ	-6599
ອຸປະກອກ	-6600
ເປັນການ	-6601
▁Tattoo	-6602
▁Vaccine	-6603
▁hềEđang	-6604
▁vềEđiều	-6605
ຜົນປະໂຫຍດ	-6606
ສາມາດເຮັດແ	-6607
ທາ	-6608
▁{	-6609
Etr	-6610
The	-6611
ran	-6612
▁Áp	-6613
oard	-6614
udio	-6615
ຊັ້ກ	-6616
ຫລຽວ	-6617
ຫຼວດ	-6618
ີ່ຈະ	-6619
▁Inc	-6620
▁Pan	-6621
▁gốm	-6622
▁Đặt	-6623
▁ຊັກ	-6624
▁ນວນ	-6625
▁ສາວ	-6626
▁ເຂດ	-6627
ປະຊາກ	-6628
ຫນ້ອຍ	-6629
▁Luật	-6630
▁chấm	-6631
▁hứng	-6632
▁xứng	-6633
asting	-6634
▁ນັບຖື	-6635
▁ລະດັບ	-6636
ເອີ້ນວ່າ	-6637
ຂີ້ເຫຍື້ອ	-6638
cam	-6639
ຈ່ມ	-6640
ສູດ	-6641
້າແ	-6642
▁8:	-6643
ines	-6644
ສິ້ນ	-6645
ີ່ດີ	-6646
▁gsm	-6647
▁ຂາຍ	-6648
▁ນວກ	-6649
ຍ່ຂອກ	-6650
ຫລິ້ກ	-6651
ື່ມວນ	-6652
້ຮັບກ	-6653
▁ngựa	-6654
▁ນັກກ	-6655
▁admin	-6656
▁giềEh	-6657
ການຜະລິກ	-6658
IV	-6659
ars	-6660
ird	-6661
ນຈະ	-6662
ປູກ	-6663
▁AM	-6664
▁Di	-6665
▁MB	-6666
▁ຫວ	-6667
າການ	-6668
ເວທີ	-6669
▁Set	-6670
▁cẩn	-6671
▁sàn	-6672
phone	-6673
▁Cage	-6674
▁Cũng	-6675
▁Thép	-6676
▁chăn	-6677
▁lềEc	-6678
▁ກິລາ	-6679
▁ຫມອກ	-6680
ທີ່ຢູ່	-6681
ູມິນຽມ	-6682
ໂດຍກົກ	-6683
້ເພື່ອ	-6684
▁phiền	-6685
ໂດຍຜ່ານ	-6686
▁bềEcác	-6687
▁đềEbảo	-6688
ທໍາມະຊາກ	-6689
▁Charter	-6690
oundation	-6691
▁ພວກເຂົາເຈົ້າ	-6692
79	-6693
BC	-6694
Ee	-6695
II	-6696
gsm	-6697
ລາມ	-6698
▁ບໍ	-6699
heel	-6700
ippi	-6701
ngày	-6702
ນຸ່ກ	-6703
ຣັ່ກ	-6704
▁Key	-6705
▁ດໍາ	-6706
▁ເດີ	-6707
ature	-6708
nhiều	-6709
▁Serv	-6710
▁cướp	-6711
▁thỏa	-6712
▁ນະໂຍ	-6713
igital	-6714
olding	-6715
ຍືນຍົກ	-6716
ຕະຫຼອກ	-6717
ຖ້າຫາກ	-6718
ເວົ້າກ	-6719
issippi	-6720
ຫນ້າຂອກ	-6721
ິດສະຕຽກ	-6722
▁thềEkh	-6723
▁ພະນັກກ	-6724
ວກເຮົາແມ່ນ	-6725
▁Varicella	-6726
ya	-6727
ຕຸ	-6728
ບາ	-6729
ປູ	-6730
ມມ	-6731
/12	-6732
113	-6733
ids	-6734
oop	-6735
ຈິດ	-6736
ປາແ	-6737
າຍດ	-6738
▁2:	-6739
▁EA	-6740
▁ar	-6741
▁iP	-6742
▁rẻ	-6743
ນວາກ	-6744
ເຊັກ	-6745
▁Har	-6746
▁rủi	-6747
▁súc	-6748
uchia	-6749
▁Arch	-6750
▁ປະຕູ	-6751
▁ເປີດ	-6752
▁2018.	-6753
ອະນຸຍາດ	-6754
ເອກະສານ	-6755
▁cềEbạc	-6756
ຂະຫຍາຍຕົວ	-6757
▁WhatsApp	-6758
▁đềEtrang	-6759
ເຫລົ່ານັ້ກ	-6760
ẳn	-6761
que	-6762
ທຶນ	-6763
ຢຸກ	-6764
ຫົກ	-6765
ອກແ	-6766
▁06	-6767
▁PL	-6768
▁Sn	-6769
1000	-6770
iệng	-6771
xury	-6772
ທີ່ສ	-6773
▁18,	-6774
▁24,	-6775
▁Pin	-6776
▁Tòa	-6777
▁ດົກ	-6778
▁ềEt	-6779
oller	-6780
ເຜົ່າ	-6781
▁Viện	-6782
▁chai	-6783
andard	-6784
ສັກສິກ	-6785
▁ກະສັກ	-6786
ສຸຂະພາບ	-6787
▁ເສັ້ນແ	-6788
ອິນເຕີເນ	-6789
ເກັບຮັກສາ	-6790
ເທົ່ານັ້ກ	-6791
ນະກໍາມະການ	-6792
-30	-6793
Ech	-6794
ike	-6795
ຕື່ນ	-6796
ສະຫະ	-6797
▁And	-6798
▁FOB	-6799
▁dày	-6800
າມທຸກ	-6801
▁Aria	-6802
▁Sáng	-6803
▁Thưa	-6804
ulator	-6805
ວຽດນາມ	-6806
▁Certs	-6807
▁thùng	-6808
ສາສະຫນາ	-6809
າມກົດດັນ	-6810
▁vềEphía	-6811
ການຝຶກອົບຮົມ	-6812
/5	-6813
lon	-6814
ຍ້ກ	-6815
ມິກ	-6816
ອົດ	-6817
▁SD	-6818
▁be	-6819
▁bó	-6820
▁pr	-6821
nghĩ	-6822
ຈ່າກ	-6823
ບັນດ	-6824
ເຊົາ	-6825
ເສີກ	-6826
▁chợ	-6827
▁dứt	-6828
▁lừa	-6829
▁res	-6830
▁rắn	-6831
▁ຈອກ	-6832
▁ວາວ	-6833
▁Ứng	-6834
າມຫນາ	-6835
▁Quan	-6836
▁Tình	-6837
▁biện	-6838
▁jack	-6839
▁khóc	-6840
ລໍາບາກ	-6841
▁Green	-6842
▁khẳng	-6843
▁ການເກ	-6844
▁ສະເຫນ	-6845
▁ບັນທຶກ	-6846
▁ເຊື່ອມ	-6847
ມາດຕະຖານ	-6848
ສ່ວນບຸກກ	-6849
▁nhềErằng	-6850
ເລັກໂຕຣນິກ	-6851
ທີ່ເຫມາະສົມ	-6852
▁ການທົບທວນກ	-6853
);	-6854
UD	-6855
ora	-6856
son	-6857
ênh	-6858
▁(4	-6859
▁DM	-6860
aper	-6861
atin	-6862
ield	-6863
ince	-6864
ives	-6865
ຢູ່ກ	-6866
ັນຍູ	-6867
້ມັນ	-6868
▁380	-6869
▁Tur	-6870
▁ຊື້	-6871
▁ຂຶ້ນ	-6872
▁ຢູ່ແ	-6873
▁Nylon	-6874
▁chềEt	-6875
▁tuyển	-6876
▁ວິຫາກ	-6877
ກ່ຽວກັກ	-6878
EWindows	-6879
▁vềElãnh	-6880
▁đềEgiải	-6881
▁ສະຫວ່າກ	-6882
▁ເຈົ້າບໍແ	-6883
▁ຖ້າຫາກວ່າທ່ານ	-6884
Ex	-6885
MT	-6886
OP	-6887
Bet	-6888
EPC	-6889
ilm	-6890
ÔNG	-6891
ບຽກ	-6892
ູ້ນ	-6893
ູ້ແ	-6894
ເລດ	-6895
▁5:	-6896
▁BS	-6897
▁Eđ	-6898
▁or	-6899
ubai	-6900
ຂັ້ກ	-6901
ຂົ້າ	-6902
▁22,	-6903
▁Bow	-6904
▁Bur	-6905
▁Giê	-6906
▁Mag	-6907
▁Môn	-6908
▁ngã	-6909
▁tám	-6910
▁ềEM	-6911
ແລະເກ	-6912
▁Hong	-6913
▁chim	-6914
▁ຊັ້ກ	-6915
ormone	-6916
ັນຂ້າມ	-6917
▁Chiến	-6918
▁ແຫນ້ກ	-6919
▁vềEsinh	-6920
▁ຜູ້ຜະລິດ	-6921
▁ການຫຸ້ມຫໍແ	-6922
▁ປະຕິບັດຕາມ	-6923
າມເປັນສ່ວນຕົວ	-6924
."	-6925
UN	-6926
-40	-6927
lam	-6928
umb	-6929
ươm	-6930
ຍຸກ	-6931
ທໍ່	-6932
▁49	-6933
▁ວາ	-6934
▁ủi	-6935
▁125	-6936
▁bọn	-6937
▁gom	-6938
▁đói	-6939
pring	-6940
ສືບຕໍ່	-6941
ແນ່ນອກ	-6942
▁10000	-6943
▁ເສື້ອ	-6944
eyelash	-6945
ທີ່ຂ້ອຍ	-6946
▁thuyền	-6947
▁vềEmặt	-6948
▁ເຫລົ່າ	-6949
▁ເດັກນ້ອກ	-6950
ategorized	-6951
ຂໍ້ມູນຂ່າວ	-6952
▁WordPress	-6953
**	-6954
54	-6955
Ey	-6956
-18	-6957
XVN	-6958
ago	-6959
inc	-6960
rum	-6961
ute	-6962
▁ຍະ	-6963
▁ລີ	-6964
ager	-6965
isco	-6966
▁Bar	-6967
▁Sim	-6968
▁bắc	-6969
▁cắm	-6970
▁khử	-6971
▁mãn	-6972
▁vẹn	-6973
▁ຕໍາ	-6974
▁ບົກ	-6975
▁ກ້ອກ	-6976
ternet	-6977
າມຮ້ອກ	-6978
▁Vương	-6979
▁reply	-6980
▁ປະກອບ	-6981
ຕ້ອນຮັກ	-6982
▁ທ່ານຈະ	-6983
ດໍາເນີນກ	-6984
▁đềEthực	-6985
▁ກົດຫມາກ	-6986
ນະມັດສະກາກ	-6987
xi	-6988
ùy	-6989
ຈມ	-6990
olo	-6991
ວິແ	-6992
ເນກ	-6993
▁Si	-6994
▁TP	-6995
rick	-6996
rome	-6997
ຈາກກ	-6998
ພາສີ	-6999
ວດກາ	-7000
ໂດລາ	-7001
▁Bảy	-7002
▁VềE	-7003
▁cột	-7004
▁ກໍ່	-7005
▁ຂຽນ	-7006
▁ພາຍ	-7007
▁ສະຫ	-7008
ປພາສາ	-7009
ສະອາກ	-7010
ເຕົ້າ	-7011
▁2006	-7012
apolis	-7013
ສິລະປະ	-7014
ຫມັ້ນກ	-7015
▁12345	-7016
▁ອາທິດ	-7017
ຫຼຸດລົກ	-7018
▁sềEcủa	-7019
interest	-7020
▁thềEnói	-7021
▁thềEnhận	-7022
▁thềEphượng	-7023
AY	-7024
ỡi	-7025
omb	-7026
ຢຸດ	-7027
▁CR	-7028
▁DR	-7029
▁We	-7030
▁lũ	-7031
▁ຈຸ	-7032
▁ໂຕ	-7033
oney	-7034
ຟື້ກ	-7035
ມຂອກ	-7036
ອອກແ	-7037
ແລ້ກ	-7038
▁180	-7039
▁Arm	-7040
▁Cas	-7041
▁kèm	-7042
▁Đơn	-7043
▁ສົນ	-7044
eless	-7045
uitar	-7046
usher	-7047
ເປົ໋າ	-7048
▁Kitô	-7049
▁ເສີກ	-7050
▁ກະຊວກ	-7051
ຖືກນໍາແ	-7052
ພີ່ນ້ອກ	-7053
▁nghềEm	-7054
▁thềEvà	-7055
▁sềEnhững	-7056
ພວກເຂົາເຈົ້າ	-7057
▁cryptocurrency	-7058
gh	-7059
sp	-7060
ບຸ	-7061
ຼື	-7062
amin	-7063
onic	-7064
ມະຕະ	-7065
ສິໂກ	-7066
ຫຼືກ	-7067
ອື່ນ	-7068
ເລີດ	-7069
່າວກ	-7070
▁(19	-7071
▁Hua	-7072
▁kín	-7073
▁mây	-7074
ights	-7075
lobal	-7076
ສະຕິກ	-7077
ສັກຢາ	-7078
ເລົ່າ	-7079
▁ngại	-7080
▁quên	-7081
▁ຊະນະ	-7082
▁ອ່ອກ	-7083
▁Giáng	-7084
▁chềEv	-7085
▁ຫນ່ວກ	-7086
▁ຫຼິ້ກ	-7087
▁ເກົ້າ	-7088
ທີ່ຍິ່ກ	-7089
ບໍລິໂພກ	-7090
ພາກສ່ວນ	-7091
ປະຕິບັດກ	-7092
ພຣະວິຫາກ	-7093
▁Factory	-7094
▁trềEviên	-7095
ການຊໍາລະເກ	-7096
ດໍາເນີນການ	-7097
ye	-7098
ຜະ	-7099
-25	-7100
nói	-7101
pal	-7102
ຍາມ	-7103
ພະນ	-7104
ຫຼກ	-7105
ັມແ	-7106
ັອກ	-7107
▁02	-7108
▁Ap	-7109
lish	-7110
ເຊີນ	-7111
▁23,	-7112
▁Hat	-7113
▁mắn	-7114
▁nút	-7115
▁túc	-7116
▁đồi	-7117
▁ພອກ	-7118
ຮູບເກ	-7119
▁2005	-7120
▁Pack	-7121
▁lượt	-7122
▁vềEk	-7123
▁đẳng	-7124
▁ທ້ອກ	-7125
▁ຫນອກ	-7126
verter	-7127
▁sềEch	-7128
ນະໂຍບາກ	-7129
▁ຕິດຕາມ	-7130
ດກ່ຽວກັບ	-7131
▁ຢ້ຽມຢາມ	-7132
ẫy	-7133
+00	-7134
hơn	-7135
ປິດ	-7136
▁3:	-7137
▁vỡ	-7138
ally	-7139
ຢືນຢ	-7140
ະກຽມ	-7141
ຸນາແ	-7142
▁Pat	-7143
▁Sức	-7144
▁Tấm	-7145
▁phú	-7146
ສະບາກ	-7147
ເສື້ອ	-7148
▁2009	-7149
▁màng	-7150
▁măng	-7151
▁tông	-7152
▁xoắn	-7153
▁ĐềEd	-7154
+00:00	-7155
ềEđược	-7156
▁vềEkh	-7157
▁ềEmột	-7158
ການສ້າກ	-7159
▁bềEthu	-7160
ທີ່ສາມາດ	-7161
ົນລະເມືອກ	-7162
ເພີ່ມຂຶ້ນ	-7163
▁ເຕັກໂນໂລຊີ	-7164
USD	-7165
▁58	-7166
▁By	-7167
▁mì	-7168
EPro	-7169
ream	-7170
▁PCB	-7171
▁bạo	-7172
▁ຂຽກ	-7173
▁ທໍແ	-7174
store	-7175
▁bông	-7176
▁bướm	-7177
▁dược	-7178
▁lanh	-7179
▁song	-7180
▁ềEch	-7181
ແລະຜູ້	-7182
▁Solom	-7183
▁chàng	-7184
▁đềEsử	-7185
EGoogle	-7186
ເດັກນ້ອຍ	-7187
▁Rikoooo	-7188
▁ບໍລິສັກ	-7189
▁ຫນ້າທາກ	-7190
ປະກອບສ່ວນ	-7191
ເຊື່ອມໂຍກ	-7192
▁đềEchúng	-7193
▁ມາດຕະຖາກ	-7194
ການກໍ່ສ້າກ	-7195
▁ພວກເຮົາຈະ	-7196
aki	-7197
ana	-7198
opt	-7199
ຂາດ	-7200
າມຖ	-7201
ໂທກ	-7202
▁kr	-7203
phần	-7204
ນິທິ	-7205
ຮັດແ	-7206
▁21,	-7207
▁3.0	-7208
▁Gen	-7209
▁bãi	-7210
▁bối	-7211
▁cai	-7212
▁vít	-7213
ຫນ່າກ	-7214
▁DiềE	-7215
▁Sand	-7216
ບໍາລຸກ	-7217
▁Beach	-7218
▁Super	-7219
▁vềEvà	-7220
▁ປະກາກ	-7221
ainless	-7222
ທັດສະນະ	-7223
ເປັນຜູ້	-7224
▁ເຢໂຫວາ	-7225
inecolor	-7226
ທີ່ສຸດຂອກ	-7227
▁Foundation	-7228
BD	-7229
OG	-7230
ຈີ	-7231
ໍກ	-7232
ani	-7233
erm	-7234
osm	-7235
ຍແຜ	-7236
ພວມ	-7237
ຼາຍ	-7238
▁.:	-7239
▁Ly	-7240
ible	-7241
ທ້າວ	-7242
ຜົນແ	-7243
ແນວກ	-7244
▁28,	-7245
▁Bul	-7246
▁Cle	-7247
▁ຂອບ	-7248
▁ຫ້າ	-7249
▁ເລກ	-7250
ທີ່ເກ	-7251
▁Page	-7252
▁Tham	-7253
▁dềEb	-7254
▁hoan	-7255
▁hoạn	-7256
▁ເວັກ	-7257
ບັນຍັກ	-7258
ພາບສູກ	-7259
ແນ່ນອນ	-7260
ໍລິສັດ	-7261
▁hoàng	-7262
▁trềEl	-7263
▁nghềEc	-7264
ພວກເຮົາກ	-7265
▁ອຸປະກອກ	-7266
PA	-7267
vi	-7268
zz	-7269
Úc	-7270
ິບ	-7271
ຽບແ	-7272
ເກກ	-7273
guan	-7274
inyl	-7275
ຈ້າກ	-7276
▁(1,	-7277
▁0.5	-7278
▁1.2	-7279
▁Cốc	-7280
▁lâm	-7281
▁tổn	-7282
▁đợi	-7283
ading	-7284
alvan	-7285
▁High	-7286
▁binh	-7287
▁lính	-7288
▁phẫu	-7289
▁thừa	-7290
▁ອະນຸ	-7291
ເຫດຜົກ	-7292
▁Apple	-7293
▁ດໍາເນ	-7294
▁ທີ່ດີ	-7295
▁chềEcho	-7296
▁vềEcách	-7297
▁ກະລຸນາແ	-7298
▁ປະຕິບັກ	-7299
▁ເຮັດວຽກ	-7300
▁ການປ່ຽນແປກ	-7301
LL	-7302
OV	-7303
ấc	-7304
▁04	-7305
▁At	-7306
▁ES	-7307
▁PE	-7308
▁bl	-7309
▁ແວ	-7310
eter	-7311
ຖ່າກ	-7312
ຫຼ້າ	-7313
▁450	-7314
▁API	-7315
▁Tan	-7316
▁ປັກ	-7317
▁ມົນ	-7318
▁ອອນ	-7319
▁ໂຫລ	-7320
eries	-7321
thank	-7322
ລິມານ	-7323
ວັດຖຸ	-7324
າຍດາກ	-7325
າມຜິດ	-7326
ເຊົ່າ	-7327
▁Quần	-7328
▁Thụy	-7329
▁Wall	-7330
▁dừng	-7331
▁sòng	-7332
ອໍານວຍ	-7333
▁đềEng	-7334
▁Middle	-7335
▁Square	-7336
▁ວິດີໂອ	-7337
▁ແລະມັນ	-7338
ຕໍາແຫນ່ກ	-7339
ລັດຖະບາກ	-7340
▁đềEbiết	-7341
▁ສະບັບເລກທີ	-7342
KG	-7343
aj	-7344
km	-7345
ລ໌	-7346
-00	-7347
des	-7348
erg	-7349
fly	-7350
▁44	-7351
▁Ai	-7352
▁GI	-7353
▁Ru	-7354
▁ap	-7355
ader	-7356
erry	-7357
rica	-7358
ມະຫາ	-7359
ຢ້ຽມ	-7360
ເຕີແ	-7361
ແຕ້ມ	-7362
▁130	-7363
▁14,	-7364
▁tia	-7365
▁đua	-7366
▁ທໍ່	-7367
▁ລຸກ	-7368
ember	-7369
ທ່ານແ	-7370
ເດັ່ນ	-7371
▁Mult	-7372
irtual	-7373
ຕົວຈິກ	-7374
ນນະພາກ	-7375
ມື້ນີແ	-7376
▁huống	-7377
▁khổng	-7378
▁nhềEv	-7379
▁ພັນທະ	-7380
▁ເຫຼັກ	-7381
ຮ້າຍແຮກ	-7382
▁ທົດລອກ	-7383
▁ຮູ້ຈັກ	-7384
າມເຂົ້າແ	-7385
▁chềEđịnh	-7386
▁ພວກເຮົາກ	-7387
,,	-7388
OC	-7389
ໂຊ	-7390
110	-7391
ACK	-7392
Các	-7393
▁HB	-7394
▁MI	-7395
▁SK	-7396
▁ບາ	-7397
▁ຢູ	-7398
----	-7399
burg	-7400
lymp	-7401
osit	-7402
ທໍານ	-7403
ເທີກ	-7404
ເມີນ	-7405
້ແລະ	-7406
▁Bay	-7407
▁Tai	-7408
▁des	-7409
▁già	-7410
▁ກໍແ	-7411
▁ສານ	-7412
▁ຫັກ	-7413
ivate	-7414
outer	-7415
▁1200	-7416
▁hiến	-7417
▁liền	-7418
▁trắc	-7419
ບໍ່ມີກ	-7420
ພຣະກິກ	-7421
ແຕ່ລະກ	-7422
▁Crack	-7423
▁Tương	-7424
ềEtrọng	-7425
▁thềEng	-7426
▁ຮູບແບບ	-7427
neapolis	-7428
▁Plastic	-7429
▁thềEcho	-7430
ເປົ້າຫມາຍ	-7431
SI	-7432
▁້	-7433
Ein	-7434
dro	-7435
oul	-7436
une	-7437
ກ້ແ	-7438
ິດາ	-7439
ໍາແ	-7440
here	-7441
pson	-7442
ດື່ມ	-7443
ສບຸກ	-7444
ຫນາວ	-7445
▁Jan	-7446
▁cậu	-7447
▁hào	-7448
▁ສັບ	-7449
ກະຊວກ	-7450
າມອາດ	-7451
ເຫຼີມ	-7452
▁Coin	-7453
tainer	-7454
ນທີ່ຈະ	-7455
▁Phone	-7456
▁ຂ້ອຍແ	-7457
ມືອາຊີບ	-7458
▁Cheats	-7459
▁nghiện	-7460
▁ທໍາລາກ	-7461
▁chềEđợi	-7462
▁Generator	-7463
▁ພວກເຮົາມີກ	-7464
ETr	-7465
ili	-7466
ote	-7467
ີ້ແ	-7468
▁Li	-7469
▁SH	-7470
▁bò	-7471
ເຢັກ	-7472
▁Cầu	-7473
▁RFC	-7474
▁Roy	-7475
▁hẳn	-7476
▁đài	-7477
lythe	-7478
ພະຍາດ	-7479
ິດຂອກ	-7480
ເຂົາມ	-7481
ເວລານ	-7482
▁ĐềEb	-7483
andong	-7484
າມສໍາກ	-7485
▁giành	-7486
▁ປະມາກ	-7487
icrosoft	-7488
▁Solomons	-7489
AE	-7490
MA	-7491
bu	-7492
ca	-7493
ຜີ	-7494
---	-7495
Jar	-7496
oam	-7497
ຈີແ	-7498
ພັດ	-7499
ຼາກ	-7500
▁4:	-7501
▁64	-7502
▁95	-7503
▁AR	-7504
▁el	-7505
▁hè	-7506
raft	-7507
ຊ້ອກ	-7508
ຍ້າຍ	-7509
▁16,	-7510
allow	-7511
ອາຊີກ	-7512
າຍດາຍ	-7513
▁Paul	-7514
▁Type	-7515
▁bềEg	-7516
▁kềEc	-7517
▁ບົດກ	-7518
▁ແກ້ວ	-7519
ຂະແຫນກ	-7520
▁vương	-7521
ເອກະລັກ	-7522
CI	-7523
EEx	-7524
FTA	-7525
oth	-7526
win	-7527
ຊ້າ	-7528
ຜູກ	-7529
້ຽວ	-7530
ềEx	-7531
▁66	-7532
▁Rd	-7533
▁TG	-7534
▁ga	-7535
▁im	-7536
▁mg	-7537
▁Áo	-7538
alls	-7539
illa	-7540
inch	-7541
ival	-7542
ross	-7543
ຈິດແ	-7544
ຖ້ວກ	-7545
ຫມູ່	-7546
▁Hôm	-7547
▁Hầu	-7548
▁Mới	-7549
▁khe	-7550
▁pre	-7551
▁tốn	-7552
▁ຝູກ	-7553
▁ລັດ	-7554
ocket	-7555
▁Lịch	-7556
▁Năng	-7557
▁khen	-7558
▁ຫນູນ	-7559
▁ແມັກ	-7560
ຕໍ່ການ	-7561
ສູນເສຍ	-7562
▁huyện	-7563
▁ປັນຍາ	-7564
▁ềEđâu	-7565
▁Africa	-7566
▁đềExuất	-7567
▁ປະຊາຊົນ	-7568
າມພະຍາຍາມ	-7569
▁hềEtrong	-7570
ການປິ່ນປົວ	-7571
▁ຜູ້ສະຫນອກ	-7572
▁ຕິດຕໍ່ຕອນນີແ	-7573
ứu	-7574
ife	-7575
vel	-7576
▁43	-7577
artr	-7578
ສອດກ	-7579
ສົມທ	-7580
▁25,	-7581
▁Bel	-7582
▁Gas	-7583
▁Mặt	-7584
▁dán	-7585
/2017	-7586
quyết	-7587
▁Mich	-7588
▁Phân	-7589
▁thai	-7590
▁Đóng	-7591
▁ຫລອກ	-7592
▁ເກັບ	-7593
▁2019,	-7594
▁ềEnhà	-7595
ຕາຕະລາກ	-7596
ເກັບກໍາ	-7597
▁carton	-7598
▁ສະເຫນີ	-7599
ຍຸດທະສາດ	-7600
້ຈັດຕັ້ກ	-7601
▁TềEchức	-7602
ສໍາລັບກາກ	-7603
▁Deduster	-7604
ເຫຼີມສະຫຼອກ	-7605
▁ອຸປະກອນກາກ	-7606
87	-7607
HC	-7608
yc	-7609
ots	-7610
ຊັດ	-7611
ບບກ	-7612
ມຸກ	-7613
ຮອບ	-7614
▁It	-7615
▁TS	-7616
▁nô	-7617
auda	-7618
evel	-7619
ນທີແ	-7620
ສະຕິ	-7621
▁Cal	-7622
▁Chi	-7623
▁ອົດ	-7624
າຍທາກ	-7625
▁2008	-7626
▁Cent	-7627
▁Cung	-7628
▁Mill	-7629
▁Phúc	-7630
▁Prov	-7631
▁Viet	-7632
ບໍ່ພຽກ	-7633
ລວມທັກ	-7634
ສັນຍາກ	-7635
▁2019.	-7636
▁Other	-7637
▁ປະຈໍາ	-7638
ສຸຂະພາກ	-7639
າມຫຍຸ້ກ	-7640
ື່ມວນຊົນ	-7641
▁thềEthay	-7642
An	-7643
di	-7644
ຖິ	-7645
ຍາະ	-7646
ປຽກ	-7647
ພຶດ	-7648
ມຸມ	-7649
▁Ox	-7650
▁dò	-7651
▁ↁE	-7652
-100	-7653
user	-7654
uống	-7655
ຫາຍແ	-7656
ອຸ່ກ	-7657
ເສົາ	-7658
▁350	-7659
▁Khả	-7660
▁cốt	-7661
▁rềE	-7662
▁ເຕກ	-7663
▁ໂຮມ	-7664
glass	-7665
light	-7666
ແລະມີ	-7667
້ແນ່ແ	-7668
▁86-1	-7669
▁Băng	-7670
▁Dưới	-7671
▁Nhóm	-7672
▁Phil	-7673
▁ngừa	-7674
▁tềEn	-7675
▁ຈໍາກ	-7676
ຫົວຂໍ້	-7677
ີ້ແມ່ນ	-7678
້ມີແສກ	-7679
▁bềEnh	-7680
▁chuộc	-7681
▁đềEvà	-7682
▁ພະຍາກ	-7683
ປະກອບມີ	-7684
ປະຈຸບັກ	-7685
ພະຍາກອນ	-7686
້ຮູ້ວ່າ	-7687
▁(2015)	-7688
▁Galaxy	-7689
ອະນຸຍາດແ	-7690
າມແຕກຕ່າກ	-7691
DP	-7692
fr	-7693
Com	-7694
htt	-7695
off	-7696
ທັດ	-7697
▁42	-7698
▁FA	-7699
▁Xe	-7700
▁pc	-7701
▁Úc	-7702
▁ủy	-7703
ຍ່ອກ	-7704
າຕອກ	-7705
ແລ່ກ	-7706
▁15,	-7707
▁Ass	-7708
▁Per	-7709
▁Tim	-7710
▁ben	-7711
▁đãi	-7712
▁đùn	-7713
▁ດວກ	-7714
ດານັກ	-7715
ນອື່ກ	-7716
ນ້ໍາມ	-7717
້ເຮັດ	-7718
▁Karn	-7719
▁sềEv	-7720
etooth	-7721
▁Jizer	-7722
olenoid	-7723
ເຫລື້ອມ	-7724
▁hềEcũng	-7725
▁Solenoid	-7726
▁ໂດຍສະເພາະ	-7727
OD	-7728
eh	-7729
fu	-7730
ຮແ	-7731
ແປ	-7732
ưởi	-7733
ຂວກ	-7734
ພາຍ	-7735
ຫໍ່	-7736
ໂຮມ	-7737
▁08	-7738
▁mi	-7739
▁sa	-7740
▁ốc	-7741
iger	-7742
ຕ່ອກ	-7743
ມູນກ	-7744
ລະດູ	-7745
ສິລະ	-7746
ຸນເກ	-7747
▁86-	-7748
▁Ray	-7749
▁lận	-7750
▁lộn	-7751
▁tần	-7752
▁xóm	-7753
ution	-7754
ປະກາດ	-7755
ລະການ	-7756
າມຮູ້	-7757
▁with	-7758
▁Đấng	-7759
▁ຊື່ກ	-7760
▁ປ່ຽນ	-7761
ທີ່ນີແ	-7762
▁Warin	-7763
▁quyển	-7764
▁width	-7765
▁xương	-7766
▁ອາຫາກ	-7767
ວັດສະດຸ	-7768
▁Custom	-7769
▁chềEấy	-7770
▁đềEnày	-7771
ພັດທະນາແ	-7772
▁Univers	-7773
▁ອະທິຖາກ	-7774
▁ềETrung	-7775
▁Americas	-7776
▁TềEtrọng	-7777
▁ສະຫນັບສະຫນູນ	-7778
%,	-7779
2.1	-7780
bet	-7781
ini	-7782
ney	-7783
ody	-7784
ouk	-7785
ກວກ	-7786
ມ່ກ	-7787
ລັບ	-7788
ຫາຍ	-7789
ັດກ	-7790
▁HP	-7791
▁cỡ	-7792
▁vẽ	-7793
.0.1	-7794
oker	-7795
outh	-7796
ທ້ອນ	-7797
ຫຼີກ	-7798
ະເພດ	-7799
ື້ອຍ	-7800
ເສຍກ	-7801
▁Bên	-7802
▁Lọc	-7803
▁Mọi	-7804
▁Rất	-7805
▁dịp	-7806
▁tây	-7807
▁ກຽກ	-7808
icker	-7809
ກວ້າກ	-7810
ສະມາກ	-7811
ຫມາຍກ	-7812
ເຕັມແ	-7813
ເລກຸກ	-7814
ເຫັນແ	-7815
▁Vàng	-7816
▁card	-7817
▁tour	-7818
▁ສະຕິ	-7819
ສໍາພັນ	-7820
▁Email	-7821
▁Zhong	-7822
▁Flight	-7823
▁cookie	-7824
ບັນຊີລາຍ	-7825
ໂດຍບໍ່ມີ	-7826
▁Oceania	-7827
▁Shopify	-7828
▁SlotJar	-7829
▁ນັບຕັ້ກ	-7830
▁Shanghai	-7831
▁Unlimited	-7832
ທີ່ດີທີ່ສຸກ	-7833
LE	-7834
RL	-7835
gs	-7836
ຈແ	-7837
ຈໍ	-7838
ຸບ	-7839
ald	-7840
ຊຽກ	-7841
ະຕິ	-7842
າດາ	-7843
ỗng	-7844
▁Lê	-7845
▁OS	-7846
▁UK	-7847
▁tú	-7848
amic	-7849
ctor	-7850
very	-7851
ydro	-7852
ຕະຫລ	-7853
ຢູ່ນ	-7854
ລະບຸ	-7855
▁FSX	-7856
▁Tạo	-7857
▁ềEl	-7858
razil	-7859
ວ່າມີ	-7860
ຫຼິ້ນ	-7861
▁Comm	-7862
▁axit	-7863
▁chán	-7864
▁khải	-7865
▁liều	-7866
▁ລູກແ	-7867
▁ềEkh	-7868
ດເລືອກ	-7869
ບານເຕະ	-7870
▁Basel	-7871
▁China	-7872
▁Phiên	-7873
▁miếng	-7874
▁ກໍາມະ	-7875
▁ຫຍຸ້ກ	-7876
ສະເຫນີແ	-7877
ຫນ້າທີ່	-7878
▁Tagged	-7879
▁fabric	-7880
▁ເພື່ອແ	-7881
ເປັນຫຍັກ	-7882
▁ກະຕັນຍູ	-7883
alvanized	-7884
▁ເຂົ້າຮ່ວມ	-7885
ໂທລະສັບມືຖື	-7886
la	-7887
ແອ	-7888
ẤT	-7889
101	-7890
ETh	-7891
ais	-7892
oun	-7893
ray	-7894
ກຽກ	-7895
ຕັມ	-7896
ນຶກ	-7897
ເຈີ	-7898
▁My	-7899
▁SS	-7900
▁TV	-7901
▁nợ	-7902
▁ru	-7903
ject	-7904
ning	-7905
yang	-7906
ປຽບທ	-7907
▁Cửa	-7908
▁One	-7909
▁rửa	-7910
▁uốn	-7911
▁ພິວ	-7912
arger	-7913
ruity	-7914
ຍິນດີ	-7915
ລິນຍາ	-7916
ວ່າຈະ	-7917
ຫຼີ້ນ	-7918
າກການ	-7919
▁hằng	-7920
▁thuế	-7921
▁thói	-7922
▁ຂະນະ	-7923
▁ພຣະກ	-7924
yright	-7925
ມາເຖິກ	-7926
ຮັກສາກ	-7927
▁2017,	-7928
▁Count	-7929
▁khoan	-7930
▁sales	-7931
EDining	-7932
າດສະຫນາ	-7933
▁0086-5	-7934
▁Canada	-7935
▁Karnar	-7936
▁hềEcủa	-7937
▁ເຂົ້າແ	-7938
▁hềEđược	-7939
▁đềEnhận	-7940
▁ປົກກະຕິ	-7941
ີ່ພວກເຮົາ	-7942
▁ການພັດທະນາ	-7943
▁Mississippi	-7944
TV	-7945
ùi	-7946
/11	-7947
120	-7948
ler	-7949
orr	-7950
ພືກ	-7951
າກແ	-7952
ເສບ	-7953
ແກ່	-7954
▁PU	-7955
▁Tô	-7956
edia	-7957
itch	-7958
orts	-7959
ຈ່າຍ	-7960
ບາຍກ	-7961
▁Bro	-7962
▁Tốc	-7963
▁bếp	-7964
▁lợp	-7965
▁sôi	-7966
▁tạm	-7967
▁ໂຫຍ	-7968
amine	-7969
ipper	-7970
ຈຸລັກ	-7971
ຕະນາກ	-7972
ປະຈັກ	-7973
ສັດຕູ	-7974
▁thẩm	-7975
▁ທີ່ກ	-7976
▁ເມີກ	-7977
ອັນດັບ	-7978
ຮູບແບກ	-7979
ໍານົດແ	-7980
▁bềEvà	-7981
ສັດລ້ຽກ	-7982
▁Center	-7983
▁đềExem	-7984
▁đềEđảm	-7985
▁ຈໍາເປັກ	-7986
▁ຈຸດປະສົກ	-7987
▁ພິຈາລະນາ	-7988
ຈໍານວນຫຼາຍ	-7989
56	-7990
Al	-7991
180	-7992
ern	-7993
oin	-7994
olf	-7995
ມູນ	-7996
▁DJ	-7997
▁Ge	-7998
▁NY	-7999
▁re	-8000
▁tứ	-8001
2013	-8002
cont	-8003
reen	-8004
ະທານ	-8005
ເຕີກ	-8006
▁Evà	-8007
▁PRO	-8008
veyor	-8009
ທິກາກ	-8010
▁Jose	-8011
▁thổi	-8012
▁ເວັບ	-8013
▁ເຫັນ	-8014
estern	-8015
ຍະເວລາ	-8016
ຜູ້ຍິກ	-8017
▁Organ	-8018
▁Union	-8019
▁thịnh	-8020
▁ເນື້ອ	-8021
ເຂົ້າມາ	-8022
▁Nghiên	-8023
▁cheats	-8024
▁chềEth	-8025
▁ຕະຫລອກ	-8026
▁ແມ່ຍິກ	-8027
ການທົດລອກ	-8028
ໂດຍສະເພາະ	-8029
▁ການສຶກສາ	-8030
▁ນັ້ນແມ່ນ	-8031
ປະຕິບັດຕາມ	-8032
▁ພວກເຮົາສາມາດ	-8033
DS	-8034
PT	-8035
ùm	-8036
▁%	-8037
EPl	-8038
opp	-8039
pen	-8040
ບວກ	-8041
ວາວ	-8042
▁MT	-8043
▁QU	-8044
▁Sơ	-8045
ELED	-8046
ient	-8047
ວ່າແ	-8048
▁Pie	-8049
▁Rad	-8050
▁Und	-8051
▁bớt	-8052
▁men	-8053
▁mưa	-8054
▁rob	-8055
▁ung	-8056
▁đấy	-8057
▁ລິດ	-8058
▁ເອີ	-8059
Eyarn	-8060
otrop	-8061
ບໍ່ເກ	-8062
▁Hành	-8063
▁xong	-8064
▁Đảng	-8065
າກນັ້ກ	-8066
▁đềEăn	-8067
Espring	-8068
▁Amazon	-8069
▁Design	-8070
▁Double	-8071
▁System	-8072
▁hềEphải	-8073
▁thềEcảm	-8074
eyelashstore	-8075
-60	-8076
Air	-8077
ESp	-8078
ida	-8079
tor	-8080
ໍ້ແ	-8081
▁52	-8082
▁JW	-8083
2005	-8084
anda	-8085
etro	-8086
ລົດແ	-8087
້ຜູ້	-8088
▁Gọi	-8089
▁Hộp	-8090
▁Unc	-8091
inder	-8092
otary	-8093
ຫຼິ້ກ	-8094
າມຍາວ	-8095
ແຫນ້ກ	-8096
ềEcần	-8097
▁Hiệu	-8098
▁mệnh	-8099
▁trốn	-8100
▁ສະພາ	-8101
ວມເອົາ	-8102
▁Giống	-8103
▁Mount	-8104
▁bềEng	-8105
▁nhềEb	-8106
ຮ່ວມມືກ	-8107
່ຽວກັບກ	-8108
ສ່ວນຮ່ວມ	-8109
ດຽວກັນກັບ	-8110
ຜ່າສູນກາກ	-8111
▁modified	-8112
▁ເສັ້ນທາກ	-8113
▁Copyright	-8114
▁ການເດີນທາກ	-8115
BO	-8116
JS	-8117
ຶມ	-8118
eam	-8119
get	-8120
ren	-8121
ulf	-8122
ນິດ	-8123
ພິດ	-8124
ພໍ່	-8125
ລືມ	-8126
ຫຼດ	-8127
▁CA	-8128
▁Es	-8129
▁Et	-8130
▁RN	-8131
▁TM	-8132
▁le	-8133
ETop	-8134
Việt	-8135
flex	-8136
ຫຍາກ	-8137
▁240	-8138
▁mỏi	-8139
▁ຊອບ	-8140
▁ດັກ	-8141
▁ປຸກ	-8142
▁ມອກ	-8143
trong	-8144
wheel	-8145
ດເຫັກ	-8146
ໍາອິດ	-8147
▁Card	-8148
▁Hang	-8149
▁Hoặc	-8150
▁khái	-8151
▁khía	-8152
▁xinh	-8153
▁ຫມາຍ	-8154
eleton	-8155
eposit	-8156
ຊື່ສັກ	-8157
ະຊາຊົນ	-8158
້ມີການ	-8159
▁Ideas	-8160
▁phiếu	-8161
▁thềEk	-8162
▁ຫນ້ອກ	-8163
▁ອາຫານ	-8164
unction	-8165
▁123456	-8166
▁86-574	-8167
▁Phương	-8168
▁carbon	-8169
▁ngưỡng	-8170
▁đềElại	-8171
ຂະບວນການ	-8172
ີ້ເຫຍື້ອ	-8173
ໍ່ເນື່ອກ	-8174
▁Private	-8175
▁thềEdục	-8176
▁thềExác	-8177
▁đềEcung	-8178
▁ທັດສະນະ	-8179
▁ທ່ານຮອກ	-8180
ຮັບຜິດຊອກ	-8181
▁ThềEthao	-8182
▁Blackjack	-8183
.)	-8184
UV	-8185
ij	-8186
ECl	-8187
bit	-8188
ift	-8189
umm	-8190
ດູແ	-8191
ດົນ	-8192
▁ST	-8193
▁tủ	-8194
▁us	-8195
oler	-8196
ring	-8197
ລຸ່ມ	-8198
ລຸ້ນ	-8199
ເຕົາ	-8200
່ວຍກ	-8201
▁GBP	-8202
▁Lên	-8203
▁Lúc	-8204
▁Sun	-8205
▁Tốt	-8206
▁khứ	-8207
▁kẹo	-8208
▁mùi	-8209
ອາລົມ	-8210
▁PTFE	-8211
▁Sách	-8212
▁Wire	-8213
▁gươm	-8214
▁ເດີກ	-8215
eramic	-8216
nghiệp	-8217
ຕໍ່ສູແ	-8218
ສະຫລາກ	-8219
ເອີຣົກ	-8220
▁Nguồn	-8221
▁trềEđ	-8222
▁ເຊື້ອ	-8223
▁ແຫຼ່ກ	-8224
ຫົວຫນ້າ	-8225
▁Carbon	-8226
ານກັ່ນຕອກ	-8227
ອັດຕະໂນມັກ	-8228
57	-8229
EMA	-8230
Tôi	-8231
ady	-8232
bed	-8233
ຈອນ	-8234
▁Er	-8235
▁sk	-8236
▁ẩm	-8237
arin	-8238
ding	-8239
ເກາະ	-8240
▁Cup	-8241
▁Dec	-8242
▁Hợp	-8243
▁Jin	-8244
▁Xây	-8245
▁báu	-8246
▁ham	-8247
-2020	-8248
erson	-8249
olone	-8250
ຣະອົກ	-8251
ເອົາກ	-8252
▁APEC	-8253
▁Case	-8254
▁Cert	-8255
▁Java	-8256
▁Part	-8257
▁Điển	-8258
▁ເມັກ	-8259
▁ແກ້ແ	-8260
▁Cloud	-8261
▁miệng	-8262
▁vềEtr	-8263
▁ຊອບແວ	-8264
ສາດສະດາ	-8265
▁ĐềEdày	-8266
▁ຕັດສິກ	-8267
▁ສໍາເລັກ	-8268
▁ເຈົ້າມີ	-8269
ດ້ານວິຊາກ	-8270
ທ່ານສາມາດ	-8271
ປະຫວັດສາກ	-8272
ເຫຼົ່ານີແ	-8273
▁Software	-8274
▁ສະຖານທີ່	-8275
▁Uncategorized	-8276
CM	-8277
FS	-8278
HO	-8279
WS	-8280
ຣິ	-8281
ỗn	-8282
.35	-8283
Con	-8284
ams	-8285
esc	-8286
hua	-8287
ຍົນ	-8288
ຫີນ	-8289
າພີ	-8290
▁41	-8291
▁46	-8292
luor	-8293
rost	-8294
weet	-8295
xBet	-8296
ີວິກ	-8297
ໍເຕີ	-8298
▁26,	-8299
▁ABS	-8300
▁Pip	-8301
▁Qua	-8302
▁mạo	-8303
▁thơ	-8304
▁đếm	-8305
▁ຍາວ	-8306
▁ສອບ	-8307
antom	-8308
ພະນັນ	-8309
ມະນຸດ	-8310
▁Hand	-8311
▁chìm	-8312
▁làng	-8313
▁ກັບກ	-8314
▁ເຮືອ	-8315
ປະເທດແ	-8316
▁Giêng	-8317
▁Touch	-8318
▁©2005	-8319
▁đềEđi	-8320
ກົດຫມາກ	-8321
ພາກສ່ວກ	-8322
້ພວກເຂົາ	-8323
▁đềEtăng	-8324
▁ເຈົ້າກແ	-8325
ປະດິດສ້າກ	-8326
ປະຫວັດສາດ	-8327
▁Province	-8328
▁thềEthực	-8329
ຕິດຕໍ່ຕອນນີແ	-8330
9%	-8331
dy	-8332
່ຍ	-8333
ệm	-8334
-16	-8335
-80	-8336
olm	-8337
uff	-8338
ຍ່ແ	-8339
ທາຍ	-8340
ພີມ	-8341
▁ER	-8342
▁cú	-8343
▁ພູ	-8344
aker	-8345
ette	-8346
ihan	-8347
ຫຍໍ້	-8348
ຫມຶກ	-8349
ຫລຸກ	-8350
ຫວາກ	-8351
▁0.2	-8352
▁000	-8353
▁Day	-8354
▁Dân	-8355
▁Này	-8356
▁PET	-8357
▁Sec	-8358
▁mài	-8359
▁nản	-8360
▁ມົມ	-8361
▁ອໍາ	-8362
ການໂກ	-8363
ອັດຕາ	-8364
ເຕືອນ	-8365
▁giấu	-8366
▁nhấp	-8367
▁rung	-8368
▁ຈ່າກ	-8369
▁ຝຸ່ກ	-8370
utions	-8371
ພາບຂອກ	-8372
ເມື່ອກ	-8373
▁2020,	-8374
▁Theme	-8375
▁thiệt	-8376
▁ປະສົບ	-8377
▁ມີການ	-8378
▁ເປັນກ	-8379
ອະທິບາກ	-8380
ນ້ໍາຫນັກ	-8381
ມາດຕະຖາກ	-8382
▁ອາເມລິກາ	-8383
້ເຂົາເຈົ້າ	-8384
▁ການອອກແບບ	-8385
▁©2005-2018	-8386
83	-8387
24.	-8388
ຖັກ	-8389
ຟອມ	-8390
▁IN	-8391
ages	-8392
iant	-8393
nhận	-8394
yuan	-8395
ລາຍແ	-8396
ຫນູນ	-8397
ຫລີກ	-8398
ຮ້າຍ	-8399
ໂດຍແ	-8400
່າຍກ	-8401
້ໍາກ	-8402
ềEkh	-8403
▁30%	-8404
▁Int	-8405
▁Nov	-8406
▁chẽ	-8407
istan	-8408
ນັບຖື	-8409
ານລົກ	-8410
ີ່ມີກ	-8411
▁Xuân	-8412
▁tươi	-8413
▁ຕື່ກ	-8414
▁ລາວແ	-8415
ກັນດາກ	-8416
ທັນສະແ	-8417
້ສະແດກ	-8418
▁khiếp	-8419
▁ດົນຕີ	-8420
ຍີ່ປຸ່ກ	-8421
ທະຍາສາດ	-8422
ນສົມບັດ	-8423
▁bềElạc	-8424
▁ềEgiữa	-8425
▁Fitting	-8426
▁thềEnào	-8427
▁ÁEtưởng	-8428
▁ແມ່ນຫຍັກ	-8429
81	-8430
Ar	-8431
BR	-8432
ບນ	-8433
ean	-8434
led	-8435
ຊານ	-8436
ຍຸດ	-8437
ດູດ	-8438
ພຶກ	-8439
ລີແ	-8440
າມຊ	-8441
້ປະ	-8442
▁ức	-8443
acet	-8444
gram	-8445
າແລະ	-8446
ເບົາ	-8447
ແຈ່ມ	-8448
້ໂດຍ	-8449
▁LLC	-8450
▁Roo	-8451
▁Tối	-8452
▁mệt	-8453
▁sấy	-8454
▁vòi	-8455
▁ສະລ	-8456
ຊາຊົກ	-8457
ທັກສະ	-8458
▁chậm	-8459
▁dính	-8460
▁Động	-8461
▁ຝ່າກ	-8462
▁ພິທີ	-8463
▁ອື່ກ	-8464
ຟື້ນຟູ	-8465
າລະສາກ	-8466
ົດຫມາຍ	-8467
▁HềEch	-8468
▁Inter	-8469
▁ເສົ້າ	-8470
ihanouk	-8471
ດ້ວຍການ	-8472
ຕໍ່ຕ້າກ	-8473
ềEthông	-8474
ເປັນສິ່ກ	-8475
▁cềEđịnh	-8476
▁đềEphân	-8477
▁ແລະຫຼັກ	-8478
ທີ່ມີຊື່ສຽກ	-8479
ສະພາບແວດລ້ອມ	-8480
cn	-8481
ze	-8482
▁ໍ	-8483
-86	-8484
ION	-8485
ael	-8486
ama	-8487
ema	-8488
emb	-8489
ily	-8490
ope	-8491
ແມກ	-8492
ໂດດ	-8493
▁Ab	-8494
▁VÀ	-8495
▁wh	-8496
▁ຜະ	-8497
ສະນີ	-8498
ຫລ່ກ	-8499
ະບຽນ	-8500
້ອຍກ	-8501
▁170	-8502
▁29,	-8503
▁nêu	-8504
▁ອັນ	-8505
ຊອບແວ	-8506
ເວັ້ກ	-8507
ແຫຼ່ກ	-8508
▁Bang	-8509
▁HềEs	-8510
▁King	-8511
▁gạch	-8512
ຍລະມັກ	-8513
ຕົວເອກ	-8514
ທ່ານຈະ	-8515
າມຫມາຍ	-8516
ໍລະດົກ	-8517
▁giềEb	-8518
▁ເກືອກ	-8519
ປະຈຸບັນ	-8520
ສະຫະລັດ	-8521
▁vềEnhà	-8522
▁ມົນທົນ	-8523
▁Ukraine	-8524
▁nhềEcủa	-8525
▁trềEvềE	-8526
▁vềEphần	-8527
ສື່ມວນຊົນ	-8528
ສົມບູນແບບ	-8529
ອັດຕະໂນມັດ	-8530
OM	-8531
TH	-8532
UB	-8533
.05	-8534
UMX	-8535
ibr	-8536
ຶນແ	-8537
ືລື	-8538
ໂຊກ	-8539
▁51	-8540
▁DS	-8541
▁EP	-8542
▁EU	-8543
▁TC	-8544
▁ພແ	-8545
EApp	-8546
egas	-8547
ryst	-8548
tein	-8549
ຊີວະ	-8550
ທີມກ	-8551
ສົມກ	-8552
າກາດ	-8553
າແຫນ	-8554
▁(10	-8555
▁750	-8556
▁Rev	-8557
▁Tân	-8558
▁bận	-8559
▁dại	-8560
▁ướt	-8561
▁ກ້າ	-8562
▁ດຶກ	-8563
ນຫຼວກ	-8564
ປັນຍາ	-8565
ຸດຂອກ	-8566
▁2021	-8567
▁Ninj	-8568
▁iPad	-8569
▁kênh	-8570
▁lưng	-8571
▁lềEh	-8572
▁nhạy	-8573
ຍອມຮັບ	-8574
ປະກັນແ	-8575
ເຜີຍແຜ	-8576
▁giềEt	-8577
▁kềEcả	-8578
oowheel	-8579
ພາກພື້ກ	-8580
ິນຕະນາກ	-8581
▁Direct	-8582
▁Nguyên	-8583
▁Single	-8584
▁nhềEnh	-8585
▁Standard	-8586
▁BềEtrưởng	-8587
▁Campuchia	-8588
7.	-8589
PY	-8590
do	-8591
mi	-8592
ະຫ	-8593
30,	-8594
EPh	-8595
imm	-8596
ume	-8597
uẩn	-8598
zer	-8599
ຽບກ	-8600
▁54	-8601
▁6:	-8602
▁Vũ	-8603
cker	-8604
eset	-8605
ians	-8606
omas	-8607
ປານແ	-8608
ລ່ຽກ	-8609
ຫ້າມ	-8610
▁sắm	-8611
▁ແນແ	-8612
▁ềEH	-8613
Trang	-8614
aming	-8615
▁Mình	-8616
▁Phạm	-8617
▁Visa	-8618
▁khói	-8619
▁điển	-8620
▁điệu	-8621
▁ຍ່າກ	-8622
▁ບຸກກ	-8623
▁ເທິກ	-8624
▁ແຫວກ	-8625
itting	-8626
ຂອບເຂດ	-8627
ອັບເດກ	-8628
▁sềEkỹ	-8629
▁ềEcác	-8630
ilicone	-8631
ອາຍແກັສ	-8632
▁Blythe	-8633
▁bềEcủa	-8634
▁ຂໍຂອບແ	-8635
ການເມືອກ	-8636
▁Digital	-8637
▁đềEphục	-8638
▁đềEkhông	-8639
▁Meyelashstore	-8640
ຮ່	-8641
/19	-8642
220	-8643
EAd	-8644
car	-8645
elf	-8646
kgs	-8647
ລິມ	-8648
ືອດ	-8649
▁&#	-8650
▁ab	-8651
▁px	-8652
▁ưa	-8653
ailb	-8654
flix	-8655
hoạt	-8656
ston	-8657
tery	-8658
ຊາຍແ	-8659
ຖິຕິ	-8660
ຫລັບ	-8661
ໂທຫາ	-8662
▁230	-8663
▁700	-8664
▁Mos	-8665
▁lót	-8666
▁sốt	-8667
▁ຟ້າ	-8668
▁ເສຍ	-8669
▁ແພກ	-8670
etate	-8671
ຈະຖືກ	-8672
ດົນຕີ	-8673
ປະມວນ	-8674
▁Chat	-8675
▁cềEt	-8676
▁nồng	-8677
▁ທ້າວ	-8678
ປາຍທາກ	-8679
ຮັບຮູ້	-8680
້ເຮັດແ	-8681
▁Paris	-8682
▁ສິດທິ	-8683
ທີ່ຕ້ອກ	-8684
ພົບເຫັນ	-8685
▁đềEđạt	-8686
▁ປະຫວັດ	-8687
ຊ່ຽວຊານແ	-8688
ປະສົບກາກ	-8689
ປັກຮັກສາ	-8690
າມກົດດັກ	-8691
▁Portable	-8692
▁thềEcung	-8693
▁thềEnhìn	-8694
▁đềEchính	-8695
▁University	-8696
▁ການກໍ່ສ້າກ	-8697
5.	-8698
-05	-8699
New	-8700
wei	-8701
ມົນ	-8702
ົບແ	-8703
▁EL	-8704
▁Pu	-8705
▁ຫະ	-8706
iles	-8707
ສ້ອມ	-8708
ເປົາ	-8709
▁10:	-8710
▁Sex	-8711
▁hỗn	-8712
▁ຊົນ	-8713
▁ນົດ	-8714
▁ສິດ	-8715
▁ແລກ	-8716
▁ໂຣກ	-8717
ional	-8718
ປະມານ	-8719
ມ່ຂອກ	-8720
ອນຂອກ	-8721
ັກນິກ	-8722
້ມູນແ	-8723
້ຮັບແ	-8724
▁ITIL	-8725
▁Lượt	-8726
▁Wars	-8727
▁phạt	-8728
▁ເຕີມ	-8729
▁ແທ້ແ	-8730
ຂະຫຍາກ	-8731
ຕໍ່ກັບ	-8732
ສື່ສານ	-8733
່ຮ່ວມກ	-8734
▁2019!	-8735
▁Linux	-8736
▁ngạch	-8737
▁ສະພາກ	-8738
▁ຮູບເກ	-8739
ນອັບເດກ	-8740
▁bềEmất	-8741
▁bềEmột	-8742
▁vềEmôi	-8743
▁ຂະແຫນກ	-8744
▁ສະຫນອກ	-8745
▁ເກົ້າອ	-8746
ashville	-8747
▁acrylic	-8748
▁ລັກສະນະ	-8749
ທີ່ພວກເຂົາ	-8750
ມະຫາວິທະຍາແ	-8751
ihanoukville	-8752
▁ກຸ່ມນະໂຍບາກ	-8753
ຂໍ້ມູນເພີ່ມເຕີມ	-8754
cá	-8755
ວບ	-8756
-50	-8757
ask	-8758
err	-8759
lan	-8760
phụ	-8761
str	-8762
war	-8763
ອາຍ	-8764
ເກີ	-8765
▁(6	-8766
▁6.	-8767
▁Kỹ	-8768
▁OD	-8769
acle	-8770
enny	-8771
rice	-8772
ທໍາກ	-8773
ື່ອມ	-8774
▁3.5	-8775
▁ODM	-8776
▁bọc	-8777
▁nấu	-8778
▁off	-8779
▁Đến	-8780
▁ທົກ	-8781
▁ສຶກ	-8782
▁ສູດ	-8783
iforn	-8784
ນໍາພາ	-8785
້ເກີດ	-8786
▁châm	-8787
▁luân	-8788
▁tháp	-8789
▁trộm	-8790
▁tàng	-8791
uminum	-8792
າມຫມາກ	-8793
ເຫຼືອກ	-8794
▁Dubai	-8795
▁Speed	-8796
▁Thuốc	-8797
▁bềEgi	-8798
▁ທີ່ຈະ	-8799
ireless	-8800
ໂທລະສັບ	-8801
▁Posted	-8802
▁nhềEvà	-8803
▁ຕິດຕໍແ	-8804
ມັດລະວັກ	-8805
ລັດຖະບານ	-8806
▁ບໍລິການ	-8807
▁ລະຫວ່າກ	-8808
▁ສະຫະລັກ	-8809
▁ຂຽນເມື່ອ	-8810
▁NghềEthuật	-8811
▁ອັດຕະໂນມັກ	-8812
++	-8813
9:	-8814
Co	-8815
FL	-8816
IM	-8817
ແຊ	-8818
125	-8819
zip	-8820
໊ອກ	-8821
▁DX	-8822
▁SM	-8823
NUMX	-8824
elin	-8825
gang	-8826
iano	-8827
site	-8828
ຂວັກ	-8829
ທຽບແ	-8830
ສາຫະ	-8831
າຫານ	-8832
ືລືລ	-8833
▁Alb	-8834
▁Boh	-8835
▁Tem	-8836
▁lắm	-8837
erved	-8838
ision	-8839
ຝຣັ່ກ	-8840
ສີຂາວ	-8841
ເກີນແ	-8842
້ຂ້ອຍ	-8843
▁Song	-8844
▁ຂອບແ	-8845
▁ຍ້ອນ	-8846
▁ລູກກ	-8847
▁ສຸຂະ	-8848
atalog	-8849
eboard	-8850
ຕິດຕໍແ	-8851
ທີ່ບໍແ	-8852
້ນບໍ່ແ	-8853
▁2017.	-8854
▁Excel	-8855
▁lường	-8856
▁ພິເສດ	-8857
ifornia	-8858
ດໍາເນີກ	-8859
▁Joseph	-8860
▁Trưởng	-8861
▁khuyết	-8862
▁ປະເທດແ	-8863
osilicon	-8864
ຖານະເປັນ	-8865
▁tềElòng	-8866
▁ການແກ້ແ	-8867
▁thềEtrấn	-8868
▁ນອກເຫນືອ	-8869
▁Dedusting	-8870
▁nghềEnghiệp	-8871
▁ບັນຊີຜະລິດຕະພັນ	-8872
/4	-8873
uc	-8874
za	-8875
ặm	-8876
▁Ố	-8877
.34	-8878
="2	-8879
ior	-8880
now	-8881
rab	-8882
rah	-8883
ແກຼ	-8884
▁2)	-8885
▁MP	-8886
▁Od	-8887
▁ກູ	-8888
aris	-8889
asma	-8890
ents	-8891
feng	-8892
mont	-8893
ຂຸດກ	-8894
ຟຣິກ	-8895
ສັ້ນ	-8896
ຫຼາດ	-8897
ົ່ວກ	-8898
ໍາຫນ	-8899
▁ITS	-8900
▁Imp	-8901
▁Đội	-8902
▁đập	-8903
▁ທ່າ	-8904
Chúng	-8905
ຈາລຶກ	-8906
ອຂ່າກ	-8907
າກວ່າ	-8908
ềEnên	-8909
▁kịch	-8910
▁lang	-8911
▁rừng	-8912
▁ĐềEđ	-8913
▁ສໍານ	-8914
▁ຫມັກ	-8915
▁ຫມົກ	-8916
ipping	-8917
ປະທັບແ	-8918
ềEdàng	-8919
▁Flash	-8920
▁Khung	-8921
▁KềEtừ	-8922
▁ຖະຫນາ	-8923
▁ເຫມາະ	-8924
▁ເຮືອນ	-8925
iffuser	-8926
stagram	-8927
ດິຈິຕອນ	-8928
ບັນດາວິ	-8929
າມສະອາດ	-8930
▁Luxury	-8931
▁nghềEt	-8932
▁thềEđã	-8933
▁tềEnạn	-8934
ເຮັດແນວແ	-8935
▁ພາສາລາວ	-8936
▁ປະເທດຈີກ	-8937
02	-8938
Esh	-8939
acy	-8940
ala	-8941
ທຽກ	-8942
ປີແ	-8943
ຼວກ	-8944
່ເກ	-8945
▁63	-8946
▁Đi	-8947
EPDF	-8948
mart	-8949
ຊັ່ນ	-8950
ລັອກ	-8951
ອກຫາ	-8952
▁101	-8953
▁140	-8954
▁160	-8955
▁360	-8956
▁Sao	-8957
▁Tab	-8958
▁đắp	-8959
▁ດີກ	-8960
▁ນິກ	-8961
▁ຜິວ	-8962
/2019	-8963
ental	-8964
ຕີລາກ	-8965
ຕົ້ນແ	-8966
ພະຈິກ	-8967
▁Test	-8968
▁blog	-8969
▁giấc	-8970
▁lưỡi	-8971
▁lềEt	-8972
▁nhạo	-8973
▁ເນີນ	-8974
▁ແນວກ	-8975
zhuang	-8976
ປະເມີນ	-8977
ວັດທະນ	-8978
▁motor	-8979
▁nhềEt	-8980
▁đềEqu	-8981
content	-8982
ຂ້ານ້ອກ	-8983
ລັອດຕິກ	-8984
າມກວ້າກ	-8985
▁ຜູ້ນໍາ	-8986
▁ໂດຍການ	-8987
ຕົວເມືອກ	-8988
▁Service	-8989
▁Western	-8990
▁hềEbiết	-8991
▁xămhình	-8992
▁ຈັດຕັ້ກ	-8993
ເລີ່ມຕົ້ກ	-8994
EMicrosoft	-8995
ຂະຫນາດນ້ອຍ	-8996
▁Stainless	-8997
▁ສະລັອດຕິກ	-8998
05	-8999
4-	-9000
.06	-9001
700	-9002
EAP	-9003
Esp	-9004
Eun	-9005
elo	-9006
ves	-9007
ທຽມ	-9008
ປະຢ	-9009
ຜັນ	-9010
ມ່ແ	-9011
ສີ່	-9012
ໂຕ້	-9013
▁Ag	-9014
▁EH	-9015
▁lụ	-9016
ters	-9017
urga	-9018
zure	-9019
ລາວແ	-9020
▁13,	-9021
▁Eth	-9022
▁Sur	-9023
▁Sàn	-9024
▁cục	-9025
▁gọn	-9026
▁leo	-9027
▁mon	-9028
▁not	-9029
▁ກວດ	-9030
▁ຢືກ	-9031
ທ໌ຂອກ	-9032
▁Book	-9033
▁Link	-9034
▁chạm	-9035
▁thầu	-9036
▁Đình	-9037
▁ຊັ້ນ	-9038
▁ềEtr	-9039
EPower	-9040
ດຖະກິດ	-9041
ສະທ້ອນ	-9042
ຮຸນແຮກ	-9043
ເຫດການ	-9044
ໍລິສັກ	-9045
▁vượng	-9046
otropin	-9047
ດິຈິຕອກ	-9048
ຕໍ່ຕ້ານ	-9049
ທໍາມະດາ	-9050
▁County	-9051
ailbreak	-9052
alloween	-9053
ທໍາມະຊາດ	-9054
ລະບົບການ	-9055
ະລູມິນຽມ	-9056
▁ມັນສາມາດ	-9057
ເພື່ອເຮັດແ	-9058
▁ນອກຈາກນັ້ກ	-9059
.:	-9060
IG	-9061
Un	-9062
dr	-9063
rd	-9064
yp	-9065
ທຸ	-9066
ຫໍ	-9067
-02	-9068
-11	-9069
Nhà	-9070
bar	-9071
yêu	-9072
ກີດ	-9073
ຂຸມ	-9074
ນົກ	-9075
ສືກ	-9076
ໂອນ	-9077
▁uy	-9078
▁vả	-9079
...]	-9080
berg	-9081
etch	-9082
star	-9083
ນີ້ກ	-9084
ລຸ້ກ	-9085
່ມັນ	-9086
▁199	-9087
▁CAD	-9088
▁Còn	-9089
▁Pur	-9090
▁cốc	-9091
▁mac	-9092
▁ດັດ	-9093
chool	-9094
rogen	-9095
urity	-9096
ີ່ສຸດ	-9097
້ນພົບ	-9098
▁Code	-9099
▁Coil	-9100
▁Iron	-9101
▁bềEk	-9102
▁niêm	-9103
▁sềEs	-9104
▁your	-9105
▁ຫນັບ	-9106
▁ໂຫຍກ	-9107
lamode	-9108
ທົນທານ	-9109
ບໍລິເວ	-9110
ສະຕາລີ	-9111
ສະຫມອກ	-9112
▁HềEcó	-9113
▁Jiang	-9114
▁Khuôn	-9115
▁robot	-9116
▁ບັນລຸ	-9117
▁ປະທາກ	-9118
▁ລະບົກ	-9119
▁ອາດຈະ	-9120
▁ເພິ່ນ	-9121
▁ແມ່ນແ	-9122
jection	-9123
ການແຂ່ກ	-9124
ຊ່ຽວຊາກ	-9125
ທີ່ສວຍກ	-9126
ວິສະວະກ	-9127
ສະຖາບັນ	-9128
້ອນຂ້າກ	-9129
▁Office	-9130
▁ດໍາລົກ	-9131
▁ປີແຫ່ກ	-9132
▁ແຕ່ລະກ	-9133
ການສະແດກ	-9134
້ກາຍເປັນ	-9135
▁Bowflex	-9136
▁hềEtình	-9137
ານພັດທະນາ	-9138
ເຊື່ອມຕໍແ	-9139
▁Skeleton	-9140
▁internet	-9141
▁thềEchất	-9142
▁ປະສົບກາກ	-9143
▁ການບໍລິການ	-9144
DC	-9145
ະທ	-9146
Eex	-9147
emo	-9148
ຜົມ	-9149
ສູບ	-9150
ເດຍ	-9151
▁As	-9152
▁ái	-9153
▁ຊມ	-9154
anth	-9155
play	-9156
ຂາຍແ	-9157
ດິນແ	-9158
ຕື່ກ	-9159
ບົດກ	-9160
ເມັກ	-9161
້ລົກ	-9162
▁(35	-9163
▁AUD	-9164
▁DIN	-9165
▁Soc	-9166
▁dao	-9167
▁hàm	-9168
▁lều	-9169
▁xót	-9170
▁Đào	-9171
▁ຈືແ	-9172
▁ຕຽມ	-9173
ength	-9174
icken	-9175
ປູເຈກ	-9176
ລະຫັກ	-9177
ລໍຖ້າ	-9178
▁Brow	-9179
▁Ling	-9180
▁Plus	-9181
▁Tiệc	-9182
▁Định	-9183
▁ຕ່ໍາ	-9184
▁ຕ້ານ	-9185
▁ຫນົມ	-9186
▁ເຕົາ	-9187
ກະຕຸ້ກ	-9188
ທີແກ້ແ	-9189
ທົດສອກ	-9190
ລະດັບກ	-9191
ສື່ສາກ	-9192
▁Giêsu	-9193
▁Print	-9194
▁Quyền	-9195
▁mềEra	-9196
▁trích	-9197
▁ຜະລິກ	-9198
▁ສະແຕນ	-9199
assport	-9200
ກະສິກໍາ	-9201
ການແກ້ແ	-9202
▁Golden	-9203
▁đềEgiữ	-9204
▁đềEnói	-9205
ກິດຈະກໍາ	-9206
ທີ່ທ່ານແ	-9207
ປະເທດຈີກ	-9208
ຫລາຍກວ່າ	-9209
າມຫນາແຫນ	-9210
▁English	-9211
▁đềEchơi	-9212
ຂະຫນາດນ້ອກ	-9213
2:	-9214
LS	-9215
mà	-9216
wp	-9217
ຜນ	-9218
-90	-9219
ica	-9220
oil	-9221
ຊຶມ	-9222
ເຊຍ	-9223
ເວກ	-9224
▁MS	-9225
▁NG	-9226
▁Ta	-9227
▁ms	-9228
ECop	-9229
inal	-9230
item	-9231
ຊ້ໍາ	-9232
ບ່າຍ	-9233
ມົດແ	-9234
ິນາກ	-9235
ແຫວກ	-9236
▁1.6	-9237
▁Leg	-9238
▁bọt	-9239
-2019	-9240
eting	-9241
usion	-9242
ຍະຍາວ	-9243
▁Full	-9244
▁Nick	-9245
▁Toàn	-9246
▁ngon	-9247
▁ngọt	-9248
▁ນັ່ກ	-9249
emical	-9250
▁TTXVN	-9251
▁ຫຼິ້ນ	-9252
▁ềEmức	-9253
ເວັນອອກ	-9254
ແລະການກ	-9255
▁Master	-9256
▁Option	-9257
▁online	-9258
artridge	-9259
ລາຍລະອຽດ	-9260
▁bềEphim	-9261
▁thềEtạo	-9262
ຕາເວັນຕົກ	-9263
▁nghềEcao	-9264
▁ເວົ້າວ່າ	-9265
ການບໍລິການ	-9266
▁Solutions	-9267
▁ເພີ່ມຂຶ້ກ	-9268
ສະເຫຼີມສະຫຼອກ	-9269
RI	-9270
RP	-9271
df	-9272
ຫດ	-9273
້ຊ	-9274
1.5	-9275
bag	-9276
nov	-9277
ove	-9278
rug	-9279
ຈະກ	-9280
ຖ້ວ	-9281
ພົນ	-9282
ແອວ	-9283
ệch	-9284
▁Xã	-9285
▁Ôn	-9286
.4.1	-9287
ENew	-9288
ards	-9289
tech	-9290
ຖ່ານ	-9291
ເນີກ	-9292
້ກາກ	-9293
້ພວກ	-9294
▁11:	-9295
▁30,	-9296
▁Hun	-9297
▁Mel	-9298
▁dịu	-9299
▁dọn	-9300
▁hoà	-9301
▁lạm	-9302
▁ຝັກ	-9303
▁ຝຶກ	-9304
Ehack	-9305
apore	-9306
aysia	-9307
ensor	-9308
imate	-9309
riend	-9310
ຈັນຍາ	-9311
ພະນັກ	-9312
▁Vâng	-9313
▁treo	-9314
▁Đoàn	-9315
▁đềEr	-9316
▁ບໍ່ແ	-9317
▁ອາຊີ	-9318
rystal	-9319
teroid	-9320
ຊີ້ຂາກ	-9321
ຊຸມຊົກ	-9322
▁Doanh	-9323
▁cương	-9324
▁giọng	-9325
▁ຂະບວນ	-9326
ຈັດສົ່ກ	-9327
ບໍລິຫາກ	-9328
ສອບເສັກ	-9329
ອະທິບາຍ	-9330
▁Khoảng	-9331
▁trềEvà	-9332
▁ແຕ່ວ່າ	-9333
▁ເອກະຊົກ	-9334
ນນະສົມບັດ	-9335
ນໍາສະເຫນີ	-9336
▁ນັກສຶກສາ	-9337
ທີ່ຖືກຕ້ອກ	-9338
ເຂົ້າຮ່ວມແ	-9339
▁ພວກເຮົາຕ້ອກ	-9340
▁ຜະລິດຕະພັນຂອກ	-9341
9.	-9342
MH	-9343
ẻo	-9344
ừu	-9345
350	-9346
ANG	-9347
bao	-9348
day	-9349
uel	-9350
url	-9351
ຈາຍ	-9352
ຕູກ	-9353
ຕົນ	-9354
ຖືແ	-9355
ແຈກ	-9356
▁HÀ	-9357
▁vá	-9358
▁ຖາ	-9359
▁ບຸ	-9360
prop	-9361
stan	-9362
ຢ້ານ	-9363
ຫະນະ	-9364
ແກຼມ	-9365
▁Bus	-9366
▁Neo	-9367
▁cãi	-9368
▁côn	-9369
▁str	-9370
▁túy	-9371
▁ສວກ	-9372
▁ềEv	-9373
▁Ống	-9374
arius	-9375
lines	-9376
ທັນວາ	-9377
ອະນຸມ	-9378
ິລະປະ	-9379
▁Chắc	-9380
▁Size	-9381
▁Vang	-9382
▁Will	-9383
▁With	-9384
▁soạn	-9385
▁sưởi	-9386
▁thôn	-9387
ການບິນ	-9388
ທີ່ສູກ	-9389
ມິຖຸນາ	-9390
▁Smith	-9391
▁hoảng	-9392
▁thạch	-9393
▁ຫຼາຍກ	-9394
duction	-9395
ສິ້ນສຸດ	-9396
▁Brazil	-9397
▁crypto	-9398
▁hềElàm	-9399
ateboard	-9400
▁thềEgây	-9401
▁ĐềEbiết	-9402
▁đềEphát	-9403
▁Copyshop	-9404
▁bềEnhững	-9405
▁ໂດຍທົ່ວແ	-9406
▁polyester	-9407
▁ການແປພາສາ	-9408
▁Misslamode	-9409
▁ການປິ່ນປົວ	-9410
▁Refinecolor	-9411
ຂໍ້ມູນກ່ຽວກັບ	-9412
ທີ່ມີປະສິດທິພາບ	-9413
It	-9414
LP	-9415
uh	-9416
ນູ	-9417
TER	-9418
VID	-9419
axi	-9420
gin	-9421
lue	-9422
máy	-9423
por	-9424
ຕ່ແ	-9425
ນິວ	-9426
ລະດ	-9427
ລ້າ	-9428
▁72	-9429
▁76	-9430
▁Da	-9431
▁PA	-9432
▁PN	-9433
▁UL	-9434
▁ວີ	-9435
Tiếp	-9436
akes	-9437
cast	-9438
gist	-9439
iday	-9440
isha	-9441
ຊີ້ວ	-9442
ທົ່ກ	-9443
່າວແ	-9444
▁CHF	-9445
▁Out	-9446
▁Pox	-9447
▁Quy	-9448
▁bit	-9449
▁rác	-9450
▁thả	-9451
▁tọa	-9452
EHack	-9453
ailer	-9454
izing	-9455
older	-9456
ພະຍົກ	-9457
ອ່ອນແ	-9458
າຍແອວ	-9459
ເຮືອບ	-9460
▁6000	-9461
▁Buổi	-9462
▁Game	-9463
▁Trái	-9464
▁View	-9465
▁Wind	-9466
▁comp	-9467
▁cềEv	-9468
▁ghép	-9469
▁khoẻ	-9470
▁khuy	-9471
▁mềEc	-9472
▁ຖ່ອມ	-9473
▁ສະຫະ	-9474
▁ເຊັກ	-9475
▁ເລັດ	-9476
▁ແນັກ	-9477
▁ໂຫລກ	-9478
▁ềETh	-9479
ຕາເວັກ	-9480
▁Lượng	-9481
▁Saint	-9482
▁White	-9483
ຕໍ່ຫນ້າ	-9484
ບໍ່ຕ້ອກ	-9485
ປຶກສາຫາ	-9486
ວກເຮົາກ	-9487
ສຸດທ້າຍ	-9488
▁Thread	-9489
▁đềEđáp	-9490
utterfly	-9491
ທີ່ເຮັດແ	-9492
ອີເມວຂອກ	-9493
ເປັນເວລາ	-9494
້ຖືກນໍາແ	-9495
▁ດໍາເນີນ	-9496
▁ບໍ່ແມ່ນ	-9497
ການອອກແບບ	-9498
ທີ່ຮູ້ຈັກ	-9499
▁ການຜະລິດ	-9500
▁Guangdong	-9501
TY	-9502
so	-9503
ສດ	-9504
▁☁	-9505
380	-9506
ESu	-9507
ບູກ	-9508
ລຽກ	-9509
▁56	-9510
▁BL	-9511
▁Ev	-9512
▁LÀ	-9513
▁gà	-9514
▁ດູ	-9515
chat	-9516
ກິລາ	-9517
ທື່ອ	-9518
ມຸ່ກ	-9519
ຮົ້ວ	-9520
ແມັກ	-9521
ໂນ້ມ	-9522
້ຈັດ	-9523
▁1.1	-9524
▁190	-9525
▁Log	-9526
▁Sep	-9527
▁cọc	-9528
▁dev	-9529
▁hẹp	-9530
▁nộp	-9531
▁thợ	-9532
▁ຊີ້	-9533
▁ềEB	-9534
/2018	-9535
755-2	-9536
iness	-9537
ສັ້ນແ	-9538
ຽວກັກ	-9539
▁Prec	-9540
▁khao	-9541
▁sềEn	-9542
ations	-9543
ilized	-9544
ສົມລົກ	-9545
ຮູບພາກ	-9546
່າມກາກ	-9547
▁James	-9548
▁buồng	-9549
▁trứng	-9550
ຫຍໍ້ຂອກ	-9551
▁Truyền	-9552
▁truyện	-9553
ໂດຍທົ່ວແ	-9554
▁Express	-9555
▁Manager	-9556
▁bềEloại	-9557
▁vềEtình	-9558
▁đềEtiếp	-9559
▁ຍີ່ປຸ່ກ	-9560
▁ບົດລາຍກ	-9561
ECopyshop	-9562
ຂໍ້ມູນຂອກ	-9563
ສ່ວນຫນຶ່ກ	-9564
▁ນິລັນດອກ	-9565
EMinnesota	-9566
▁ຫນ້າທໍາອິດ	-9567
▁Organosilicon	-9568
ນາຍົກລັດຖະມົນຕີ	-9569
On	-9570
\)	-9571
yu	-9572
Pal	-9573
aha	-9574
lut	-9575
och	-9576
ple	-9577
ຈັບ	-9578
ຣົບ	-9579
ລີກ	-9580
ອະແ	-9581
▁Dĩ	-9582
▁ET	-9583
▁Go	-9584
▁SA	-9585
▁hư	-9586
▁lô	-9587
▁no	-9588
▁rỡ	-9589
▁up	-9590
▁vs	-9591
▁ແປ	-9592
Outs	-9593
abin	-9594
abol	-9595
ites	-9596
ຊຶ້ກ	-9597
ອາສາ	-9598
ອຸປະ	-9599
▁Fre	-9600
▁Rod	-9601
▁Sub	-9602
▁bắn	-9603
▁nho	-9604
▁vây	-9605
▁vất	-9606
▁xưa	-9607
▁ດອກ	-9608
▁ສືບ	-9609
Chang	-9610
lanta	-9611
ສາຍຕາ	-9612
າດຂອກ	-9613
▁1080	-9614
▁Auto	-9615
▁Chia	-9616
▁Mesh	-9617
▁Pump	-9618
▁Tầng	-9619
▁Vill	-9620
▁Work	-9621
▁dềEđ	-9622
▁mỏng	-9623
▁trạm	-9624
▁xoay	-9625
▁ປຸ່ມ	-9626
▁ເຂັມ	-9627
ຊື່ຂອກ	-9628
ນອື່ນແ	-9629
ບັນຍາກ	-9630
ບົດບາດ	-9631
ີ່ຂ້ອຍ	-9632
▁Smart	-9633
▁Water	-9634
▁khoác	-9635
▁tráng	-9636
▁ທະນາກ	-9637
▁Oxford	-9638
▁ສາມາດແ	-9639
້ເຮັດວຽກ	-9640
▁ການຢັ້ກ	-9641
▁hềEchúng	-9642
▁ທ່ານຕ້ອກ	-9643
▁Bluetooth	-9644
▁ຂຽນເມື່ອສຸກ	-9645
BM	-9646
CA	-9647
RB	-9648
oe	-9649
yi	-9650
ÁC	-9651
ệp	-9652
-03	-9653
17,	-9654
EIP	-9655
EIT	-9656
IFI	-9657
jin	-9658
ser	-9659
ນມະ	-9660
ແຖວ	-9661
▁7:	-9662
▁Im	-9663
▁vé	-9664
▁ồn	-9665
long	-9666
lots	-9667
pert	-9668
ຕຸລາ	-9669
ພິມແ	-9670
ລ້ານ	-9671
ສະເລ	-9672
ສັ້ກ	-9673
ສຸດກ	-9674
ຫມອກ	-9675
ະບົບ	-9676
ະພາບ	-9677
ເລີແ	-9678
▁115	-9679
▁365	-9680
▁Aug	-9681
▁DVD	-9682
▁Sar	-9683
▁are	-9684
▁bẩn	-9685
▁ຂີ້	-9686
▁ຊາຍ	-9687
▁ພວມ	-9688
▁ຫັດ	-9689
ASEAN	-9690
otton	-9691
ຈົດທະ	-9692
ຕິກໍາ	-9693
ລະບຽກ	-9694
ສັນຕິ	-9695
▁4000	-9696
▁5000	-9697
▁Char	-9698
▁Hoạt	-9699
▁RoHS	-9700
▁bạch	-9701
▁bềEr	-9702
▁cảng	-9703
▁vang	-9704
▁việt	-9705
▁ບ້ານ	-9706
▁ຫຼຸດ	-9707
▁ເວທີ	-9708
Casino	-9709
Script	-9710
ington	-9711
itemap	-9712
ນຫນຶ່ກ	-9713
ບັນລຸແ	-9714
▁Angel	-9715
▁Cauda	-9716
▁Phong	-9717
▁Plane	-9718
▁sềEđó	-9719
▁thiệp	-9720
aterial	-9721
ຖ້າທ່ານ	-9722
ທຸກສິ່ກ	-9723
ນະໂຍບາຍ	-9724
ປະຈໍາປີ	-9725
ລິເລີ່ມ	-9726
▁Chuyến	-9727
▁anhững	-9728
▁plugin	-9729
▁đềEtài	-9730
▁ຮູບພາບ	-9731
▁ເອື້ອກ	-9732
▁ແຜນຜັກ	-9733
Ecookies	-9734
້ເຫັນວ່າ	-9735
▁ຂັ້ນຕອນ	-9736
▁Archives	-9737
ການປະຕິບັດ	-9738
▁ວັດທະນະທໍາ	-9739
??	-9740
PG	-9741
sy	-9742
/10	-9743
160	-9744
="0	-9745
aig	-9746
fer	-9747
ism	-9748
jet	-9749
ste	-9750
unt	-9751
ບຽນ	-9752
ປາດ	-9753
ຫມາ	-9754
ອົາ	-9755
ແຜແ	-9756
▁47	-9757
▁AD	-9758
▁EX	-9759
▁FI	-9760
iaph	-9761
ຕົວກ	-9762
ຕ່ປີ	-9763
ຖ່ອມ	-9764
ພະບຸ	-9765
ຫວອກ	-9766
ົ່າກ	-9767
▁Ber	-9768
▁Gir	-9769
▁Vui	-9770
▁Vận	-9771
▁cừu	-9772
▁hỡi	-9773
▁ກະທ	-9774
▁ທອກ	-9775
▁ລືມ	-9776
▁ຫົກ	-9777
Point	-9778
cheng	-9779
ments	-9780
ພີມມາ	-9781
າມເສຍ	-9782
່າມັນ	-9783
▁....	-9784
▁Bước	-9785
▁Flor	-9786
▁Foam	-9787
▁Hero	-9788
▁Over	-9789
▁vềEd	-9790
▁ປຶ້ມ	-9791
▁ສົນແ	-9792
▁ຫມູ່	-9793
▁ແຕ່ວ	-9794
Elaser	-9795
ປັນທາກ	-9796
▁Bohem	-9797
▁Hotel	-9798
▁Olymp	-9799
▁Trans	-9800
ປົກຫຸ້ມ	-9801
ສ່ວນບົກ	-9802
້ຮັບລາກ	-9803
▁thềEđi	-9804
▁ທໍາອິກ	-9805
ສິນເຊື່ອ	-9806
▁ປາຖະຫນາ	-9807
ນນະພາບຂອກ	-9808
ປະກອບດ້ວຍ	-9809
ເພີ່ມທະວີ	-9810
▁Reserved	-9811
▁nghềEmát	-9812
▁ກໍາມະກາກ	-9813
ເຊື່ອມໂລຫະ	-9814
▁unlimited	-9815
▁ຊື່ຫຍໍ້ຂອກ	-9816
3:	-9817
59	-9818
We	-9819
ím	-9820
ເຝ	-9821
,5%	-9822
.08	-9823
015	-9824
GSM	-9825
Nhĩ	-9826
ena	-9827
ika	-9828
pon	-9829
rat	-9830
ຈານ	-9831
ດຸກ	-9832
ຫຼີ	-9833
ຼັກ	-9834
ໂຈມ	-9835
▁59	-9836
▁RO	-9837
▁Wi	-9838
▁óc	-9839
9999	-9840
ECon	-9841
ache	-9842
ragm	-9843
rain	-9844
tens	-9845
trol	-9846
ດູແລ	-9847
ຫຼອກ	-9848
ອັກກ	-9849
ອ່ອນ	-9850
ືພິມ	-9851
▁Mad	-9852
▁Rec	-9853
▁dắt	-9854
▁sạc	-9855
▁vay	-9856
▁ຫມາ	-9857
ching	-9858
oline	-9859
osmos	-9860
proof	-9861
ດຫວັກ	-9862
ເນັ້ນ	-9863
ເວລາກ	-9864
▁1.0%	-9865
▁1800	-9866
▁Lock	-9867
▁phận	-9868
▁tiệc	-9869
▁ຮ້ານ	-9870
▁ເນີກ	-9871
arator	-9872
onesia	-9873
ທໍານຽມ	-9874
ລາຍກາກ	-9875
ສົມບູນ	-9876
ອັນຕະລ	-9877
▁xướng	-9878
▁ປະໂຫຍ	-9879
▁ແລະມີ	-9880
ຕີກະຊວກ	-9881
▁Fruity	-9882
▁Pocket	-9883
ທີ່ມີການ	-9884
▁ềEnhững	-9885
ະລິດຕະພັກ	-9886
▁Diffuser	-9887
▁Koowheel	-9888
ເຊົ້າວັນທີ	-9889
້ເລີ່ມຕົ້ນ	-9890
▁chềEtrong	-9891
▁container	-9892
າມຮັບຜິດຊອບ	-9893
▁ການບໍລິກາກ	-9894
▁ບໍລິສັດຂອກ	-9895
52	-9896
Fi	-9897
PN	-9898
ds	-9899
iw	-9900
mA	-9901
ພໍ	-9902
ຫູ	-9903
ẠN	-9904
ợn	-9905
!!!	-9906
-13	-9907
.38	-9908
EUS	-9909
Elo	-9910
rel	-9911
shi	-9912
ຍຶກ	-9913
ພະຍ	-9914
ພືດ	-9915
ະໂຍ	-9916
▁07	-9917
▁1%	-9918
▁Mc	-9919
▁Sĩ	-9920
100%	-9921
ping	-9922
ສາມີ	-9923
ານີແ	-9924
ເພນີ	-9925
ເສຍແ	-9926
▁3.2	-9927
▁FAQ	-9928
▁Inf	-9929
▁cắp	-9930
▁mũi	-9931
ector	-9932
ມາສູແ	-9933
ູບພາບ	-9934
ເດັ່ກ	-9935
▁Bank	-9936
▁Bệnh	-9937
▁CSGO	-9938
▁Hiến	-9939
▁Tube	-9940
▁Xuất	-9941
▁wood	-9942
acking	-9943
ກັນກັບ	-9944
ຍີ່ຫໍແ	-9945
ສາມາດກ	-9946
ềEđiện	-9947
▁Guang	-9948
▁South	-9949
▁sềEtr	-9950
▁ການສະ	-9951
▁ềElại	-9952
ulation	-9953
ພຶດສະພາ	-9954
▁Global	-9955
▁thoảng	-9956
iaphragm	-9957
ຂ້ອນຂ້າກ	-9958
ຊົນເຜົ່າ	-9959
▁Company	-9960
▁bitcoin	-9961
▁hormone	-9962
▁phantom	-9963
ຕົ້ນຕໍຂອກ	-9964
▁ຜົນກະທົບ	-9965
າມສາມາດຂອກ	-9966
''	-9967
8:	-9968
me	-9969
yt	-9970
ũi	-9971
ະຕ	-9972
iti	-9973
ວລາ	-9974
ềEn	-9975
▁NZ	-9976
2000	-9977
EHGH	-9978
EISO	-9979
arak	-9980
ixel	-9981
ixer	-9982
kinh	-9983
nhất	-9984
pher	-9985
quốc	-9986
ຂໍ້ແ	-9987
ວນີ້	-9988
ສະຕະ	-9989
ສົ້ມ	-9990
ະດັບ	-9991
ັນຊີ	-9992
ềEgi	-9993
▁(18	-9994
▁BTC	-9995
▁CBD	-9996
▁HDL	-9997
▁Han	-9998
▁Kẹo	-9999
▁Pos	-10000
▁Pot	-10001
▁Saf	-10002
▁Tel	-10003
▁lõi	-10004
▁non	-10005
▁rắc	-10006
▁rực	-10007
▁ບົບ	-10008
▁ປິກ	-10009
Thiết	-10010
▁Aven	-10011
▁Mạng	-10012
▁Prof	-10013
▁Vòng	-10014
▁hoại	-10015
▁ngạo	-10016
▁nhịn	-10017
▁that	-10018
urgaon	-10019
ການຊື້	-10020
ຍອມຮັກ	-10021
ສະທ້ອກ	-10022
ານນໍາແ	-10023
ແມ່ນມີ	-10024
▁micro	-10025
▁trềEt	-10026
▁ແຕ່ລະ	-10027
ປະລິມານ	-10028
້າວຫນ້າ	-10029
▁Island	-10030
▁bềEảnh	-10031
▁chềEch	-10032
ຜູ້ຜະລິກ	-10033
▁Virtual	-10034
▁cềEđiển	-10035
▁ອະທິບາກ	-10036
▁Conveyor	-10037
▁thềEmang	-10038
▁ແລະພວກເຮົາ	-10039
CE	-10040
HA	-10041
HZ	-10042
ໂສ	-10043
້ປ	-10044
▁`	-10045
-14	-10046
999	-10047
CSA	-10048
Xem	-10049
rap	-10050
ປອມ	-10051
ລົບ	-10052
ລ່າ	-10053
ິລິ	-10054
ແນນ	-10055
▁98	-10056
▁PS	-10057
elle	-10058
emon	-10059
igan	-10060
ກໍ່ກ	-10061
ພ່ອກ	-10062
ມ່ວກ	-10063
ສາຂາ	-10064
ເກົາ	-10065
ເບີດ	-10066
ໂດຍກ	-10067
▁0.6	-10068
▁12:	-10069
▁Hay	-10070
▁Tay	-10071
▁Tín	-10072
▁bar	-10073
▁béo	-10074
▁cor	-10075
▁etc	-10076
▁gợi	-10077
▁mạn	-10078
▁per	-10079
▁đầm	-10080
▁ທຽກ	-10081
▁ບິກ	-10082
▁ເປີ	-10083
▁ໂຊກ	-10084
9001:	-10085
iller	-10086
ities	-10087
odium	-10088
▁Cast	-10089
▁Tăng	-10090
▁kiêu	-10091
▁lặng	-10092
▁quận	-10093
▁thấu	-10094
▁ນໍາແ	-10095
▁ຜູ້ແ	-10096
▁ເກັກ	-10097
▁ເຢັກ	-10098
▁ແຕ່ແ	-10099
ກໍານົກ	-10100
ຈັດກາກ	-10101
ພາຫະນະ	-10102
າຍເປັກ	-10103
▁Sheet	-10104
▁Trình	-10105
▁Under	-10106
▁ພິນາກ	-10107
▁ມັນມີ	-10108
ບ່ອນທີ່	-10109
ສໍານັກກ	-10110
▁Rights	-10111
▁Router	-10112
ເຮັດສິ່ກ	-10113
▁Deposit	-10114
▁chềEmột	-10115
▁ຂ້ານ້ອກ	-10116
▁Shandong	-10117
▁Pinterest	-10118
▁California	-10119
3%	-10120
GD	-10121
▁]	-10122
-17	-10123
.23	-10124
.91	-10125
ECO	-10126
Esc	-10127
quá	-10128
utt	-10129
ສວນ	-10130
▁AN	-10131
▁CT	-10132
▁RS	-10133
▁dr	-10134
▁dư	-10135
▁Âm	-10136
▁ໂນ	-10137
ktop	-10138
list	-10139
ming	-10140
umen	-10141
ural	-10142
xbet	-10143
ກວາກ	-10144
ພົ້ນ	-10145
ສະຫວ	-10146
ແຍ້ກ	-10147
ໂຫຼດ	-10148
▁Lao	-10149
▁bơi	-10150
▁gen	-10151
▁rộn	-10152
▁Đài	-10153
▁đam	-10154
ASraw	-10155
ລິມາກ	-10156
ຫມາຍແ	-10157
້ກ່າວ	-10158
▁2500	-10159
▁Hoàn	-10160
▁Oper	-10161
▁tiếc	-10162
▁trào	-10163
▁Điểm	-10164
eather	-10165
eptide	-10166
ຍ່ແມ່ນ	-10167
ລກປ່ຽນ	-10168
ິທີການ	-10169
▁River	-10170
▁[...]	-10171
▁ຊີວິດ	-10172
▁ທຸລະກ	-10173
▁ອັດຕາ	-10174
▁ເສັ້ກ	-10175
ization	-10176
ເອກະສາກ	-10177
▁Paypal	-10178
▁hềEđến	-10179
▁ບັນດາກ	-10180
▁ເດືອນກ	-10181
ກ່ຽວກັບກ	-10182
ຫຼາຍຢ່າກ	-10183
▁chềEdẫn	-10184
▁jackpot	-10185
▁roulette	-10186
▁ກິດຈະກໍາ	-10187
ເທື່ອຫນຶ່ກ	-10188
▁Injection	-10189
otechnology	-10190
............	-10191
▁ຍິນດີຕ້ອນຮັບ	-10192
53	-10193
Ek	-10194
ýt	-10195
bul	-10196
ixi	-10197
đun	-10198
ກຽມ	-10199
ບອນ	-10200
ມາດ	-10201
ຢອກ	-10202
▁Ne	-10203
▁QC	-10204
▁Xi	-10205
▁ak	-10206
▁av	-10207
▁bá	-10208
▁mỹ	-10209
▁xạ	-10210
ants	-10211
face	-10212
▁50%	-10213
▁Act	-10214
▁Del	-10215
▁Ghế	-10216
▁Lat	-10217
▁Oxy	-10218
▁bội	-10219
▁csg	-10220
▁đáy	-10221
▁đỗi	-10222
▁ດາກ	-10223
▁ອັບ	-10224
EWord	-10225
prise	-10226
ເນັ້ກ	-10227
ເປີດແ	-10228
▁Feng	-10229
▁HBOT	-10230
▁hềEn	-10231
▁kiềm	-10232
▁ngón	-10233
▁ຫມວກ	-10234
ຕະຫຼອດ	-10235
ທົດແທນ	-10236
ເສັ້ນແ	-10237
▁Enter	-10238
▁House	-10239
▁chềEh	-10240
▁huyết	-10241
▁ກ່າວກ	-10242
ສະກຸນເກ	-10243
ເຈົ້າຈະ	-10244
ເຕັກນິກ	-10245
▁chềEđã	-10246
▁khuynh	-10247
▁ແນ່ນອນ	-10248
▁ChềEcần	-10249
▁Unthank	-10250
▁Village	-10251
▁đềEkiểm	-10252
▁ເຈົ້າຂແ	-10253
ophilized	-10254
ເພື່ອສ້າກ	-10255
▁Bohemian	-10256
ປົກຫຸ້ມຂອກ	-10257
▁ຖ້າຫາກວ່າ	-10258
▁ເພີ່ມເຕີມ	-10259
▁Downloader	-10260
ເອເລັກໂຕຣນິກ	-10261
ຜະລິດຕະພັນຂອກ	-10262
▁ເສັ້ນຜ່າສູນກາກ	-10263
/7	-10264
RC	-10265
▁Ư	-10266
-21	-10267
20,	-10268
="3	-10269
aft	-10270
cks	-10271
pha	-10272
ris	-10273
sss	-10274
ປິນ	-10275
ເບີ	-10276
ແອກ	-10277
່ຽມ	-10278
້ດີ	-10279
▁(0	-10280
▁3)	-10281
▁Tw	-10282
▁hà	-10283
▁mẻ	-10284
EYou	-10285
ນທໍາ	-10286
ປຸ່ມ	-10287
ມແລະ	-10288
ສ່ອກ	-10289
ຮັ່ກ	-10290
ະນາແ	-10291
າຫາກ	-10292
ເຢັນ	-10293
່ຕອກ	-10294
່ນະກ	-10295
້ຍິນ	-10296
▁(25	-10297
▁(3)	-10298
▁10.	-10299
▁316	-10300
▁Bắt	-10301
▁Ink	-10302
▁Mer	-10303
▁Vol	-10304
▁kem	-10305
▁lam	-10306
▁nad	-10307
▁say	-10308
▁vội	-10309
▁Đèn	-10310
▁ສື່	-10311
▁ເບີ	-10312
▁ແຫວ	-10313
28113	-10314
etter	-10315
minal	-10316
netic	-10317
ທີສາມ	-10318
ປະສາກ	-10319
ອອກມາ	-10320
▁CNIL	-10321
▁Cash	-10322
▁Cont	-10323
▁Hồng	-10324
▁Tháp	-10325
▁giặt	-10326
▁giỏi	-10327
▁plus	-10328
▁điên	-10329
▁ຫນົກ	-10330
online	-10331
ທິດຖາກ	-10332
່ານແລະ	-10333
▁COVID	-10334
▁phiêu	-10335
▁sương	-10336
▁trăng	-10337
▁trềEb	-10338
▁virus	-10339
▁ດ້ວຍກ	-10340
▁ເຕົ້າ	-10341
▁ềEnơi	-10342
ທ່າມກາກ	-10343
ພາກພື້ນ	-10344
ໂມເລກຸກ	-10345
້ສໍາລັບ	-10346
▁(2012)	-10347
▁(2016)	-10348
▁Avenue	-10349
▁giềEcó	-10350
▁giềElà	-10351
▁ປັບປຸກ	-10352
▁ມັນຍັກ	-10353
▁ສອບຖາມ	-10354
ສະແຕນເລດ	-10355
ềEthương	-10356
▁1528113	-10357
▁Acetate	-10358
▁Chicken	-10359
▁Remover	-10360
▁thềEbắt	-10361
▁ຕິດຕັ້ກ	-10362
Changeset	-10363
ທີ່ດີເລີດ	-10364
ານເຮັດວຽກ	-10365
▁Electric	-10366
▁thềEnghĩ	-10367
▁ພວກເຂົາແ	-10368
Blockchain	-10369
ອິນເຕີເນັກ	-10370
▁Singapore	-10371
Fl	-10372
GL	-10373
ll	-10374
mo	-10375
ແວ	-10376
ແສ	-10377
-04	-10378
.30	-10379
aut	-10380
ige	-10381
itr	-10382
lad	-10383
met	-10384
mon	-10385
ona	-10386
ຍອດ	-10387
ຕີນ	-10388
ຟິກ	-10389
ຮ່ກ	-10390
າເກ	-10391
▁57	-10392
▁CL	-10393
▁Iq	-10394
▁UN	-10395
▁XU	-10396
▁ນຸ	-10397
-800	-10398
Chat	-10399
ense	-10400
ides	-10401
xuất	-10402
ຕາມກ	-10403
ພາລະ	-10404
ຫຍ້າ	-10405
າດຈະ	-10406
▁Bai	-10407
▁Dom	-10408
▁Môi	-10409
▁Mẹo	-10410
▁Scr	-10411
▁chì	-10412
▁dọa	-10413
▁kép	-10414
▁nắp	-10415
▁xâm	-10416
▁đậm	-10417
olden	-10418
ຂົ້າແ	-10419
ບນ້ໍາ	-10420
ັນດາກ	-10421
ເກັ່ກ	-10422
້ເຫັກ	-10423
▁2007	-10424
▁CNTT	-10425
▁Chức	-10426
▁Fair	-10427
▁HềEc	-10428
▁Lòng	-10429
▁Phật	-10430
▁Quân	-10431
▁muộn	-10432
▁ngục	-10433
▁nhắm	-10434
▁ເສີມ	-10435
EEmail	-10436
EForex	-10437
propyl	-10438
ຊີ້ນໍາ	-10439
ທີ່ນີ້	-10440
ເຊື້ອແ	-10441
▁Hebei	-10442
▁Poker	-10443
▁chừng	-10444
▁huyền	-10445
▁ປະທານ	-10446
▁ປັດຈຸ	-10447
▁ເອົາແ	-10448
ariusss	-10449
ຊົ່ວໂມກ	-10450
ຍຸຕິທໍາ	-10451
ທະຍາສາກ	-10452
ນສົມບັກ	-10453
▁Chrome	-10454
▁Length	-10455
▁ເຟສບຸກ	-10456
ສະແຕນເລກ	-10457
▁tềEtiên	-10458
ເນັ້ນຫນັກ	-10459
▁thềEgiải	-10460
▁vềEthành	-10461
▁đềEhềEtrợ	-10462
Cl	-10463
HD	-10464
PR	-10465
íp	-10466
ປ່	-10467
າຊ	-10468
-22	-10469
ERI	-10470
ORD	-10471
bus	-10472
giá	-10473
iki	-10474
par	-10475
ຍືດ	-10476
ດຕາ	-10477
ຜ່ນ	-10478
ມາຍ	-10479
ຫາດ	-10480
▁99	-10481
▁He	-10482
▁Kn	-10483
▁LC	-10484
▁ox	-10485
▁tá	-10486
▁ເຜ	-10487
▁ແອ	-10488
Ecor	-10489
afil	-10490
bank	-10491
head	-10492
onda	-10493
tian	-10494
ຖ້ອກ	-10495
ຮຽນແ	-10496
້ວຍແ	-10497
▁GPS	-10498
▁Lạp	-10499
▁Mật	-10500
▁bìa	-10501
▁giơ	-10502
▁hái	-10503
▁lũy	-10504
▁ປີກ	-10505
▁ຜູກ	-10506
▁ຮຽນ	-10507
house	-10508
ility	-10509
ປະພຶກ	-10510
ຫນ່າຍ	-10511
ອິດທິ	-10512
ົນທາກ	-10513
▁Near	-10514
▁bụng	-10515
▁giục	-10516
▁hãng	-10517
▁phái	-10518
▁rãnh	-10519
▁ĐềEt	-10520
▁ເຍຊູ	-10521
change	-10522
ຊານຕົກ	-10523
ພວກມັນ	-10524
ສະຖານີ	-10525
▁HềEđã	-10526
▁inter	-10527
▁nhàng	-10528
EFilter	-10529
ການສົ່ກ	-10530
ຫນ້າທີແ	-10531
▁tềEcủa	-10532
▁đềEhọc	-10533
▁ອິນເດກ	-10534
ວິວັດທະນ	-10535
▁Instrum	-10536
▁chềEsềE	-10537
▁thềEđến	-10538
▁ກະເປົ໋າ	-10539
ບ່າຍວັນທີ	-10540
ເລືອກເອົາ	-10541
▁Dariusss	-10542
▁Dongguan	-10543
▁Malaysia	-10544
ການຂົນສົ່ກ	-10545
ສໍາເລັດຂອກ	-10546
າມອາດສາມາກ	-10547
▁ເຫຼົ່ານີ້	-10548
ຜົນກະທົບຂອກ	-10549
▁ສະຫນັບສະຫນູກ	-10550
/8	-10551
0%	-10552
Ad	-10553
UT	-10554
js	-10555
ẠI	-10556
12)	-10557
EOr	-10558
ony	-10559
oor	-10560
ສິບ	-10561
ẵng	-10562
▁Bh	-10563
▁Eb	-10564
▁GT	-10565
▁II	-10566
▁km	-10567
9001	-10568
avic	-10569
rand	-10570
ຕໍ່າ	-10571
າທີ່	-10572
ເຂັມ	-10573
▁-20	-10574
▁105	-10575
▁315	-10576
▁Cái	-10577
▁Cấu	-10578
▁Cần	-10579
▁Màn	-10580
▁PHP	-10581
▁SGS	-10582
▁bút	-10583
▁dồi	-10584
▁ຂາວ	-10585
▁ທົດ	-10586
▁ນຸກ	-10587
▁ສິນ	-10588
▁ສຸມ	-10589
ກະຈາກ	-10590
ຊະນິດ	-10591
ມານີແ	-10592
ວບລວມ	-10593
ານແລະ	-10594
ີນ້ໍາ	-10595
ເກືອບ	-10596
ໍາຈັດ	-10597
ໍາລອກ	-10598
▁Belt	-10599
▁Giảm	-10600
▁HềEđ	-10601
▁Open	-10602
▁Tape	-10603
▁dâng	-10604
▁hiếm	-10605
▁phím	-10606
▁ທ່ອກ	-10607
ຸກຢ່າກ	-10608
້ບັນດາ	-10609
▁.....	-10610
▁2015)	-10611
▁Adder	-10612
▁EVFTA	-10613
▁Train	-10614
▁thăng	-10615
▁ນ້ໍາມ	-10616
ENingbo	-10617
ຂ່າວສານ	-10618
ພະບຸລຸກ	-10619
ພັກຜ່ອກ	-10620
ວ່ານັ້ກ	-10621
▁Lights	-10622
▁đềEthu	-10623
atalogue	-10624
ນັ້ນແມ່ນ	-10625
ພວກເຂົາແ	-10626
້ນບໍ່ແຮແ	-10627
▁Limited	-10628
▁vềEcuộc	-10629
▁vềEcông	-10630
▁đềEtham	-10631
▁ທໍາມະດາ	-10632
▁Converter	-10633
▁ຊ່ວຍເຫຼືອ	-10634
▁ການຂົນສົ່ກ	-10635
▁Dariussssss	-10636
▁Biotechnology	-10637
/3	-10638
6:	-10639
gg	-10640
.01	-10641
Ero	-10642
Ind	-10643
irc	-10644
ker	-10645
mit	-10646
tex	-10647
ຫິວ	-10648
ອອນ	-10649
▁Xử	-10650
ECom	-10651
ENet	-10652
Giáo	-10653
enna	-10654
nhân	-10655
ober	-10656
ຢາກແ	-10657
ລິມະ	-10658
ະຖານ	-10659
ື້ອມ	-10660
ໂລກແ	-10661
▁(0)	-10662
▁1,5	-10663
▁Acc	-10664
▁Hui	-10665
▁Men	-10666
▁Mus	-10667
▁Rom	-10668
▁Run	-10669
▁hải	-10670
▁nảy	-10671
▁sen	-10672
▁tệp	-10673
▁ກອບ	-10674
▁ກັດ	-10675
Người	-10676
field	-10677
ingle	-10678
phere	-10679
ປະກົດ	-10680
ປ່ຽນກ	-10681
ສີຂຽວ	-10682
▁1600	-10683
▁Extr	-10684
▁chục	-10685
▁lũng	-10686
▁serv	-10687
▁ກິໂລ	-10688
▁ປື້ມ	-10689
covery	-10690
ograph	-10691
ສົບການ	-10692
ີ່ເປັນ	-10693
ແມ່ຂອກ	-10694
ềErộng	-10695
▁nghìn	-10696
▁xưởng	-10697
▁ຊອກຫາ	-10698
▁ສ່ວນແ	-10699
ບົດລາຍກ	-10700
ິນເຕີເນ	-10701
ເດັກຍິກ	-10702
▁Royale	-10703
▁bềEbắt	-10704
▁series	-10705
▁thềEin	-10706
▁wooden	-10707
▁ກ້າຫາກ	-10708
▁ສໍາພັກ	-10709
EBitcoin	-10710
ຫນູນຊ່ວຍ	-10711
ເຂົ້າກັກ	-10712
▁Jizerou	-10713
▁nghềEvà	-10714
▁thềExảy	-10715
▁ການສົ່ກ	-10716
▁ບັນເທີກ	-10717
ສະຖານະການ	-10718
ແລະແມ່ຍິກ	-10719
▁Fittings	-10720
▁ເປັນຕ້ອກ	-10721
▁ຂ້າພະເຈົ້າກ	-10722
DN	-10723
HP	-10724
MB	-10725
PO	-10726
TR	-10727
iu	-10728
.15	-10729
Box	-10730
Lao	-10731
Pir	-10732
set	-10733
urb	-10734
ກວດ	-10735
ຊວນ	-10736
ມວກ	-10737
ີ່ນ	-10738
້າມ	-10739
ếch	-10740
▁68	-10741
▁GW	-10742
▁Lý	-10743
▁he	-10744
▁ຖະ	-10745
2014	-10746
Free	-10747
avor	-10748
phân	-10749
rine	-10750
ນນີແ	-10751
ນບຸນ	-10752
ບາຍແ	-10753
ບິດາ	-10754
ັບຕາ	-10755
▁Buy	-10756
▁Die	-10757
▁Gói	-10758
▁GềE	-10759
▁Lau	-10760
▁Tác	-10761
▁Tùy	-10762
▁dặm	-10763
▁quỷ	-10764
▁sữa	-10765
▁đậu	-10766
▁ຜິດ	-10767
▁ລໍແ	-10768
Không	-10769
exico	-10770
inger	-10771
xiang	-10772
ຕະພາກ	-10773
ລະພາກ	-10774
ສະຖາກ	-10775
ເຂົາແ	-10776
ເລືອດ	-10777
ໍາລາຍ	-10778
ໍ້ມູກ	-10779
▁Back	-10780
▁Call	-10781
▁Doll	-10782
▁News	-10783
▁Nẵng	-10784
▁Para	-10785
▁dũng	-10786
▁giãn	-10787
▁quét	-10788
▁trầm	-10789
▁visa	-10790
▁ໂດລາ	-10791
ຍະຫ່າກ	-10792
ວັດແທກ	-10793
ື້ນຖານ	-10794
ເປັນເກ	-10795
▁2014,	-10796
▁Board	-10797
▁Clear	-10798
▁Epson	-10799
▁Grand	-10800
▁Multi	-10801
▁nylon	-10802
▁sướng	-10803
▁trinh	-10804
▁ຂ້ອຍກ	-10805
▁ແມ່ນກ	-10806
ປະຕິວັດ	-10807
ຮ່ວມກັກ	-10808
າຍທີ່ຈະ	-10809
ເວທີປາແ	-10810
▁Tablet	-10811
▁ềEnước	-10812
າມສໍາພັນ	-10813
▁bềEgiết	-10814
▁nhềEvào	-10815
▁đềEthay	-10816
ification	-10817
ການຮ່ວມມື	-10818
ທີ່ດີກວ່າ	-10819
▁Airlines	-10820
▁HềEchiếu	-10821
▁solenoid	-10822
ການເດີນທາກ	-10823
ຊັບພະຍາກອນ	-10824
ປະສິດທິຜົນ	-10825
▁ເຈົ້າຈຶ່ກ	-10826
ານຝຶກອົບຮົມ	-10827
▁đềEtrềEthành	-10828
▁ການຝຶກອົບຮົມ	-10829
pi	-10830
ັ໊	-10831
ແຟ	-10832
ISO	-10833
aga	-10834
osp	-10835
ura	-10836
ຫນູ	-10837
ອຽກ	-10838
ະສີ	-10839
ໂປຼ	-10840
໋ອກ	-10841
▁MA	-10842
▁MD	-10843
▁NW	-10844
▁Of	-10845
▁cự	-10846
▁ko	-10847
▁ຊະ	-10848
▁ໂຊ	-10849
-300	-10850
EOEM	-10851
Sets	-10852
aber	-10853
agon	-10854
html	-10855
oriz	-10856
ທະຍຸ	-10857
ເຍາະ	-10858
ເດີມ	-10859
້ມີກ	-10860
▁Apr	-10861
▁Hel	-10862
▁MAC	-10863
▁OFF	-10864
▁THƯ	-10865
▁kil	-10866
▁ong	-10867
▁Ánh	-10868
▁đeo	-10869
▁đắt	-10870
▁ຈົນ	-10871
▁ຊັບ	-10872
▁ềEC	-10873
▁ềEd	-10874
2.168	-10875
ພະແນກ	-10876
ເຊືອກ	-10877
▁Mold	-10878
▁More	-10879
▁bổng	-10880
▁đoạt	-10881
▁ມິຕິ	-10882
▁ຫລາຍ	-10883
▁ຫຼີກ	-10884
enturi	-10885
▁Azure	-10886
▁Clash	-10887
▁Panel	-10888
▁hềEng	-10889
▁lềEth	-10890
▁mavic	-10891
▁vềEng	-10892
▁ອາຊຽກ	-10893
ຊຸກຍູ້ກ	-10894
ອຸດສາຫະ	-10895
າທໍານຽມ	-10896
▁Driver	-10897
▁Thomas	-10898
▁hềEbơi	-10899
▁nghềEđ	-10900
▁đềEbạn	-10901
▁đềEđến	-10902
ານຮ່ວມມື	-10903
▁bềEđiện	-10904
▁ກໍ່ສ້າກ	-10905
ຕື່ນເຕັ້ນ	-10906
▁hềEchiếu	-10907
▁thềEchọn	-10908
▁đềEnghềE	-10909
ທຸລະກິດຂອກ	-10910
ວ່າພວກເຮົາ	-10911
ອຸປະກອນການ	-10912
▁nhềEnhững	-10913
▁ເມື່ອທຽບແ	-10914
ເພື່ອນຮ່ວມກ	-10915
AI	-10916
DI	-10917
UY	-10918
kW	-10919
mô	-10920
ns	-10921
zo	-10922
ນວ	-10923
▁!	-10924
.95	-10925
25,	-10926
949	-10927
MPa	-10928
can	-10929
ict	-10930
red	-10931
urs	-10932
ຖຽນ	-10933
ມອບ	-10934
ຸກກ	-10935
ຽກກ	-10936
▁1)	-10937
▁62	-10938
▁89	-10939
▁TI	-10940
▁VI	-10941
▁sw	-10942
imer	-10943
itor	-10944
view	-10945
ຖິ້ມ	-10946
ຫນົມ	-10947
ເຈ້ກ	-10948
ເຜີຍ	-10949
▁650	-10950
▁Kar	-10951
▁Lab	-10952
▁Lit	-10953
▁Mùa	-10954
▁Rập	-10955
▁SKU	-10956
▁SMS	-10957
▁Sem	-10958
▁bắp	-10959
▁dải	-10960
▁dập	-10961
▁ném	-10962
▁săn	-10963
▁đệm	-10964
▁ກອນ	-10965
▁ຕູ້	-10966
▁ຢືນ	-10967
▁ເທດ	-10968
loads	-10969
ublic	-10970
ນທີ່ແ	-10971
ບໍ່ດີ	-10972
ສິນລະ	-10973
ຫລາຍກ	-10974
ັນວ່າ	-10975
ເຮົາແ	-10976
ềEsềE	-10977
▁Bóng	-10978
▁Tail	-10979
▁Trực	-10980
▁Wood	-10981
▁cưới	-10982
▁hềEd	-10983
▁đềEM	-10984
▁ຫນາດ	-10985
ubarak	-10986
ຍ່ຫຼວກ	-10987
ະຕິບັດ	-10988
ເທົ່າແ	-10989
ໂດຍອີກ	-10990
▁Franc	-10991
▁Metal	-10992
▁NghềE	-10993
▁Pharm	-10994
▁nhuộm	-10995
▁nướng	-10996
▁sềEvà	-10997
▁ບັນຈຸ	-10998
ອາເມລິກ	-10999
▁Chuyên	-11000
▁nghềEh	-11001
ສະພາບການ	-11002
າລະໂອກາດ	-11003
ເສຍຊີວິດ	-11004
▁bềEđánh	-11005
▁đềEmang	-11006
▁đềEđiều	-11007
▁ພີ່ນ້ອກ	-11008
ທີ່ມີຢູ່ແ	-11009
ສົມທົບກັບ	-11010
▁Chemical	-11011
▁vềEngười	-11012
ພົນລະເມືອກ	-11013
▁Indonesia	-11014
▁ການຕິດຕັ້ກ	-11015
ການຊ່ວຍເຫຼືອ	-11016
ທີ່ສົມບູນແບບ	-11017
3-	-11018
ໂຟ	-11019
ằn	-11020
-07	-11021
.25	-11022
EAm	-11023
EAr	-11024
EEL	-11025
INE	-11026
IVE	-11027
Van	-11028
ems	-11029
enb	-11030
for	-11031
gần	-11032
ທົວ	-11033
ວຽນ	-11034
ິມະ	-11035
ເທຣ	-11036
ໂດຼ	-11037
ໂຕແ	-11038
້ມາ	-11039
▁8.	-11040
▁MC	-11041
▁ne	-11042
▁nụ	-11043
▁ປິ	-11044
ESte	-11045
EWeb	-11046
alia	-11047
cept	-11048
ills	-11049
ipit	-11050
odel	-11051
onge	-11052
orge	-11053
ນາທີ	-11054
ສໍາມ	-11055
ສໍ່າ	-11056
ຫຍິກ	-11057
າສັບ	-11058
ີດເພ	-11059
້ອອກ	-11060
▁0.3	-11061
▁320	-11062
▁60%	-11063
▁Ash	-11064
▁Don	-11065
▁GMP	-11066
▁Geo	-11067
▁Gửi	-11068
▁Lợi	-11069
▁Oct	-11070
▁jet	-11071
▁lôi	-11072
▁mèo	-11073
▁ngu	-11074
▁ref	-11075
▁tẩy	-11076
▁ván	-11077
▁xám	-11078
▁ປັດ	-11079
▁ຜົວ	-11080
▁ມິກ	-11081
▁ຢາມ	-11082
▁ສະກ	-11083
hacks	-11084
ນອື່ນ	-11085
ສີດໍາ	-11086
າດການ	-11087
ເກົ້າ	-11088
▁Fire	-11089
▁Kiến	-11090
▁Rich	-11091
▁buýt	-11092
▁quạt	-11093
▁thắc	-11094
▁vềEN	-11095
▁xích	-11096
▁ຊິ້ກ	-11097
▁ປະຈຸ	-11098
entine	-11099
ຊັບສິນ	-11100
ຊື່ວ່າ	-11101
ຕົວຂອກ	-11102
ລາຍການ	-11103
ຮັດວຽກ	-11104
າມຕ້ານ	-11105
ໂດຼລິກ	-11106
▁Frank	-11107
▁Model	-11108
▁crate	-11109
▁khiếu	-11110
▁viếng	-11111
Pirater	-11112
uploads	-11113
ຮ່ວມກັນ	-11114
ເວລາດົນ	-11115
▁giềEth	-11116
▁giềEvà	-11117
▁vềEtài	-11118
▁ຜູ້ຍິກ	-11119
▁ແຕ່ມັນ	-11120
.05.2018	-11121
EYouTube	-11122
iazhuang	-11123
ຈັນຍາບັນ	-11124
ຈິນຕະນາກ	-11125
ບັນດານັກ	-11126
ສະພາບກາກ	-11127
▁ThềENhĩ	-11128
▁đềEchia	-11129
▁ພື້ນທີ່	-11130
▁ສາສະຫນາ	-11131
ນໂຮ່ຈີມິກ	-11132
ພວກເຮົາມີ	-11133
ເກີດຂື້ນແ	-11134
▁ເຈົ້າຍັກ	-11135
ທີ່ບໍ່ແມ່ນ	-11136
ອາສາສະຫມັກ	-11137
▁chềEtrích	-11138
▁ສູດໂມເລກຸກ	-11139
":	-11140
KT	-11141
__	-11142
fg	-11143
ດນ	-11144
ໂບ	-11145
-08	-11146
1.0	-11147
105	-11148
40)	-11149
ECo	-11150
EFl	-11151
ESS	-11152
aus	-11153
ibo	-11154
ita	-11155
ivo	-11156
pos	-11157
vis	-11158
ຍູແ	-11159
ົວກ	-11160
ໍ່ນ	-11161
▁-.	-11162
▁CC	-11163
▁Fu	-11164
▁LO	-11165
▁MY	-11166
▁ZM	-11167
▁it	-11168
▁kì	-11169
▁sỹ	-11170
ECNC	-11171
andy	-11172
engo	-11173
izza	-11174
umbl	-11175
unny	-11176
uter	-11177
ມີນາ	-11178
ຫຍັດ	-11179
ະບຽກ	-11180
ເທດກ	-11181
ເມີກ	-11182
ເວັບ	-11183
່ຂອກ	-11184
▁4.5	-11185
▁Bấy	-11186
▁Det	-11187
▁Dev	-11188
▁NZD	-11189
▁Sil	-11190
▁USA	-11191
▁Ult	-11192
▁cnc	-11193
▁nét	-11194
▁ste	-11195
▁tro	-11196
▁Đếm	-11197
▁ກຸມ	-11198
▁ປະທ	-11199
▁ອາແ	-11200
▁ອຸດ	-11201
▁ຮາກ	-11202
▁ềES	-11203
▁ềEĐ	-11204
-2017	-11205
EHolm	-11206
ality	-11207
quyền	-11208
ຊົນນະ	-11209
ທະຫານ	-11210
ສາດສະ	-11211
ເປີດກ	-11212
ເປືອກ	-11213
▁Anti	-11214
▁Diện	-11215
▁Flex	-11216
▁Jing	-11217
▁Mang	-11218
▁Teen	-11219
▁chìa	-11220
▁dàng	-11221
▁ngợi	-11222
▁nàng	-11223
▁this	-11224
▁đống	-11225
▁ຈ່າຍ	-11226
▁ຍື່ນ	-11227
▁ຖ້ອກ	-11228
▁ຫນາມ	-11229
orrent	-11230
ກະຕຸ້ນ	-11231
ຈະແຈ້ກ	-11232
ບົດຮຽກ	-11233
ມື້ນີ້	-11234
ສໍານຶກ	-11235
ເນື້ອແ	-11236
▁Hoàng	-11237
▁Peter	-11238
▁hydro	-11239
▁khoán	-11240
▁shopp	-11241
▁ພິເສກ	-11242
▁ສະມາກ	-11243
▁ສັນຕິ	-11244
ສດເຫຼືອ	-11245
ສໍາຫຼວດ	-11246
ເຮືອບິນ	-11247
▁ETrang	-11248
▁Fabric	-11249
▁Guitar	-11250
▁Rotary	-11251
▁bềEqua	-11252
▁khoảnh	-11253
▁đềEmua	-11254
▁ກໍລະນີ	-11255
ເຊື່ອຖືແ	-11256
ເພື່ອແນແ	-11257
ເຮັດວຽກແ	-11258
▁bềEbệnh	-11259
▁đềEsống	-11260
ຜັນຂະຫຍາຍ	-11261
ວິສາຫະກິກ	-11262
ຮ່ວມມືກັບ	-11263
▁Silicone	-11264
ປົກປັກຮັກສາ	-11265
▁ເຕັກໂນໂລຢີ	-11266
▁ສໍາລັບຜູ້ຊາຍ	-11267
▁thềEtrềEthành	-11268
...............	-11269
2-	-11270
ni	-11271
uo	-11272
າບ	-11273
ໂຢ	-11274
4,5	-11275
:30	-11276
="4	-11277
EAn	-11278
aya	-11279
kok	-11280
mar	-11281
yle	-11282
ພອນ	-11283
ມ້າ	-11284
ຫອມ	-11285
▁78	-11286
▁Cả	-11287
▁Ti	-11288
▁ml	-11289
Cola	-11290
EPre	-11291
anes	-11292
ason	-11293
atte	-11294
avel	-11295
back	-11296
base	-11297
epad	-11298
exas	-11299
hong	-11300
iche	-11301
phen	-11302
stom	-11303
wood	-11304
ຊົມແ	-11305
ຊ້ອນ	-11306
ຊ້າກ	-11307
ດ່ຽວ	-11308
ທ່ຽກ	-11309
ທ່ຽວ	-11310
ນແປກ	-11311
ຜົນກ	-11312
ລັ່ກ	-11313
ະກໍາ	-11314
ເຊັນ	-11315
▁2.2	-11316
▁27,	-11317
▁DMF	-11318
▁Den	-11319
▁Eva	-11320
▁Jun	-11321
▁Lou	-11322
▁Quá	-11323
▁Upd	-11324
▁góa	-11325
▁len	-11326
▁lốp	-11327
▁rau	-11328
▁ກິນ	-11329
▁ຍຸກ	-11330
▁ທູກ	-11331
▁ແຜກ	-11332
ຢາເສບ	-11333
້ຈ່າກ	-11334
▁Head	-11335
▁Kiểu	-11336
▁Land	-11337
▁Last	-11338
▁Matt	-11339
▁Màng	-11340
▁Phục	-11341
▁Rock	-11342
▁Tong	-11343
▁Yang	-11344
▁chẩn	-11345
▁mini	-11346
▁ຜົນແ	-11347
▁ລຸ້ກ	-11348
▁ເຕີກ	-11349
▁ເລິກ	-11350
ດຖະກິກ	-11351
ຕົ້ນຕແ	-11352
ສະຫຼາກ	-11353
ະສິດທິ	-11354
້ເວລາແ	-11355
ໍາຫນົດ	-11356
▁2012,	-11357
▁Chuỗi	-11358
▁Chống	-11359
▁chước	-11360
▁ປະຊາກ	-11361
▁ມັນຈະ	-11362
ECasino	-11363
ຂຶ້ນກັບ	-11364
ປະລິນຍາ	-11365
ພິທີກາກ	-11366
ມໍລະດົກ	-11367
ສ່ວນຂອກ	-11368
▁(2013)	-11369
▁Report	-11370
▁hềEđối	-11371
▁đềExây	-11372
▁đềEđặt	-11373
▁ປະໂຫຍກ	-11374
▁ສະຖານະ	-11375
▁ເພື່ອນ	-11376
ECharter	-11377
ກ່ຽວຂ້ອກ	-11378
ດໍາເນີນແ	-11379
ແມ່ເຫຼັກ	-11380
▁hềEmuốn	-11381
▁scooter	-11382
▁ສຸຂະພາກ	-11383
ການສໍາພັດ	-11384
ສໍາລັບຜູ້	-11385
▁facebook	-11386
▁trềEliệu	-11387
▁ລັດຖະບາກ	-11388
ຫມາຍປາຍທາກ	-11389
▁thềEtưởng	-11390
ປ່ອຍສິນເຊື່ອ	-11391
ມີການປ່ຽນແປກ	-11392
ເຂົ້າຮ່ວມຂອກ	-11393
▁Lyophilized	-11394
ຂໍ້ມູນຂ່າວສານ	-11395
▁ເຊັ່ນດຽວກັນກັບ	-11396
JD	-11397
ທກ	-11398
.20	-11399
11,	-11400
112	-11401
Ess	-11402
Tất	-11403
Win	-11404
etr	-11405
tek	-11406
ກະລ	-11407
ຂວາ	-11408
ຖາວ	-11409
ທວກ	-11410
ຟຸກ	-11411
ວກະ	-11412
ວອກ	-11413
ສູ້	-11414
ຫໍ້	-11415
ື້ແ	-11416
▁HO	-11417
▁MO	-11418
▁Ra	-11419
▁ag	-11420
Châu	-11421
EPVC	-11422
acqu	-11423
aner	-11424
arat	-11425
hats	-11426
icon	-11427
luôn	-11428
ngơi	-11429
qiao	-11430
uman	-11431
ຊື່ອ	-11432
ບູຊາ	-11433
▁(11	-11434
▁(13	-11435
▁Big	-11436
▁Bụi	-11437
▁Cắt	-11438
▁End	-11439
▁FCC	-11440
▁Gần	-11441
▁Rog	-11442
▁SAP	-11443
▁TPU	-11444
▁dám	-11445
▁kịp	-11446
▁tím	-11447
▁tỏa	-11448
▁ກົມ	-11449
▁ຈະແ	-11450
▁ທົນ	-11451
1,000	-11452
Shirt	-11453
entai	-11454
other	-11455
owder	-11456
ບາຍດີ	-11457
ຫນ່ວຍ	-11458
ອາທິດ	-11459
າມຖີແ	-11460
າມບໍ່	-11461
ແມ່ນຍ	-11462
▁Anal	-11463
▁Idea	-11464
▁Mart	-11465
▁Read	-11466
▁Thậm	-11467
▁lệch	-11468
▁vềEM	-11469
▁vềEx	-11470
▁đằng	-11471
▁ຂັ້ກ	-11472
▁ອຸປະ	-11473
ກດເຫັນ	-11474
ຫມັ້ນແ	-11475
ັບຕັ້ກ	-11476
▁Autom	-11477
▁Cheng	-11478
▁Graph	-11479
▁Ngoại	-11480
▁Skype	-11481
▁khuất	-11482
▁sềEhạ	-11483
▁ທ່ານແ	-11484
▁ແລະເກ	-11485
ກໍລະກົກ	-11486
ບໍ່ເສຍກ	-11487
ປັບແຕ່ກ	-11488
ືລືລົ້ກ	-11489
ແລກປ່ຽນ	-11490
່ຮ່ວມມື	-11491
▁(2010)	-11492
▁Armati	-11493
▁guitar	-11494
▁lềEcho	-11495
▁ຜູ້ທີ່	-11496
▁ềEkhắp	-11497
EUkraine	-11498
endering	-11499
້ານການເກ	-11500
ໍາລັບການ	-11501
▁Molding	-11502
▁William	-11503
▁steroid	-11504
▁đềEhoàn	-11505
▁ແລະທ່ານ	-11506
Guangdong	-11507
ingdirect	-11508
ທີ່ຢູ່ອາແ	-11509
▁thềEloại	-11510
▁vềEchúng	-11511
ສໍາລັບການກ	-11512
▁bềEthương	-11513
ເປັນເຈົ້າຂອກ	-11514
/6	-11515
PL	-11516
ba	-11517
ön	-11518
ເຣ	-11519
ẢN	-11520
Anh	-11521
EHy	-11522
Ene	-11523
gie	-11524
las	-11525
lub	-11526
oan	-11527
odi	-11528
ຈູກ	-11529
ມີແ	-11530
າະກ	-11531
▁91	-11532
▁92	-11533
▁Ey	-11534
▁HU	-11535
▁Ji	-11536
▁RH	-11537
1390	-11538
atts	-11539
umma	-11540
ward	-11541
ັກສາ	-11542
ັ້ນກ	-11543
ເຊີຍ	-11544
້ກັກ	-11545
▁-10	-11546
▁Bút	-11547
▁CHO	-11548
▁CIS	-11549
▁Cnc	-11550
▁Cài	-11551
▁ECN	-11552
▁Lớp	-11553
▁Vir	-11554
▁nhi	-11555
▁Độc	-11556
▁ດິກ	-11557
aking	-11558
amaha	-11559
craft	-11560
eller	-11561
ience	-11562
ondon	-11563
stock	-11564
ຊົ່ວກ	-11565
ຽວນີ້	-11566
▁(3,5	-11567
▁File	-11568
▁Khối	-11569
▁NEMA	-11570
▁Site	-11571
▁Xing	-11572
▁nắng	-11573
▁trơn	-11574
▁vềES	-11575
▁ເຊົາ	-11576
hereum	-11577
ຈໍາລອກ	-11578
ປະຫລາກ	-11579
ມມະນາກ	-11580
ສິດສອກ	-11581
ຫົນທາກ	-11582
ອິນເດກ	-11583
ໂປແກຼມ	-11584
່ວັນທີ	-11585
▁Grill	-11586
▁phềEĐ	-11587
▁sềEph	-11588
▁ປະຈັກ	-11589
▁ເຍີ້ກ	-11590
ກໍາເນີກ	-11591
ຂ່າວສາກ	-11592
ຈະເຮັດແ	-11593
ຣະເຈົ້າ	-11594
ສະເພາະແ	-11595
າມສະດວກ	-11596
▁Studio	-11597
▁bềEnão	-11598
▁bềEđầu	-11599
▁chềEra	-11600
▁đềEsản	-11601
▁ກໍານົກ	-11602
ຈົດທະບຽນ	-11603
າມຫມັ້ນກ	-11604
▁Mubarak	-11605
▁Netflix	-11606
▁khềEcủa	-11607
▁thềEdẫn	-11608
▁thềExem	-11609
▁thềEđạt	-11610
▁ສາດສະດາ	-11611
▁ສໍາລັບກ	-11612
ນຜະລິດຂອກ	-11613
າມຖືກຕ້ອກ	-11614
▁Aluminum	-11615
▁ແທນທີ່ຈະ	-11616
ທີ່ຈະເຮັດແ	-11617
ປະຕິບັດການ	-11618
▁ເລີ່ມຕົ້ນ	-11619
PH	-11620
TP	-11621
ÔI	-11622
ຟີ	-11623
ỉa	-11624
-06	-11625
.64	-11626
10)	-11627
360	-11628
EAR	-11629
ely	-11630
men	-11631
pec	-11632
uth	-11633
ຊົດ	-11634
ຟາກ	-11635
ຫນາ	-11636
ເຈນ	-11637
ໂລຫ	-11638
ỳnh	-11639
▁5%	-11640
▁88	-11641
▁Av	-11642
▁Mẹ	-11643
▁eB	-11644
▁oz	-11645
▁ຕູ	-11646
1200	-11647
Econ	-11648
Ehtt	-11649
chun	-11650
icle	-11651
istr	-11652
lack	-11653
odia	-11654
ຖືກກ	-11655
ມຸ້ກ	-11656
ມ່ວນ	-11657
ສານແ	-11658
ຮ່ອກ	-11659
ະມາກ	-11660
▁Add	-11661
▁BCH	-11662
▁Bit	-11663
▁Bát	-11664
▁Cre	-11665
▁Cục	-11666
▁Lot	-11667
▁Lần	-11668
▁Sợi	-11669
▁bực	-11670
▁nồi	-11671
▁ກຽມ	-11672
▁ພູມ	-11673
▁ໂຍກ	-11674
eeder	-11675
enger	-11676
ibbon	-11677
indle	-11678
iston	-11679
layer	-11680
ພາລະກ	-11681
▁Chen	-11682
▁Lãnh	-11683
▁Ninh	-11684
▁Tech	-11685
▁chúc	-11686
▁dinh	-11687
▁giam	-11688
▁nhọc	-11689
▁trân	-11690
▁Đang	-11691
▁điền	-11692
▁ມູນກ	-11693
ຈ່າຍເກ	-11694
ລວບລວມ	-11695
ສະຖິຕິ	-11696
ອັນດັກ	-11697
ເຊື່ອກ	-11698
ເຫລືອກ	-11699
ແນນສຽກ	-11700
້ຈ່າຍແ	-11701
▁Opera	-11702
▁Point	-11703
▁ອາກາກ	-11704
estival	-11705
ippines	-11706
ຕອນຕົ້ກ	-11707
ຕັກໂນໂລ	-11708
▁Nickel	-11709
▁custom	-11710
▁khoang	-11711
▁thềEtự	-11712
▁ສີເທົາ	-11713
▁ສືບຕໍ່	-11714
▁ເຫມືອກ	-11715
▁ເອີຣົກ	-11716
lication	-11717
ພາດສະຕິກ	-11718
ມພິວເຕີແ	-11719
▁Flatbed	-11720
▁android	-11721
▁ທ່ານນາກ	-11722
propylene	-11723
ານປ່ຽນແປກ	-11724
ເປັນເຈົ້າ	-11725
ເຫລົ່ານີ້	-11726
▁HềEkhông	-11727
▁ethereum	-11728
▁ຈັດພີມມາ	-11729
▁ສະຖານທີແ	-11730
ມີສ່ວນຮ່ວມ	-11731
ຫມັ້ນສັນຍາ	-11732
▁Cartridge	-11733
▁Certified	-11734
▁Fiberglass	-11735
ແລະພວກເຮົາຈະ	-11736
ອາຊີຕາເວັນອອກ	-11737
▁ມົນທົນຊານຕົກ	-11738
▁shoppingdirect	-11739
%;	-11740
/9	-11741
5:	-11742
AA	-11743
IU	-11744
KV	-11745
dg	-11746
dh	-11747
ví	-11748
.70	-11749
00,	-11750
10:	-11751
21,	-11752
Eth	-11753
asy	-11754
ced	-11755
eda	-11756
ima	-11757
ral	-11758
ກູແ	-11759
ຖີກ	-11760
ສືແ	-11761
ໂຈກ	-11762
▁(+	-11763
▁7.	-11764
▁TW	-11765
▁mỡ	-11766
▁pe	-11767
▁vã	-11768
▁ôm	-11769
▁ທາ	-11770
-201	-11771
Ejet	-11772
Epro	-11773
avas	-11774
ello	-11775
izab	-11776
jing	-11777
link	-11778
virt	-11779
well	-11780
ຕະນາ	-11781
ທັນແ	-11782
ຫນີແ	-11783
ເກີນ	-11784
ເຈາະ	-11785
ແກ່ກ	-11786
▁135	-11787
▁EVA	-11788
▁Gar	-11789
▁Jul	-11790
▁asự	-11791
▁col	-11792
▁cre	-11793
▁cấy	-11794
▁dội	-11795
▁gai	-11796
▁leg	-11797
▁ngụ	-11798
▁nạp	-11799
▁sex	-11800
▁tồi	-11801
▁xóa	-11802
▁ຂັບ	-11803
▁ໂທກ	-11804
adise	-11805
ander	-11806
ersey	-11807
fiber	-11808
ilica	-11809
umblr	-11810
ທິພົກ	-11811
ນການກ	-11812
ລະຍາກ	-11813
ັກຮຽນ	-11814
າມຊົກ	-11815
ໍາອິກ	-11816
▁Cell	-11817
▁Cùng	-11818
▁HÀNG	-11819
▁Thăm	-11820
▁beta	-11821
▁ghét	-11822
▁rỗng	-11823
▁đàng	-11824
▁đềEC	-11825
▁ທີມກ	-11826
androl	-11827
ilding	-11828
intage	-11829
ຂັບລົດ	-11830
ຍົກສູກ	-11831
ສາມັກກ	-11832
ອົດທົກ	-11833
▁2016)	-11834
▁Block	-11835
▁Huafu	-11836
▁Money	-11837
▁Price	-11838
▁dress	-11839
▁giềEc	-11840
▁phanh	-11841
▁ທ່ານກ	-11842
izabeth	-11843
ກົດຫມາຍ	-11844
ທ່ານເອກ	-11845
ບໍລິເວນ	-11846
ສຸດທ້າກ	-11847
ຫຼ້າສຸກ	-11848
ານສຶກສາ	-11849
ຸດທະສາກ	-11850
ແມ່ນຍໍາ	-11851
▁Burner	-11852
▁Mexico	-11853
▁hềElại	-11854
▁lềEcủa	-11855
▁đềEcải	-11856
▁ຈໍາກັດ	-11857
▁ຢູ່ນະກ	-11858
▁ເຫຼົ້າ	-11859
▁ແຕ່ຍັກ	-11860
ຜົນກະທົກ	-11861
ພວກເຂົາກ	-11862
ຫຼາກຫຼາຍ	-11863
▁Patrick	-11864
▁Program	-11865
▁ຫົວຫນ້າ	-11866
ທີ່ທັນສະແ	-11867
ວ່າຈະເປັນ	-11868
ສົມບູນແບກ	-11869
ານກໍ່ສ້າກ	-11870
▁ເດັກນ້ອຍ	-11871
Etransposh	-11872
ຍົກຕົວຢ່າກ	-11873
ລະມັດລະວັກ	-11874
▁2006-2020	-11875
ຊ່ຽວຊານດ້ານ	-11876
ທີ່ເຂັ້ມແຂກ	-11877
ບໍລິສັດທີ່ແ	-11878
▁ມະຫາວິທະຍາແ	-11879
03	-11880
09	-11881
AB	-11882
AF	-11883
FP	-11884
ea	-11885
ks	-11886
-70	-11887
EST	-11888
EUn	-11889
PDF	-11890
emy	-11891
iro	-11892
low	-11893
ref	-11894
uge	-11895
ule	-11896
xem	-11897
ຂັດ	-11898
ດັດ	-11899
ຖອນ	-11900
ປານ	-11901
ຢືມ	-11902
ສີກ	-11903
ະທິ	-11904
ະໂກ	-11905
້ສະ	-11906
▁67	-11907
▁DA	-11908
▁Fe	-11909
▁xà	-11910
▁ຂາ	-11911
ECar	-11912
EPCB	-11913
EUSB	-11914
ayer	-11915
ilin	-11916
mark	-11917
ດີຈີ	-11918
ດີໂອ	-11919
ນລົກ	-11920
ຝັ່ກ	-11921
ພາກແ	-11922
ອາວຸ	-11923
▁0.9	-11924
▁CềE	-11925
▁Hub	-11926
▁LCD	-11927
▁Sal	-11928
▁Trẻ	-11929
▁Yan	-11930
▁hận	-11931
▁múa	-11932
▁nát	-11933
▁opt	-11934
▁sụp	-11935
▁tóm	-11936
▁ລິກ	-11937
earch	-11938
urich	-11939
ດຫມາຍ	-11940
ຕາການ	-11941
ຕໍ່ມາ	-11942
ນະຜູ້	-11943
ນເຈັບ	-11944
ປະກັກ	-11945
ຫມ້າກ	-11946
ຶນຂອກ	-11947
ເລເຊກ	-11948
ềEtổn	-11949
▁Fort	-11950
▁PHÁE	-11951
▁Show	-11952
▁Yout	-11953
▁back	-11954
▁chải	-11955
▁khấu	-11956
▁lùng	-11957
▁more	-11958
▁ngặt	-11959
▁nhịp	-11960
▁trưa	-11961
▁ຜູ້ນ	-11962
▁ềEng	-11963
ethane	-11964
google	-11965
ຈະຕ້ອກ	-11966
ຕົ້ນປີ	-11967
ທິດທາກ	-11968
ບັນຫາກ	-11969
▁Intel	-11970
▁Media	-11971
▁PROMO	-11972
▁State	-11973
▁Times	-11974
▁Watts	-11975
▁XNUMX	-11976
▁hềEkh	-11977
▁lềEvà	-11978
▁ລະດັກ	-11979
stanbul	-11980
ຂຶ້ນກັກ	-11981
ຈໍາເພາະ	-11982
າດຕະຖານ	-11983
າມເຊື່ອ	-11984
ແມ່ນວ່າ	-11985
ແລະຫຼັກ	-11986
▁(2014)	-11987
▁Commun	-11988
▁PayPal	-11989
▁đềEđưa	-11990
▁ຊື່ຂອກ	-11991
▁ບໍາລຸກ	-11992
ຈະມາເຖິກ	-11993
ຈໍາຫນ່າຍ	-11994
ບໍລິການແ	-11995
ປະສົມປະສ	-11996
ະຊຸມສໍາມ	-11997
ແມ່ນຢູ່ແ	-11998
▁Vietnam	-11999
▁ການອ່າກ	-12000
▁ພ້ອມທັກ	-12001
ສາມາດນໍາແ	-12002
່ອີເມວຂອກ	-12003
▁Electron	-12004
▁Wireless	-12005
▁chềEđược	-12006
▁ອັດສະຈັກ	-12007
ບັນດາການເກ	-12008
ບັນດາປະເທດ	-12009
ພື້ນຖານຂອກ	-12010
▁ການຊໍາລະເກ	-12011
▁ກ່ຽວກັບການ	-12012
Pl	-12013
fa	-12014
sử	-12015
tn	-12016
ສື	-12017
ຫແ	-12018
ໂຣ	-12019
ợt	-12020
.14	-12021
/01	-12022
PCS	-12023
Pie	-12024
gar	-12025
ຂີກ	-12026
ຕູນ	-12027
ວນແ	-12028
ເບກ	-12029
▁++	-12030
▁53	-12031
▁HK	-12032
▁SI	-12033
▁ss	-12034
ECam	-12035
anol	-12036
ergy	-12037
ials	-12038
iana	-12039
ices	-12040
osph	-12041
oung	-12042
ຊ່າກ	-12043
ຜູ້ນ	-12044
ວ່ອກ	-12045
ຫານແ	-12046
ອັນແ	-12047
▁210	-12048
▁Bal	-12049
▁Dãy	-12050
▁Ham	-12051
▁Khe	-12052
▁Mah	-12053
▁Nev	-12054
▁Pen	-12055
▁Seg	-12056
▁alt	-12057
▁art	-12058
▁bổn	-12059
▁gay	-12060
▁man	-12061
▁mọc	-12062
▁nón	-12063
▁Đàn	-12064
▁ປອມ	-12065
eater	-12066
elect	-12067
email	-12068
riêng	-12069
ຂົ່ມຂ	-12070
ລະດົມ	-12071
ສີຟ້າ	-12072
ອາວຸກ	-12073
ອຸທິດ	-12074
▁2030	-12075
▁Alex	-12076
▁Fran	-12077
▁HềEb	-12078
▁Phim	-12079
▁Snap	-12080
▁khán	-12081
▁thắt	-12082
▁tiềE	-12083
▁ມັນກ	-12084
▁ຫຼວດ	-12085
Sphere	-12086
Trader	-12087
ickets	-12088
ການບິກ	-12089
ດວ່າຈະ	-12090
ທ່າແຮກ	-12091
ບັນລຸກ	-12092
ພົວພັກ	-12093
ສຶກສາກ	-12094
ຫົວຂໍແ	-12095
າມສະຫກ	-12096
າມຫວັກ	-12097
ົບກັບກ	-12098
ເຂົາມີ	-12099
▁Khaki	-12100
▁Piece	-12101
▁quyến	-12102
▁ນໍາພາ	-12103
▁ພະແນກ	-12104
itecoin	-12105
ກັບສິ່ກ	-12106
ກໍ່ສ້າກ	-12107
ຂໍ້ມູນແ	-12108
ທຸກຢ່າກ	-12109
ຢ້ານກົວ	-12110
ຮູບຮ່າກ	-12111
ຮ່ວມກັບ	-12112
▁hềEđều	-12113
▁nhềEbé	-12114
▁ຖະຫນົນ	-12115
▁ລາຍກາກ	-12116
ນະພາບສູກ	-12117
ອັນຕະລາຍ	-12118
້ຮັບການກ	-12119
▁ການສ້າກ	-12120
▁ຫົວຂໍ້ແ	-12121
ຊ່ວຍເຫລືອ	-12122
ຫາພວກເຮົາ	-12123
ຮູ້ສຶກວ່າ	-12124
▁Paradise	-12125
▁sềEthích	-12126
ກັບຂີ້ຝຸ່ນ	-12127
ຫຼາຍທີ່ສຸດ	-12128
▁giềEchúng	-12129
▁ການປັບປຸກ	-12130
▁ທ່ານອາດຈະ	-12131
▁ພວກເຮົາຍັກ	-12132
▁thềEdềEdàng	-12133
HL	-12134
TL	-12135
ko	-12136
ອິ	-12137
າສ	-12138
-09	-12139
170	-12140
24)	-12141
50,	-12142
EAC	-12143
Ltd	-12144
Túi	-12145
dge	-12146
gắn	-12147
vas	-12148
zuk	-12149
ươn	-12150
ປວດ	-12151
ຮົບ	-12152
າລາ	-12153
ເວີ	-12154
▁93	-12155
▁94	-12156
▁IS	-12157
▁SN	-12158
▁\(	-12159
▁ám	-12160
EMar	-12161
Eins	-12162
case	-12163
giải	-12164
icks	-12165
itan	-12166
word	-12167
ຍິ້ມ	-12168
ດອກແ	-12169
ບິນແ	-12170
ປຸ່ນ	-12171
ພີ່ມ	-12172
ເມສາ	-12173
້ຊິດ	-12174
▁188	-12175
▁280	-12176
▁6.0	-12177
▁AMP	-12178
▁Bon	-12179
▁CPT	-12180
▁Emb	-12181
▁Gặp	-12182
▁Ins	-12183
▁Tàu	-12184
▁app	-12185
▁bóc	-12186
▁bầy	-12187
▁lau	-12188
▁mưu	-12189
▁nit	-12190
▁ຕຶກ	-12191
▁ຕື້	-12192
▁ພໍ່	-12193
▁ມຸມ	-12194
berra	-12195
erver	-12196
nhiệt	-12197
stone	-12198
witch	-12199
ນຕ່າກ	-12200
ຜ່ານແ	-12201
າເຫັກ	-12202
ເອົາມ	-12203
ໍາອາກ	-12204
▁Biên	-12205
▁Reed	-12206
▁hỏng	-12207
▁khốn	-12208
▁ມື້ນ	-12209
atcher	-12210
eptine	-12211
ources	-12212
ການພິມ	-12213
ຊາຍຂອກ	-12214
ຕົວແທນ	-12215
ຮຽນຮູແ	-12216
່ວນຂອກ	-12217
▁2008,	-12218
▁Chain	-12219
▁hacks	-12220
▁vềEnó	-12221
▁đềEsự	-12222
▁ສະບັກ	-12223
ຜູ້ທີ່ແ	-12224
ຜ່ານການ	-12225
ພ້ອມກັບ	-12226
ຸດທີ່ເກ	-12227
▁Engine	-12228
▁vềEgia	-12229
▁đềEbán	-12230
▁đềEđối	-12231
▁ທີ່ຖືກ	-12232
▁Fitness	-12233
▁Network	-12234
▁Youtube	-12235
▁chềEđạo	-12236
▁nhềEhơn	-12237
▁ມູນນິທິ	-12238
ປຶກສາຫາລື	-12239
ພາກສະຫນາມ	-12240
ີ່ແຕກຕ່າກ	-12241
▁thềEhiểu	-12242
▁ກ້າວຫນ້າ	-12243
▁trềEvềEnhà	-12244
▁ລະຫັດບໍລິສັກ	-12245
▁ຕອນເຊົ້າວັນທີ	-12246
Dr	-12247
OH	-12248
Or	-12249
RH	-12250
bi	-12251
rs	-12252
ຝາ	-12253
.77	-12254
12:	-12255
15)	-12256
ART	-12257
COM	-12258
inn	-12259
nap	-12260
uto	-12261
ຍະແ	-12262
ນມາ	-12263
ວີກ	-12264
ສີດ	-12265
ແວກ	-12266
▁AI	-12267
▁Ec	-12268
▁HS	-12269
▁JB	-12270
▁So	-12271
▁Uy	-12272
▁br	-12273
▁ຈີ	-12274
EAir	-12275
acen	-12276
acth	-12277
kers	-12278
ship	-12279
west	-12280
ກັບແ	-12281
ກໍາແ	-12282
ຊໍ້າ	-12283
ຕົກແ	-12284
ຕົວະ	-12285
ຫົ່ມ	-12286
ັນຫາ	-12287
າວ່າ	-12288
ແຍ່ກ	-12289
ໂດເນ	-12290
▁123	-12291
▁31,	-12292
▁7.5	-12293
▁Bab	-12294
▁Bat	-12295
▁Bốn	-12296
▁CEO	-12297
▁Ghi	-12298
▁Khí	-12299
▁ath	-12300
▁dàn	-12301
▁gạt	-12302
▁hầm	-12303
▁kẹp	-12304
▁nại	-12305
▁vắc	-12306
▁ອະແ	-12307
▁≥10	-12308
INGBO	-12309
Tháng	-12310
apter	-12311
ifter	-12312
ຂ້ອຍກ	-12313
ພັນລະ	-12314
ລະບາດ	-12315
ອິດສະ	-12316
ິດີໂອ	-12317
ເຫລໍກ	-12318
້າທາກ	-12319
້ແນວແ	-12320
ềEhội	-12321
▁0.15	-12322
▁ASTM	-12323
▁BCHT	-12324
▁Bulk	-12325
▁Chai	-12326
▁Nhìn	-12327
▁Nhựa	-12328
▁Sòng	-12329
▁Tang	-12330
▁Yong	-12331
▁mach	-12332
▁mềEđ	-12333
▁ngầm	-12334
▁type	-12335
▁đuối	-12336
▁ຫລີກ	-12337
BềElọc	-12338
ຂຶ້ນມາ	-12339
ນິດສາດ	-12340
ວ່າກາກ	-12341
ສັບສົນ	-12342
ະສິກໍາ	-12343
ເຫຍື່ອ	-12344
ເອີຣົບ	-12345
ແລະມີກ	-12346
▁2016,	-12347
▁Innov	-12348
▁KHÔNG	-12349
▁Techn	-12350
▁Tours	-12351
▁Vinyl	-12352
▁games	-12353
▁hềEđi	-12354
▁ngoái	-12355
▁ລ້ານກ	-12356
▁ອາກາດ	-12357
▁ເຫລັກ	-12358
enerate	-12359
ທີ່ສ້າກ	-12360
ຮູບພາບແ	-12361
າມສະອາກ	-12362
າມເປັນແ	-12363
ເຜີຍແຜ່	-12364
ແລະເປັນ	-12365
້ຮັບກາກ	-12366
▁chềEvì	-12367
▁hềEvẫn	-12368
▁khềEvà	-12369
▁ການພິມ	-12370
▁ບໍ່ພຽກ	-12371
▁ພາກຮຽກ	-12372
acthacks	-12373
essenger	-12374
ເຮືອນຂອກ	-12375
▁BềECông	-12376
▁ວິສະວະກ	-12377
ການປະກັນແ	-12378
ຫຼຸດຜ່ອນກ	-12379
▁EAndroid	-12380
▁vềEchính	-12381
▁đềEchống	-12382
▁ມາດຕະຖານ	-12383
ລັກສະນະຂອກ	-12384
ວ່າພວກເຂົາ	-12385
ອິນເຕີເນັດ	-12386
▁ຜູ້ອໍານວຍ	-12387
ພວກເຮົາສາມາດ	-12388
▁ຕອນບ່າຍວັນທີ	-12389
▁ເອເລັກໂຕຣນິກ	-12390
▁ພວກເຮົາກໍາລັກ	-12391
")	-12392
',	-12393
RS	-12394
ẹt	-12395
-2,	-12396
-24	-12397
12,	-12398
bro	-12399
fit	-12400
hoa	-12401
oom	-12402
ori	-12403
oát	-12404
rav	-12405
uls	-12406
ນັດ	-12407
ນາຍ	-12408
ນົມ	-12409
▁::	-12410
▁Ax	-12411
▁Bí	-12412
▁CM	-12413
▁HY	-12414
▁IC	-12415
▁Ke	-12416
▁Py	-12417
▁Đà	-12418
▁ລຸ	-12419
EChe	-12420
aked	-12421
heng	-12422
ique	-12423
oros	-12424
phải	-12425
qing	-12426
ກັນແ	-12427
ສະເທ	-12428
ສຸດແ	-12429
ະຕິກ	-12430
ເບິກ	-12431
່ກັບ	-12432
▁0,5	-12433
▁1-8	-12434
▁108	-12435
▁5.5	-12436
▁BẠN	-12437
▁Lee	-12438
▁Sân	-12439
▁Thử	-12440
▁Vua	-12441
▁Vấn	-12442
▁cụm	-12443
▁mar	-12444
▁pet	-12445
▁đắn	-12446
▁ຍາດ	-12447
▁ທີມ	-12448
▁ປູກ	-12449
▁ພຶດ	-12450
▁ມຸກ	-12451
▁ເພດ	-12452
▁ໂຈມ	-12453
▁ໂອແ	-12454
Epoly	-12455
amber	-12456
attle	-12457
bodia	-12458
eflon	-12459
ening	-12460
ຊຸມປີ	-12461
ດເຖິກ	-12462
ລະບາກ	-12463
ານັ້ກ	-12464
າມຈໍາ	-12465
້ນ້ໍາ	-12466
▁1914	-12467
▁Biển	-12468
▁Film	-12469
▁Khẩn	-12470
▁Meta	-12471
▁Nhấn	-12472
▁Shar	-12473
▁Tinh	-12474
▁Vườn	-12475
▁chip	-12476
▁cont	-12477
▁cống	-12478
▁hoài	-12479
▁khôi	-12480
▁lánh	-12481
▁ĐềEc	-12482
▁ຫຼ້າ	-12483
▁ໂດຍແ	-12484
▁ềEth	-12485
EBonus	-12486
ຕົວແບກ	-12487
ານສ້າກ	-12488
ຽບຮ້ອກ	-12489
▁luồng	-12490
▁nhềEm	-12491
▁thỉnh	-12492
▁vềEcơ	-12493
▁đềEra	-12494
olution	-12495
ທີ່ສຸດກ	-12496
ບັນດາໂກ	-12497
ມືອາຊີກ	-12498
ວ່ານັ້ນ	-12499
ềEchính	-12500
▁(2011)	-12501
▁AASraw	-12502
▁hacker	-12503
▁hềEcho	-12504
▁phềETh	-12505
▁sềEtại	-12506
▁đềEbắt	-12507
▁ຊື່ສັກ	-12508
▁ເຂົ້າກ	-12509
EPowered	-12510
ອິດທິພົນ	-12511
ແມ່ນສິ່ກ	-12512
▁Jackpot	-12513
▁Powered	-12514
▁SềEđiện	-12515
▁hềEthấy	-12516
▁thềEhọc	-12517
▁website	-12518
▁đềEđánh	-12519
▁ຂະຫນາດແ	-12520
Catalogue	-12521
androlone	-12522
avascript	-12523
▁tattoost	-12524
▁đềEhềEcó	-12525
▁ປະເພດຂອກ	-12526
ປະສິດທິພາກ	-12527
▁ປະສິດທິພາບ	-12528
ຈຸດຫມາຍປາຍທາກ	-12529
0,	-12530
3}	-12531
GI	-12532
Nm	-12533
nm	-12534
ti	-12535
zi	-12536
ອຟ	-12537
-26	-12538
.19	-12539
769	-12540
="5	-12541
BET	-12542
Des	-12543
ado	-12544
atr	-12545
edu	-12546
ety	-12547
itz	-12548
ຊີນ	-12549
ຍອກ	-12550
ທີມ	-12551
ນາແ	-12552
ບີກ	-12553
ຫມໍ	-12554
ເອດ	-12555
▁BO	-12556
▁EĐ	-12557
▁ađ	-12558
▁lí	-12559
Liên	-12560
ours	-12561
pack	-12562
reat	-12563
ures	-12564
ຈົ່ມ	-12565
ດ່ວກ	-12566
ຖາມກ	-12567
ນຈາກ	-12568
ນດຽວ	-12569
ຮ້ອຍ	-12570
ະຊາກ	-12571
ແນະນ	-12572
້ວ່າ	-12573
▁Bad	-12574
▁Bãi	-12575
▁CAN	-12576
▁Pol	-12577
▁TED	-12578
▁TIN	-12579
▁Trả	-12580
▁TÔI	-12581
▁ang	-12582
▁bèn	-12583
▁cấm	-12584
▁dốc	-12585
▁gũi	-12586
▁gặt	-12587
▁lân	-12588
▁thự	-12589
▁vat	-12590
▁ຂົນ	-12591
▁ທົບ	-12592
ELast	-12593
aging	-12594
annel	-12595
ippie	-12596
ipple	-12597
ບ່ອນແ	-12598
ຫລາດແ	-12599
ອຸທິກ	-12600
ະຊຸມແ	-12601
ັນທຶກ	-12602
ົນຈັກ	-12603
ເຕີບແ	-12604
ເຫລັກ	-12605
▁Giai	-12606
▁Hall	-12607
▁Linh	-12608
▁Nhấp	-12609
▁Roll	-12610
▁chat	-12611
▁hand	-12612
▁hước	-12613
▁over	-12614
▁súng	-12615
▁ດື່ມ	-12616
▁ດ້ານ	-12617
▁ນ້ອຍ	-12618
▁ມື້ກ	-12619
EChang	-12620
EPulse	-12621
acetam	-12622
irates	-12623
nghiên	-12624
ລະເບີດ	-12625
ລັດເຊກ	-12626
ົ້າກັບ	-12627
ເຫຼັ້ມ	-12628
ແທນຂອກ	-12629
່າຍຮູບ	-12630
▁Brown	-12631
▁Proxy	-12632
▁bềEqu	-12633
▁đềEẩm	-12634
▁ຕາລາກ	-12635
▁ຫນ່ວຍ	-12636
,000.00	-12637
acquard	-12638
itioner	-12639
ກາຍເປັນ	-12640
ຂະນະທີແ	-12641
ຈົດຫມາກ	-12642
ມື້ນັ້ກ	-12643
ລູມິນຽມ	-12644
ສະຫະພັນ	-12645
ສິລະປິນ	-12646
ໂທລະພາກ	-12647
▁0086-1	-12648
▁Energy	-12649
▁Player	-12650
▁Rooder	-12651
▁trương	-12652
▁đềEvới	-12653
▁ຈໍາກັກ	-12654
▁ລະດັບກ	-12655
▁ລາຍການ	-12656
▁ອອກແບບ	-12657
ບບຍືນຍົກ	-12658
ປະຕິບັດແ	-12659
ເກີດຂຶ້ນ	-12660
້ປະຊາຊົນ	-12661
▁Trading	-12662
▁ສະບາຍດີ	-12663
▁ອາຍແກັສ	-12664
ພື້ນເມືອກ	-12665
ານບໍລິການ	-12666
າມແມ່ນຍໍາ	-12667
ເພີ່ມຂຶ້ກ	-12668
ເລືອກຕັ້ກ	-12669
▁Business	-12670
▁ການບັນຈຸ	-12671
▁ຮັບປະກັນ	-12672
▁ເກົ້າອີແ	-12673
ບັນພະບຸລຸກ	-12674
▁Transposh	-12675
▁thềEtrong	-12676
ທີ່ຫນ້າສົນແ	-12677
▁ຢູ່ຮ່າໂນ້ກ	-12678
ທີ່ທ່ານສາມາດ	-12679
ການສໍາພັດພາຍແ	-12680
ອີກເທື່ອຫນຶ່ກ	-12681
ຜະລິດຕະພັນຫຼືກ	-12682
▁Sihanoukville	-12683
▁ລະຫັດການປະກັນແ	-12684
ແລະພວກເຮົາຈະຢູ່ແ	-12685
(5	-12686
/-	-12687
04	-12688
06	-12689
8.	-12690
GT	-12691
LA	-12692
SG	-12693
Vì	-12694
cs	-12695
pg	-12696
ປິ	-12697
ລູ	-12698
ໂພ	-12699
ỦA	-12700
(1)	-12701
-85	-12702
.12	-12703
130	-12704
15,	-12705
Một	-12706
add	-12707
ega	-12708
lee	-12709
oug	-12710
res	-12711
rey	-12712
ຈ້າ	-12713
ຊູແ	-12714
ປຶກ	-12715
ຫມູ	-12716
ແກມ	-12717
໊າຊ	-12718
▁(8	-12719
▁DK	-12720
▁RC	-12721
▁Sl	-12722
▁UP	-12723
▁Yu	-12724
▁ລື	-12725
▁ໂຍ	-12726
airs	-12727
alve	-12728
lute	-12729
neum	-12730
ovel	-12731
zuki	-12732
ບຸນກ	-12733
ສະຖາ	-12734
ຫານກ	-12735
ຫຼືແ	-12736
ະກອກ	-12737
ະບອກ	-12738
ເຊີແ	-12739
ເດົາ	-12740
ເພດກ	-12741
▁0.8	-12742
▁195	-12743
▁2.6	-12744
▁25%	-12745
▁Ann	-12746
▁CỦA	-12747
▁Feb	-12748
▁GDP	-12749
▁JPY	-12750
▁Laz	-12751
▁Los	-12752
▁MÁE	-12753
▁Nan	-12754
▁Ter	-12755
▁acc	-12756
▁bấy	-12757
▁hoạ	-12758
▁neo	-12759
▁tăm	-12760
▁đàm	-12761
▁ຂົກ	-12762
▁ປອດ	-12763
▁ສວນ	-12764
▁ເຂກ	-12765
▁ໂກກ	-12766
EPort	-12767
emium	-12768
epper	-12769
idine	-12770
namfg	-12771
ungal	-12772
utsch	-12773
ກະດູກ	-12774
ຖືວ່າ	-12775
ທິດສະ	-12776
ທ້ຈິກ	-12777
ປະຢັດ	-12778
ພາກສາ	-12779
ມັກຈະ	-12780
າສສິກ	-12781
ູບແບບ	-12782
້ນພົກ	-12783
້າທາຍ	-12784
ໍານວນ	-12785
ໍ່ການ	-12786
▁Bánh	-12787
▁BềEx	-12788
▁Cord	-12789
▁Coun	-12790
▁Jiao	-12791
▁Marc	-12792
▁Nông	-12793
▁Siêu	-12794
▁Trần	-12795
▁Wash	-12796
▁Xiao	-12797
▁canh	-12798
▁dáng	-12799
▁from	-12800
▁gián	-12801
▁live	-12802
▁ຕຸ້ກ	-12803
▁ປຽບທ	-12804
▁ສິ້ນ	-12805
▁ແຂ້ວ	-12806
kraina	-12807
ຊັດເຈກ	-12808
ຕະຫລອດ	-12809
ນັກຮຽນ	-12810
ປະຫຍັດ	-12811
ພາຍນອກ	-12812
ຢືນຢັກ	-12813
ອ່ອນແອ	-12814
ແຜນການ	-12815
ềEchất	-12816
▁2015,	-12817
▁Width	-12818
▁sềEkh	-12819
▁ທະຫານ	-12820
▁ສະອາກ	-12821
▁ເອີ້ກ	-12822
Elovers	-12823
ຖ່າຍຮູບ	-12824
ທີ່ຢູ່ແ	-12825
ຢູ່ແລ້ວ	-12826
ຮ່ວມມືແ	-12827
▁Cutter	-12828
▁Hunter	-12829
▁Khuyến	-12830
▁Linked	-12831
▁Oxygen	-12832
▁Tester	-12833
▁google	-12834
▁hềErất	-12835
▁khoáng	-12836
▁trềEth	-12837
▁đềEMặc	-12838
▁đềEnào	-12839
▁đềEtối	-12840
cription	-12841
verboard	-12842
ທີ່ເປັນແ	-12843
ພຣະເຈົ້າ	-12844
ວກເຮົາມີ	-12845
ສະຖານທີແ	-12846
ສະພາແຫ່ກ	-12847
▁Casengo	-12848
▁Drifter	-12849
▁twitter	-12850
▁vềEgiám	-12851
▁vềEtính	-12852
▁ການເກັບ	-12853
▁ທ່ານຈະແ	-12854
▁ນະໂຍບາຍ	-12855
▁ປະຊາຊົກ	-12856
▁thềEđiều	-12857
▁ຂະບວນການ	-12858
▁ນະໂຍບາຍກ	-12859
▁ລາຍລະອຽດ	-12860
ສະມາຊິກຂອກ	-12861
່ວນຫນ້າຂອກ	-12862
▁ການອອກແບກ	-12863
▁ປະຫວັດສາດ	-12864
▁ລະບົບຕ່ອກ	-12865
▁ວິທະຍາສາດ	-12866
▁ວິສາຫະກິດ	-12867
ທີ່ທ່ານຕ້ອກ	-12868
▁ການເຮັດວຽກ	-12869
▁ແລະພວກເຂົາ	-12870
ຜູ້ເຂົ້າຮ່ວມ	-12871
▁Minneapolis	-12872
ສື່ມວນຊົນຍ່ອກ	-12873
▁...............	-12874
CB	-12875
OK	-12876
my	-12877
{_	-12878
ຮູ	-12879
ີຍ	-12880
(2)	-12881
.07	-12882
.18	-12883
16,	-12884
20)	-12885
240	-12886
320	-12887
868	-12888
EBr	-12889
ENS	-12890
EPr	-12891
ERS	-12892
ERe	-12893
Ecl	-12894
LAN	-12895
Min	-12896
ONG	-12897
aid	-12898
enz	-12899
ham	-12900
udy	-12901
urt	-12902
use	-12903
ຍູ້	-12904
ນມີ	-12905
ຫມີ	-12906
ແກກ	-12907
ແຂນ	-12908
້ວນ	-12909
ໍໂມ	-12910
▁LT	-12911
▁RM	-12912
▁TN	-12913
▁TY	-12914
▁Vo	-12915
▁go	-12916
▁ĐÁ	-12917
,500	-12918
giúp	-12919
ômét	-12920
ກັ້ກ	-12921
ກໍ່ແ	-12922
ຈະລາ	-12923
ຊື່ນ	-12924
ປັດແ	-12925
ປິ່ກ	-12926
ະລາກ	-12927
ເຖີກ	-12928
▁1.8	-12929
▁121	-12930
▁2.1	-12931
▁2.8	-12932
▁CAS	-12933
▁Cut	-12934
▁Cây	-12935
▁Ram	-12936
▁SQL	-12937
▁XML	-12938
▁all	-12939
▁bồi	-12940
▁dép	-12941
▁ios	-12942
▁lúa	-12943
▁lật	-12944
▁lứa	-12945
▁mag	-12946
▁mịn	-12947
▁ຍອດ	-12948
▁ທຶກ	-12949
▁ບາຍ	-12950
▁ປວດ	-12951
▁ພາດ	-12952
▁ພົວ	-12953
▁ແອວ	-12954
16949	-12955
embly	-12956
ering	-12957
sheng	-12958
ພົບປະ	-12959
ສະບຽກ	-12960
ຫມໍ້ແ	-12961
າມກະຕ	-12962
ເລັ່ກ	-12963
ເວລາແ	-12964
ềElớn	-12965
▁Cixi	-12966
▁Coff	-12967
▁Form	-12968
▁Liệu	-12969
▁Need	-12970
▁Vịnh	-12971
▁WIFI	-12972
▁báng	-12973
▁free	-12974
▁hang	-12975
▁khớp	-12976
▁mult	-12977
▁quái	-12978
▁tags	-12979
▁thuỷ	-12980
▁ຖັດແ	-12981
▁ທະເລ	-12982
▁ເມນູ	-12983
▁ແຫ້ກ	-12984
EFiber	-12985
urnace	-12986
ທີ່ກອກ	-12987
ຜູ້ຊາກ	-12988
ແບບນີແ	-12989
ແລະບໍ່	-12990
▁2011)	-12991
▁2016.	-12992
▁Admin	-12993
▁Ether	-12994
▁Night	-12995
▁SềEmô	-12996
▁lềEtr	-12997
▁ສີຂຽວ	-12998
▁ເຕັ້ກ	-12999
Ecosmos	-13000
Efabric	-13001
ຕິດຕາມກ	-13002
ຢູ່ບ່ອນ	-13003
ວັດທະນະ	-13004
ສະເຫມີແ	-13005
ເຊື່ອຖື	-13006
໊ອກນ້ໍາ	-13007
▁Cotton	-13008
▁Heroes	-13009
▁HềEChí	-13010
▁bềEkết	-13011
▁bềEsưu	-13012
▁cềEvấn	-13013
▁hềEbắt	-13014
▁hềEnói	-13015
▁đềExác	-13016
▁ຂະຫຍາກ	-13017
▁ຫົວຂໍແ	-13018
▁ອົດທົກ	-13019
ະພະຍາຍາມ	-13020
ເກີດຂື້ກ	-13021
ເຂົ້າສູ່	-13022
້ດໍາເນີນ	-13023
▁Angeles	-13024
▁Olympic	-13025
▁kilômét	-13026
▁ບໍລິສຸກ	-13027
▁ວິທີກາກ	-13028
▁ແລະສິ່ກ	-13029
ຂໍ້ຕົກລົກ	-13030
ຢູ່ທີ່ນີແ	-13031
່ານທີ່ຈະແ	-13032
▁ThềEthực	-13033
▁bềEtrong	-13034
▁thềEliên	-13035
▁ລ້ານໂດລາ	-13036
▁ເວົ້າຂອກ	-13037
▁ການທົດລອກ	-13038
▁ການສະຫນອກ	-13039
▁ລະຫັດພາສີ	-13040
ທີ່ພວກເຮົາແ	-13041
▁ພວກເຮົາແມ່ນ	-13042
6.	-13043
7%	-13044
7:	-13045
PM	-13046
.04	-13047
.78	-13048
122	-13049
304	-13050
ECr	-13051
Mpa	-13052
aps	-13053
ato	-13054
bow	-13055
obe	-13056
oga	-13057
ຈອດ	-13058
ຕີແ	-13059
ທູດ	-13060
ມະຫ	-13061
ລໍ້	-13062
ຮຸກ	-13063
ັກແ	-13064
ເນີ	-13065
▁4)	-13066
▁EB	-13067
▁Je	-13068
▁ZH	-13069
▁vú	-13070
3000	-13071
entr	-13072
nhìn	-13073
pers	-13074
unge	-13075
xing	-13076
ພາບກ	-13077
ລົບກ	-13078
ວົ້າ	-13079
ສວຍກ	-13080
ຫຍາຍ	-13081
າຕອບ	-13082
▁1.3	-13083
▁198	-13084
▁877	-13085
▁Aqu	-13086
▁Góc	-13087
▁IEC	-13088
▁Lựa	-13089
▁Sửa	-13090
▁Tom	-13091
▁Yin	-13092
▁sáo	-13093
▁ພິກ	-13094
▁ວັດ	-13095
▁ຫີກ	-13096
▁ແກະ	-13097
▁ແຍກ	-13098
▁ແມກ	-13099
▁ໂຫກ	-13100
▁ềEG	-13101
ERIES	-13102
EWall	-13103
actor	-13104
anton	-13105
ising	-13106
onder	-13107
tdown	-13108
ustin	-13109
ustry	-13110
ກະຈາຍ	-13111
ກິດຈະ	-13112
ນັ້ນກ	-13113
ລາມົກ	-13114
ະຫຼາດ	-13115
ັດຖຸດ	-13116
ັນການ	-13117
ເຫັນກ	-13118
ềEvào	-13119
▁Ball	-13120
▁BềEs	-13121
▁Canh	-13122
▁Kính	-13123
▁Lưới	-13124
▁Mary	-13125
▁Nhôm	-13126
▁Tuần	-13127
▁cong	-13128
▁cềEh	-13129
▁mãnh	-13130
▁play	-13131
▁spin	-13132
▁vong	-13133
▁vềET	-13134
▁will	-13135
▁ຫນາວ	-13136
▁ຫລວກ	-13137
▁ເບີກ	-13138
Emotor	-13139
arinet	-13140
bright	-13141
ending	-13142
iscuit	-13143
otland	-13144
ຊອກຫາກ	-13145
ຜົນຂອກ	-13146
ວກະສິກ	-13147
ສອບຖາມ	-13148
ີ້ຝຸ່ນ	-13149
ົດຫມາກ	-13150
້ພະລັກ	-13151
ềEđịnh	-13152
▁Austr	-13153
▁Hydro	-13154
▁Ninja	-13155
▁Share	-13156
▁Shell	-13157
▁Thạch	-13158
▁Thống	-13159
▁bềElỡ	-13160
▁đềEtự	-13161
avorite	-13162
pressor	-13163
ຂັ້ນສູກ	-13164
ພື້ນທີແ	-13165
ຢູ່ເທິກ	-13166
ວາລະສາກ	-13167
ັດຖະບາກ	-13168
ແນະນໍາແ	-13169
▁kềEcho	-13170
▁ສະຖານີ	-13171
▁ສະເຫມີ	-13172
ທຸລະກິດແ	-13173
ມື້ຫນຶ່ກ	-13174
ເປີດເຜີກ	-13175
ເປີດເຜີຍ	-13176
▁Crystal	-13177
▁bềEđiều	-13178
▁protein	-13179
▁đềEloại	-13180
▁ກັນນ້ໍາ	-13181
▁ຍຸຕິທໍາ	-13182
▁ໂທລະສັບ	-13183
umenstock	-13184
wordpress	-13185
ຍ່ທີ່ສຸດແ	-13186
ີ່ພວກເຂົາ	-13187
ເປົ້າຫມາກ	-13188
▁Pressure	-13189
▁ການສະແດກ	-13190
ການຕິດຕັ້ກ	-13191
ມົນຕີກະຊວກ	-13192
້ເຂົ້າຮ່ວມ	-13193
▁ປະກອບສ່ວນ	-13194
ອຸນຫະພູມສູກ	-13195
▁Genotropin	-13196
▁JavaScript	-13197
ຂໍ້ມູນຂ່າວສາກ	-13198
ຖ້າຫາກວ່າທ່ານ	-13199
▁testosterone	-13200
▁ຍິນດີຕ້ອນຮັກ	-13201
▁ຕິດຕໍ່ພວກເຮົາ	-13202
▁ການປ່ອຍສິນເຊື່ອ	-13203
))	-13204
UL	-13205
kỷ	-13206
éc	-13207
ен	-13208
ос	-13209
ກມ	-13210
ກິ	-13211
(1,	-13212
140	-13213
18,	-13214
ENT	-13215
Eco	-13216
Koh	-13217
UNG	-13218
als	-13219
aza	-13220
fox	-13221
jie	-13222
kin	-13223
mmx	-13224
viv	-13225
ຈັນ	-13226
ນານ	-13227
ປະແ	-13228
ມຸດ	-13229
ຫຼວ	-13230
ແຊກ	-13231
່ວິ	-13232
▁69	-13233
▁77	-13234
▁CẢ	-13235
▁GS	-13236
▁GU	-13237
▁Ir	-13238
▁dạ	-13239
▁sô	-13240
▁ໂບ	-13241
Hình	-13242
Time	-13243
aron	-13244
rael	-13245
tect	-13246
uyệt	-13247
ດີ້ກ	-13248
ທະນາ	-13249
ນສົກ	-13250
ສາຍແ	-13251
ຫຸ່ນ	-13252
ານຶກ	-13253
່ວາກ	-13254
▁(2,	-13255
▁Bra	-13256
▁Dựa	-13257
▁Exp	-13258
▁Giữ	-13259
▁Mời	-13260
▁Non	-13261
▁Wol	-13262
▁Zoo	-13263
▁dis	-13264
▁dào	-13265
▁dãy	-13266
▁dẹp	-13267
▁gìn	-13268
▁pcs	-13269
▁tựa	-13270
▁váy	-13271
▁ທາດ	-13272
▁ບາດ	-13273
EAPEC	-13274
EPoly	-13275
aypal	-13276
owers	-13277
sting	-13278
ຍຸດຕິ	-13279
ທີ່ສະ	-13280
ຜ່ອນກ	-13281
ມ່ຍິກ	-13282
ລະບາຍ	-13283
ຫລິ້ນ	-13284
▁Apps	-13285
▁CÔNG	-13286
▁Join	-13287
▁Mand	-13288
▁giáp	-13289
▁suối	-13290
▁sườn	-13291
▁thạo	-13292
▁điềm	-13293
▁ລົ້ມ	-13294
▁ເກີດ	-13295
EExcel	-13296
amping	-13297
angers	-13298
anghai	-13299
eroean	-13300
etroit	-13301
ການວາກ	-13302
ບົດຮຽນ	-13303
ບໍ່ຮູ້	-13304
ປະທ້ວກ	-13305
ພູເຂົາ	-13306
ສັບສົກ	-13307
າມເຈັບ	-13308
ີ່ສໍາກ	-13309
ເຕີບໂກ	-13310
ເຫດສົມ	-13311
່ານເອກ	-13312
▁2020.	-13313
▁49.34	-13314
▁Adele	-13315
▁CPTPP	-13316
▁Metro	-13317
▁bềEhạ	-13318
▁chềEl	-13319
▁khuẩn	-13320
▁lưỡng	-13321
▁nhúng	-13322
▁piano	-13323
▁siêng	-13324
▁thiêu	-13325
▁ềEHoa	-13326
ography	-13327
virtual	-13328
ວິທີກາກ	-13329
ສ້ອມແປກ	-13330
ຫຸ້ມຫໍ່	-13331
ຫຼັກສູດ	-13332
ານຜະລິດ	-13333
ແລະສິ່ກ	-13334
ໍາວັນທີ	-13335
▁Crypto	-13336
▁Extens	-13337
▁Tumblr	-13338
▁Zipper	-13339
▁iphone	-13340
▁sềEnày	-13341
▁vềEcủa	-13342
▁ເຈົ້ານ	-13343
ological	-13344
ຍາກທີ່ຈະ	-13345
ຍ່ທີ່ສຸກ	-13346
ທີ່ນິຍົມ	-13347
ສໍາລັບເກ	-13348
ານພົວພັນ	-13349
າມຜິດພາດ	-13350
້ຖືກສ້າກ	-13351
▁Control	-13352
▁đềEtheo	-13353
▁ບໍລິກາກ	-13354
▁ແຕກຕ່າກ	-13355
▁ềEnhiều	-13356
enerateur	-13357
ທົ່ວປະເທກ	-13358
ຮັບປະກັນກ	-13359
▁Coinbase	-13360
▁bềEphiếu	-13361
▁ສະແຕນເລກ	-13362
▁ສີເຫຼືອກ	-13363
▁ເຈົ້າຮູແ	-13364
▁ềEtrường	-13365
າດສະຫນາຈັກ	-13366
▁Changchun	-13367
▁Elizabeth	-13368
▁chềEemail	-13369
▁dềEthương	-13370
▁ຕາເວັນອອກ	-13371
▁ເພີ່ມທະວີ	-13372
▁ທ່ານສາມາດແ	-13373
▁ມັນບໍ່ແມ່ນ	-13374
ວິວັດທະນາກາກ	-13375
ຜະລິດຕະພັນທັກ	-13376
%)	-13377
08	-13378
He	-13379
RA	-13380
RT	-13381
gr	-13382
gu	-13383
iC	-13384
lp	-13385
ຖີ	-13386
▁}	-13387
102	-13388
BềE	-13389
ECH	-13390
ECT	-13391
EJW	-13392
ETH	-13393
UST	-13394
apt	-13395
ror	-13396
ຈື່	-13397
ຊູກ	-13398
ດີມ	-13399
າກກ	-13400
ຸດແ	-13401
▁Cy	-13402
▁Dy	-13403
▁FL	-13404
▁Ol	-13405
▁bt	-13406
▁bã	-13407
▁uế	-13408
▁we	-13409
▁Đa	-13410
▁ໂຢ	-13411
0000	-13412
4000	-13413
EMac	-13414
EMan	-13415
comm	-13416
ever	-13417
icol	-13418
oảng	-13419
ugby	-13420
unds	-13421
ຊາຍກ	-13422
ຍ່ອຍ	-13423
ດົນແ	-13424
ຕ່ລະ	-13425
ນິ້ວ	-13426
ພັນກ	-13427
ພົ້ກ	-13428
ສັ່ນ	-13429
ຫມວກ	-13430
າມປາ	-13431
ື້ນແ	-13432
ື້ອນ	-13433
▁(40	-13434
▁2.4	-13435
▁304	-13436
▁8.2	-13437
▁80%	-13438
▁But	-13439
▁Cou	-13440
▁Elà	-13441
▁Ger	-13442
▁Hỏi	-13443
▁Nơi	-13444
▁Pad	-13445
▁SMD	-13446
▁Sea	-13447
▁TOP	-13448
▁Vắc	-13449
▁bud	-13450
▁cat	-13451
▁gạo	-13452
▁hâm	-13453
▁lui	-13454
▁top	-13455
▁ຊະນ	-13456
▁ທຽມ	-13457
▁ຫນີ	-13458
▁ໂຕກ	-13459
EDong	-13460
ETube	-13461
Haber	-13462
abies	-13463
adies	-13464
stein	-13465
ຍືດຫຍ	-13466
ຖຽນລະ	-13467
ທີສອກ	-13468
ປະສິດ	-13469
ພະຍົບ	-13470
ສະຫຼະ	-13471
ເຮົານ	-13472
ແຫລ່ກ	-13473
້ເຮົາ	-13474
▁ANSI	-13475
▁Acid	-13476
▁Data	-13477
▁Ever	-13478
▁HDPE	-13479
▁Loan	-13480
▁Mont	-13481
▁Pipe	-13482
▁Quay	-13483
▁Ring	-13484
▁Truy	-13485
▁bing	-13486
▁file	-13487
▁khơi	-13488
▁tềEc	-13489
▁vềEB	-13490
▁ຂຸດກ	-13491
▁ຫຼວກ	-13492
▁ເຈາະ	-13493
▁ແລ່ກ	-13494
ishing	-13495
ousine	-13496
ຂໍຂອບແ	-13497
ຊື້ຂາຍ	-13498
ທີ່ຍັກ	-13499
ນອກຈາກ	-13500
ປະຫຍັກ	-13501
ເທົ່າກ	-13502
▁HềEth	-13503
▁Texas	-13504
▁Trade	-13505
▁forex	-13506
▁huỳnh	-13507
▁spark	-13508
▁triết	-13509
▁triều	-13510
▁ກະທູແ	-13511
▁ການໂກ	-13512
▁ວັດຖຸ	-13513
▁ແຫນ່ກ	-13514
ethanol	-13515
ດາວໂຫລດ	-13516
ປະຕິເສກ	-13517
ປະຕິເສດ	-13518
ສດຖະກິດ	-13519
ໂດເນເຊກ	-13520
້ານຮ່າກ	-13521
▁Letter	-13522
▁bềEhủy	-13523
▁hềEnhư	-13524
▁đềEban	-13525
▁đềEdày	-13526
▁đềElấy	-13527
▁ທີ່ມີກ	-13528
▁ພຣະກິກ	-13529
▁ພູເຂົາ	-13530
▁ສະຫມັກ	-13531
▁ຮັບຜິດ	-13532
▁ເຫລົ້າ	-13533
▁ềEchâu	-13534
ນໍາເຂົ້າ	-13535
ບໍລິສັດແ	-13536
ພຶດຕິກໍາ	-13537
ສິໂນອອນແ	-13538
▁Jiangsu	-13539
▁Michael	-13540
▁Tianjin	-13541
▁chềEđơn	-13542
▁nhềEđến	-13543
▁ການປ້ອກ	-13544
▁ກົດຫມາຍ	-13545
▁ຜິວຫນັກ	-13546
ການປັບປຸກ	-13547
ຈໍານວນຂອກ	-13548
ຖ້າຫາກວ່າ	-13549
ທີ່ດີເລີກ	-13550
ພື້ນຖານໂກ	-13551
▁Cambodia	-13552
▁VềEchúng	-13553
▁giềEhàng	-13554
▁thềEtruy	-13555
▁đềEchuẩn	-13556
▁đềEtránh	-13557
▁ການຜະລິກ	-13558
EWordPress	-13559
▁Precision	-13560
▁halloween	-13561
▁thềEkhiến	-13562
ຂ້າພະເຈົ້າກ	-13563
ສາດສະຫນາຈັກ	-13564
ະຊຸມສໍາມະນາ	-13565
▁ທີ່ດີທີ່ສຸດ	-13566
▁ເດືອນມິຖຸນາ	-13567
ແລະການພັດທະນາ	-13568
DE	-13569
IB	-13570
IO	-13571
UP	-13572
hu	-13573
ÀY	-13574
ມ້	-13575
▁ຣ	-13576
128	-13577
165	-13578
EPP	-13579
OWN	-13580
SQL	-13581
emp	-13582
iev	-13583
igg	-13584
jan	-13585
nào	-13586
ras	-13587
rit	-13588
uxi	-13589
ຕົາ	-13590
ບົວ	-13591
ບໍາ	-13592
ຝົກ	-13593
ສົດ	-13594
ຮວມ	-13595
ະລາ	-13596
ິຈິ	-13597
ືນແ	-13598
▁DI	-13599
▁GP	-13600
▁HI	-13601
▁Lò	-13602
▁SW	-13603
▁Vu	-13604
▁gõ	-13605
▁vn	-13606
▁âu	-13607
▁ລໍ	-13608
/12,	-13609
anel	-13610
inth	-13611
iral	-13612
ison	-13613
lege	-13614
oken	-13615
romo	-13616
sson	-13617
test	-13618
điểm	-13619
ຊະນີ	-13620
ຖ້ວມ	-13621
ບົ່ມ	-13622
ປົ່າ	-13623
ມືອກ	-13624
ລິຍະ	-13625
ສຕິກ	-13626
ສານກ	-13627
ໂຊຕາ	-13628
▁0.7	-13629
▁128	-13630
▁225	-13631
▁256	-13632
▁7.4	-13633
▁Hou	-13634
▁Hữu	-13635
▁Lớn	-13636
▁Nex	-13637
▁Reg	-13638
▁VIP	-13639
▁Xám	-13640
▁but	-13641
▁dẻo	-13642
▁lấp	-13643
▁nấm	-13644
▁nến	-13645
▁oán	-13646
▁pvc	-13647
▁quê	-13648
▁quạ	-13649
▁ray	-13650
▁xảo	-13651
▁đùa	-13652
▁ຍານ	-13653
▁ດັບ	-13654
▁ໂທຣ	-13655
EPTFE	-13656
Thông	-13657
Trong	-13658
ifier	-13659
ludge	-13660
odeon	-13661
quang	-13662
ຂັບເກ	-13663
ຍ່ແລະ	-13664
ອາຈາກ	-13665
າກທີ່	-13666
ຽນຊວນ	-13667
ເຝົ້າ	-13668
້ອະທິ	-13669
ềEđến	-13670
▁Biểu	-13671
▁Bldg	-13672
▁Cand	-13673
▁Cann	-13674
▁Fram	-13675
▁Phot	-13676
▁Stan	-13677
▁Time	-13678
▁cưng	-13679
▁hềEg	-13680
▁khúc	-13681
▁long	-13682
▁móng	-13683
▁nang	-13684
▁tháo	-13685
▁thâm	-13686
▁tips	-13687
▁vềEH	-13688
▁địch	-13689
▁ຕອນກ	-13690
▁ຖ່ານ	-13691
▁ທຸກກ	-13692
▁ປ່ຽວ	-13693
▁ຝຸ່ນ	-13694
▁ຫມຶກ	-13695
▁ເກົາ	-13696
affeta	-13697
loride	-13698
ຕະຫລາກ	-13699
ນັກຮຽກ	-13700
ຢູ່ກັບ	-13701
ຢູ່ທີແ	-13702
ສະນັ້ກ	-13703
ສະຫຼຸບ	-13704
ອໍານາດ	-13705
ະຊາຊົກ	-13706
ັກກິ່ກ	-13707
ັນສ້າກ	-13708
້ເບິ່ກ	-13709
▁Conne	-13710
▁Horiz	-13711
▁Paper	-13712
▁Promo	-13713
▁Screw	-13714
▁Vegas	-13715
▁black	-13716
▁cềEvà	-13717
Unthank	-13718
charger	-13719
ilicate	-13720
rugated	-13721
ບໍລິເວກ	-13722
ວກເຂົາແ	-13723
້ເຂົ້າແ	-13724
▁10.000	-13725
▁Bungal	-13726
▁Cookie	-13727
▁LềEhội	-13728
▁Nguyen	-13729
▁Odisha	-13730
▁bềElàm	-13731
▁double	-13732
▁lềEhội	-13733
▁trềEng	-13734
▁vềEbản	-13735
▁đềEtôi	-13736
▁ຂ້ອຍຈະ	-13737
▁ດຽວນີແ	-13738
▁ເມື່ອກ	-13739
.06.2018	-13740
ETwitter	-13741
ipitator	-13742
neumatic	-13743
ນັກສຶກສາ	-13744
ປະມວນຜົກ	-13745
ວຽກເຮັດກ	-13746
ແລະເຮັດແ	-13747
່ອນທີ່ຈະ	-13748
້ຈ່າຍທັກ	-13749
▁Eyelash	-13750
▁ຖືກຕ້ອກ	-13751
▁ເອກະຊົນ	-13752
▁ແລະດັ່ກ	-13753
ຂໍ້ກໍານົດ	-13754
ຮູບແບບຂອກ	-13755
▁Comments	-13756
▁Material	-13757
▁sềEtrong	-13758
▁thềEbiết	-13759
▁thềEtiếp	-13760
▁ປັດຈຸບັກ	-13761
ນະຊາວຫນຸ່ມ	-13762
ຫຼາຍທີ່ສຸກ	-13763
▁ອະລູມິນຽມ	-13764
ະພາບແວດລ້ອມ	-13765
ເວລາທີ່ທ່ານ	-13766
▁Enterprise	-13767
ທີ່ຂ້າພະເຈົ້າ	-13768
▁ຈໍານວນຕົວແບກ	-13769
▁ຂໍ້ມູນຈໍາເພາະ	-13770
MK	-13771
SH	-13772
Su	-13773
UK	-13774
fs	-13775
້ພ	-13776
໊ກ	-13777
ỷu	-13778
▁ະ	-13779
.16	-13780
001	-13781
2.5	-13782
24,	-13783
40,	-13784
701	-13785
888	-13786
91;	-13787
ICK	-13788
ITE	-13789
Man	-13790
ait	-13791
awa	-13792
put	-13793
tot	-13794
ums	-13795
uân	-13796
ຊ່າ	-13797
ຕະກ	-13798
ອຸກ	-13799
ີນີ	-13800
ໂຕະ	-13801
▁2-	-13802
▁61	-13803
▁Ft	-13804
▁Mo	-13805
▁NC	-13806
▁Tỷ	-13807
▁Vợ	-13808
▁fr	-13809
▁hô	-13810
▁rũ	-13811
▁sm	-13812
▁đẻ	-13813
Ngài	-13814
ains	-13815
aven	-13816
bles	-13817
eler	-13818
enry	-13819
ikip	-13820
iler	-13821
ista	-13822
quên	-13823
unes	-13824
ຍ່ອມ	-13825
ຝ່າຍ	-13826
ສະຕີ	-13827
ຫຼົກ	-13828
ື່ອນ	-13829
ເຣັກ	-13830
ເສີນ	-13831
ແຮ່ກ	-13832
້ຊິກ	-13833
້ບອກ	-13834
▁1/2	-13835
▁Bob	-13836
▁Chế	-13837
▁Cáp	-13838
▁Căn	-13839
▁Dar	-13840
▁Dệt	-13841
▁Get	-13842
▁Pil	-13843
▁Tor	-13844
▁Tạp	-13845
▁WPC	-13846
▁cac	-13847
▁chà	-13848
▁int	-13849
▁lăm	-13850
▁táo	-13851
▁đòn	-13852
▁đấm	-13853
▁ຕຽກ	-13854
▁ພົບ	-13855
/2020	-13856
12345	-13857
alume	-13858
ellow	-13859
nhưng	-13860
oress	-13861
osite	-13862
otion	-13863
pport	-13864
ຊີຟິກ	-13865
ດີຂອກ	-13866
ຕ່ໍາກ	-13867
ນັ້ນແ	-13868
ລວມມີ	-13869
ຮອດປີ	-13870
ັດແປກ	-13871
ັນກັບ	-13872
າມກັກ	-13873
ແຜ່ກະ	-13874
້ສຸມແ	-13875
ềEtài	-13876
▁Khai	-13877
▁Lead	-13878
▁hung	-13879
▁nitơ	-13880
▁pháo	-13881
▁thoả	-13882
▁ຫ່າກ	-13883
▁ອໍານ	-13884
▁ຮົ້ວ	-13885
enzhen	-13886
ionate	-13887
outube	-13888
ບົດບາກ	-13889
ປະເພນີ	-13890
ປຽບທຽບ	-13891
ລະບົບກ	-13892
ສີມການ	-13893
ອາຟຣິກ	-13894
ັກສະນະ	-13895
າມຊຸ່ມ	-13896
ເຟສບຸກ	-13897
ềEgắng	-13898
ềEphần	-13899
ềEđiều	-13900
▁2013,	-13901
▁HềEsơ	-13902
▁Royal	-13903
▁Strip	-13904
▁giềEs	-13905
▁super	-13906
▁ສຶກສາ	-13907
▁ເຊົ່າ	-13908
2018-01	-13909
Android	-13910
EiPhone	-13911
anthate	-13912
ດວ່າມັນ	-13913
າທາລະນະ	-13914
▁Camera	-13915
▁Cooler	-13916
▁Disney	-13917
▁Soccer	-13918
▁Thưởng	-13919
▁chềEng	-13920
▁nghênh	-13921
▁đềEtin	-13922
▁ສີນ້ໍາ	-13923
--------	-13924
alvalume	-13925
perature	-13926
ບັນຍາກາກ	-13927
ສັນຍາລັກ	-13928
ອຸດສາຫະກ	-13929
ານອອກແບບ	-13930
ເຊື່ອວ່າ	-13931
▁Atlanta	-13932
▁Ninjago	-13933
▁thềEbạn	-13934
▁ປະລິນຍາ	-13935
▁ປະລິມາກ	-13936
▁ພາກສ່ວນ	-13937
ອອກກໍາລັກ	-13938
▁86-574-8	-13939
▁Exchange	-13940
▁chềEmuốn	-13941
▁đềEtrong	-13942
▁ເຂົ້າຈີແ	-13943
▁ແລະເມື່ອ	-13944
ການສໍາຫຼວດ	-13945
ຜົນສໍາເລັດ	-13946
າມຫນາແຫນ້ກ	-13947
າມອາດສາມາດ	-13948
▁Changzhou	-13949
▁resources	-13950
▁ພຣະບັນຍັກ	-13951
▁ເລືອກເອົາ	-13952
ພວກເຮົາຕ້ອກ	-13953
▁blockchain	-13954
▁ການປະຕິບັກ	-13955
▁ການປົກປ້ອກ	-13956
▁ປະສິດທິພາກ	-13957
▁ອຸປະກອນການ	-13958
▁ທີ່ດີທີ່ສຸກ	-13959
▁Testosterone	-13960
CP	-13961
FA	-13962
gn	-13963
ớc	-13964
00€	-13965
260	-13966
302	-13967
Biz	-13968
EAS	-13969
EUV	-13970
Hub	-13971
KGS	-13972
Ray	-13973
TML	-13974
aic	-13975
apy	-13976
ful	-13977
jar	-13978
oke	-13979
png	-13980
ượn	-13981
ຈົມ	-13982
ຕູ້	-13983
ປົດ	-13984
ັ໊ມ	-13985
ເປີ	-13986
ềEd	-13987
▁#,	-13988
▁#>	-13989
▁+1	-13990
▁DW	-13991
▁HG	-13992
▁Ky	-13993
▁MX	-13994
▁ON	-13995
▁TO	-13996
▁mò	-13997
▁ກີ	-13998
▁ຊູ	-13999
▁ຫໍ	-14000
▁ໍາ	-14001
-150	-14002
EJet	-14003
ague	-14004
chor	-14005
days	-14006
hiểu	-14007
mmer	-14008
oman	-14009
ould	-14010
tính	-14011
vert	-14012
wing	-14013
ຂັດແ	-14014
ດັ້ກ	-14015
ະດັກ	-14016
້າຍກ	-14017
ềEvì	-14018
▁2.7	-14019
▁5.0	-14020
▁777	-14021
▁Bio	-14022
▁Cấp	-14023
▁Dry	-14024
▁Not	-14025
▁Pvc	-14026
▁Shi	-14027
▁Tuỳ	-14028
▁bưu	-14029
▁gan	-14030
▁ins	-14031
▁lát	-14032
▁lụt	-14033
▁mốc	-14034
▁nàn	-14035
▁pip	-14036
▁ren	-14037
▁vặt	-14038
▁ທິດ	-14039
▁ນາຍ	-14040
▁ແນກ	-14041
EFree	-14042
aceut	-14043
acker	-14044
aulic	-14045
esser	-14046
falls	-14047
ginia	-14048
leece	-14049
ຕ່ການ	-14050
ທະຍົມ	-14051
ທີແລະ	-14052
ນີ້ມີ	-14053
ພະຍານ	-14054
ັດຈາກ	-14055
ໂດລິກ	-14056
່າຈະແ	-14057
້ທ່າກ	-14058
▁1300	-14059
▁2003	-14060
▁Dũng	-14061
▁Edge	-14062
▁Gall	-14063
▁Gate	-14064
▁Grat	-14065
▁Hiển	-14066
▁Real	-14067
▁Text	-14068
▁bênh	-14069
▁trùm	-14070
▁đắng	-14071
▁ຂ້າມ	-14072
▁ຈະມີ	-14073
▁ທ່ຽວ	-14074
▁ສິນກ	-14075
▁ຮ້ອນ	-14076
▁ເກາະ	-14077
▁ເຍາະ	-14078
ailand	-14079
ຂ້ອຍຈະ	-14080
ຕະຫລາດ	-14081
ຕົວເລກ	-14082
ຕ່ຕ້ອກ	-14083
ປະເຊີກ	-14084
ສະຫລອກ	-14085
ສູ່ການ	-14086
ະໂຍບາຍ	-14087
▁2010)	-14088
▁37.64	-14089
▁Beige	-14090
▁Break	-14091
▁Girls	-14092
▁Louis	-14093
▁Tread	-14094
▁Trimm	-14095
▁buddy	-14096
▁chiết	-14097
▁dềEch	-14098
▁thung	-14099
▁ກວ້າກ	-14100
▁ປີຂອກ	-14101
oftware	-14102
ຊັ້ນສູກ	-14103
ພາສາອັກ	-14104
ລະບາດໂກ	-14105
່ານຢ່າກ	-14106
▁Friday	-14107
▁Jacket	-14108
▁Motors	-14109
▁NINGBO	-14110
▁School	-14111
▁Shovel	-14112
▁Spring	-14113
▁chềEIP	-14114
▁mềEcửa	-14115
▁sềEbạn	-14116
▁triche	-14117
▁webcam	-14118
▁ການຈັດ	-14119
▁ສົມບູກ	-14120
▁ແລະຜູ້	-14121
essional	-14122
ikipedia	-14123
ສິນລະທໍາ	-14124
ຽນຊວນຟຸກ	-14125
ເວົ້າລົມ	-14126
້ຕັດສິນແ	-14127
▁Casting	-14128
▁Package	-14129
▁Taffeta	-14130
▁cheater	-14131
▁chềEvới	-14132
▁sềEđiều	-14133
▁đềEhiểu	-14134
▁ເວທີປາແ	-14135
▁ເອກະສານ	-14136
aceutical	-14137
ວິສະວະກໍາ	-14138
ສົມເຫດສົມ	-14139
▁ໂດຍບໍ່ມີ	-14140
ທີ່ກໍານົດແ	-14141
ທີ່ມີຊີວິດ	-14142
ພື້ນທີ່ຂອກ	-14143
ເວລາດຽວກັກ	-14144
▁Rendering	-14145
▁dềEbềEtổn	-14146
▁instagram	-14147
ເປັນເອກະລັກ	-14148
້ານການເມືອກ	-14149
▁Skateboard	-14150
▁generateur	-14151
▁ການປະຕິບັດ	-14152
▁DavidUnthank	-14153
ບໍ່ຈໍາເປັນຕ້ອກ	-14154
,"	-14155
Ez	-14156
HQ	-14157
MW	-14158
NO	-14159
VA	-14160
ci	-14161
ປແ	-14162
ຜກ	-14163
ິສ	-14164
118	-14165
CNA	-14166
IDS	-14167
Our	-14168
Tài	-14169
Văn	-14170
amm	-14171
ief	-14172
oạn	-14173
sey	-14174
ugh	-14175
xăm	-14176
yun	-14177
ກິນ	-14178
ທິມ	-14179
ຢາຍ	-14180
ະຫະ	-14181
ັນດ	-14182
ềEr	-14183
▁!!	-14184
▁87	-14185
▁CY	-14186
▁Dh	-14187
▁GO	-14188
▁KY	-14189
▁MÁ	-14190
▁OK	-14191
▁SU	-14192
▁Vi	-14193
▁es	-14194
▁se	-14195
▁đe	-14196
▁ຍແ	-14197
▁ນູ	-14198
▁ấu	-14199
��?	-14200
-311	-14201
.160	-14202
7574	-14203
84.2	-14204
EStr	-14205
atar	-14206
leev	-14207
ogen	-14208
omes	-14209
onia	-14210
ores	-14211
pect	-14212
utor	-14213
ຊ້ອມ	-14214
ນພິກ	-14215
ປ໋ອກ	-14216
ສູ່ກ	-14217
ອິດແ	-14218
າຈາກ	-14219
ີການ	-14220
ເທຣດ	-14221
ເມີດ	-14222
້ທັກ	-14223
▁(20	-14224
▁145	-14225
▁21:	-14226
▁4.3	-14227
▁720	-14228
▁Adv	-14229
▁Bos	-14230
▁Bác	-14231
▁Deb	-14232
▁Dầu	-14233
▁Gao	-14234
▁Ken	-14235
▁Low	-14236
▁Mun	-14237
▁Ros	-14238
▁SEA	-14239
▁UAE	-14240
▁Vis	-14241
▁Yue	-14242
▁bia	-14243
▁bám	-14244
▁bẩy	-14245
▁bẫy	-14246
▁est	-14247
▁gối	-14248
▁lụa	-14249
▁spr	-14250
▁ຊີກ	-14251
▁ຊີແ	-14252
▁ອຽກ	-14253
▁ໂຕະ	-14254
▁ໂບກ	-14255
▁ềEh	-14256
/2015	-14257
Jilin	-14258
inson	-14259
inton	-14260
itute	-14261
ກດກາກ	-14262
ຈ່າຍກ	-14263
ນີ້ຈະ	-14264
ປີນີແ	-14265
ປ່ອຍແ	-14266
ມືຂອກ	-14267
ສາເຫກ	-14268
ະຫນາດ	-14269
າມອັບ	-14270
າມາດແ	-14271
າເວັກ	-14272
ີ່ສຸກ	-14273
ເຜົາແ	-14274
ໂອເນກ	-14275
້ຢູ່ແ	-14276
▁1050	-14277
▁Drop	-14278
▁Kids	-14279
▁Mail	-14280
▁Ride	-14281
▁Sale	-14282
▁Shij	-14283
▁Viết	-14284
▁Xbox	-14285
▁dust	-14286
▁ninj	-14287
▁pump	-14288
▁thun	-14289
▁trói	-14290
▁túng	-14291
▁vành	-14292
▁vươn	-14293
▁ສິ້ກ	-14294
ESuper	-14295
alafil	-14296
ຊື້ຂາກ	-14297
ຕັດສິນ	-14298
ທີ່ວ່າ	-14299
ນີ້ຍັກ	-14300
ານຕ່າກ	-14301
ານທ່ອກ	-14302
ເສື່ອມ	-14303
ເຫລົ້າ	-14304
▁Brush	-14305
▁Cisco	-14306
▁Color	-14307
▁Range	-14308
▁Shirt	-14309
▁fiber	-14310
▁giềEm	-14311
▁trềEc	-14312
▁đềEmà	-14313
▁đềEnó	-14314
ichigan	-14315
ນັບຕັ້ກ	-14316
ບໍລິສຸດ	-14317
ບໍ່ແມ່ກ	-14318
ປະສິດຕິ	-14319
ພິພາກສາ	-14320
ຢູ່ພາຍແ	-14321
ສະຫວ່າກ	-14322
ສິນລະປະ	-14323
ຫຼັກການ	-14324
ອະທິກາກ	-14325
ອາບນ້ໍາ	-14326
ິດສະມັກ	-14327
ູບພາບຫາ	-14328
ềEthuộc	-14329
▁Teflon	-14330
▁giềEch	-14331
▁hềEgia	-14332
▁ຫົວຂໍ້	-14333
ຊື່ອີເມວ	-14334
ຍ່ທີ່ສຸດ	-14335
ມິດຕະພາກ	-14336
ລັດຖະມົນ	-14337
ສົນທະນາກ	-14338
ຫຼົ່ານີ້	-14339
ອະທິດຖາກ	-14340
າສັບຕ່າກ	-14341
▁Acrylic	-14342
▁Ceramic	-14343
▁Chamber	-14344
▁Element	-14345
▁bềEbiển	-14346
▁chềElàm	-14347
▁hềEgiữa	-14348
▁đềEgiảm	-14349
▁đềEnuôi	-14350
▁ປະລິມານ	-14351
▁ຮ່າໂນ້ກ	-14352
▁ເດັກຍິກ	-14353
▁ແມ່ນການ	-14354
ຂະຫນາດກາກ	-14355
ສະລັອດຕິກ	-14356
ົມສ່ວນບົກ	-14357
▁download	-14358
▁ບໍລິສັດແ	-14359
▁ປະເພດຖົກ	-14360
▁ລະຍະຫ່າກ	-14361
ການບໍລິຫານ	-14362
ບໍລິສັດຂອກ	-14363
ຜົນສໍາເລັກ	-14364
ສິ້ນສຸດລົກ	-14365
▁Diaphragm	-14366
▁Morehacks	-14367
▁nghềEngơi	-14368
▁ສໍາລັບກາກ	-14369
ເລົ່າເລື່ອກ	-14370
ແລະການບໍລິການ	-14371
ທີ່ດີທີ່ສຸດຂອກ	-14372
ສະຫະລັດອາເມລິກາ	-14373
ພັດທະນາແບບຍືນຍົກ	-14374
(1	-14375
GE	-14376
MN	-14377
QC	-14378
ty	-14379
17)	-14380
23,	-14381
33)	-14382
4">	-14383
Bro	-14384
Epr	-14385
Equ	-14386
Nam	-14387
ULL	-14388
abl	-14389
cow	-14390
edi	-14391
lov	-14392
luc	-14393
oli	-14394
opy	-14395
ຍມີ	-14396
ນວກ	-14397
ບຫາ	-14398
ລອຍ	-14399
ຫລີ	-14400
ະພາ	-14401
▁(7	-14402
▁5-	-14403
▁Ep	-14404
▁GA	-14405
▁MN	-14406
▁Mr	-14407
▁SC	-14408
▁Sy	-14409
▁Sứ	-14410
▁XP	-14411
▁ep	-14412
/300	-14413
1500	-14414
Blog	-14415
Eapp	-14416
arge	-14417
book	-14418
ends	-14419
etic	-14420
lear	-14421
ough	-14422
oven	-14423
sych	-14424
untu	-14425
ນທັກ	-14426
ນແຕ່	-14427
ຟ້າແ	-14428
ຢ່ອກ	-14429
ສອບກ	-14430
າກົນ	-14431
ແບບກ	-14432
▁270	-14433
▁91-	-14434
▁Bru	-14435
▁CRM	-14436
▁Cin	-14437
▁FDA	-14438
▁HCL	-14439
▁Her	-14440
▁Jay	-14441
▁Mil	-14442
▁QTY	-14443
▁RSS	-14444
▁Sky	-14445
▁TKT	-14446
▁Toy	-14447
▁apk	-14448
▁ghé	-14449
▁năn	-14450
▁xao	-14451
▁Đúc	-14452
▁Đạo	-14453
▁ຂີແ	-14454
▁ຍຶກ	-14455
▁ບານ	-14456
▁ຢຸກ	-14457
▁ເມວ	-14458
Quick	-14459
inski	-14460
ombie	-14461
ດ້ານແ	-14462
ທະວີກ	-14463
ນແມ່ນ	-14464
ນ້ໍາແ	-14465
ວດສອກ	-14466
ົດບາດ	-14467
ເລເຊີ	-14468
້ສົ່ກ	-14469
▁0.01	-14470
▁Bear	-14471
▁Cảnh	-14472
▁Down	-14473
▁Golf	-14474
▁Kies	-14475
▁Kông	-14476
▁Zeal	-14477
▁chổi	-14478
▁clip	-14479
▁hoãn	-14480
▁hềEx	-14481
▁loan	-14482
▁lềEb	-14483
▁thảy	-14484
▁trội	-14485
▁tềEl	-14486
▁ດ້າກ	-14487
▁ລະດູ	-14488
▁ລົດແ	-14489
▁ລົ້ກ	-14490
▁ວຽກກ	-14491
▁ຫລຽວ	-14492
edding	-14493
igeria	-14494
olling	-14495
ຍານຂອກ	-14496
ທີ່ມັນ	-14497
ທໍາລາຍ	-14498
ພິຈາລະ	-14499
ສະເລ່ຍ	-14500
ອັກສອນ	-14501
າມຕັ້ກ	-14502
ແລະມັນ	-14503
້ລະຫັດ	-14504
້ເວລາກ	-14505
▁1.000	-14506
▁2006,	-14507
▁2010,	-14508
▁April	-14509
▁Class	-14510
▁Filed	-14511
▁Giant	-14512
▁Peach	-14513
▁dềEsử	-14514
▁phềEđ	-14515
▁screw	-14516
▁vềEnh	-14517
▁ເດັ່ກ	-14518
▁ເປັນແ	-14519
▁ềEMin	-14520
▁ềEđĩa	-14521
ກດເບິ່ກ	-14522
ຖ່ານຫີນ	-14523
ນ້ໍາມັນ	-14524
ບັນເທົາ	-14525
້ແກ່ການ	-14526
▁Plugin	-14527
▁bềEvới	-14528
▁vềEcon	-14529
▁ĐềElại	-14530
▁đềEcài	-14531
▁đềEkết	-14532
▁ກວດສອບ	-14533
▁ສະຫນາມ	-14534
▁ສໍານຶກ	-14535
▁ອອກຈາກ	-14536
.08.2018	-14537
Evirtual	-14538
ampuchia	-14539
ທີ່ມາຈາກ	-14540
ປາດຖະຫນາ	-14541
ານທົດລອກ	-14542
ແມ່ນຫຍັກ	-14543
້ພັດທະນາ	-14544
▁100.000	-14545
▁3.2.160	-14546
▁Bangkok	-14547
▁Belmont	-14548
▁Gratuit	-14549
▁Pickets	-14550
▁Zealand	-14551
▁nghềEth	-14552
▁sềEliệu	-14553
▁trềEcho	-14554
▁ຕົວຊີ້ວ	-14555
▁ທີ່ສໍາກ	-14556
▁ປິ່ນປົວ	-14557
▁ວາລະສາກ	-14558
ພ້ອມທີ່ຈະ	-14559
ຫົວຂໍ້ວ່າ	-14560
ານປິ່ນປົວ	-14561
ເກີດຂຶ້ນກ	-14562
ເພີ່ມຂື້ນ	-14563
▁Building	-14564
▁Industry	-14565
▁LinkedIn	-14566
▁Longgang	-14567
▁ຕໍາແຫນ່ກ	-14568
ຮູ້ກ່ຽວກັບ	-14569
▁Jailbreak	-14570
▁chềEtrang	-14571
▁thềEtránh	-14572
▁đềEnghiên	-14573
ternational	-14574
▁Nickelodeon	-14575
▁ທີ່ຢູ່ເວັບແ	-14576
▁ເຈົ້າຮູ້ສຶກ	-14577
/2	-14578
2%	-14579
AK	-14580
FR	-14581
LD	-14582
LO	-14583
Và	-14584
ii	-14585
nó	-14586
ụt	-14587
▁—	-14588
(11	-14589
.50	-14590
/05	-14591
280	-14592
860	-14593
99,	-14594
ALE	-14595
CSE	-14596
ERY	-14597
EUp	-14598
ICE	-14599
bor	-14600
eer	-14601
isk	-14602
ius	-14603
nik	-14604
orc	-14605
raf	-14606
uys	-14607
ydr	-14608
ຕານ	-14609
ທີກ	-14610
ຟອກ	-14611
ີນິ	-14612
ຽນກ	-14613
ເທນ	-14614
▁<#	-14615
▁QR	-14616
▁eo	-14617
▁xé	-14618
▁ໂສ	-14619
EAnt	-14620
Site	-14621
atri	-14622
comp	-14623
fect	-14624
hium	-14625
imeo	-14626
okia	-14627
omer	-14628
umbo	-14629
ກະແສ	-14630
ຍາວກ	-14631
ພູມແ	-14632
ລາວກ	-14633
ຫຸ້ນ	-14634
ອີເມ	-14635
ັບເກ	-14636
ເຈລະ	-14637
ເສິກ	-14638
ເຫຼື	-14639
ໍ່ມີ	-14640
▁(36	-14641
▁(51	-14642
▁11.	-14643
▁APK	-14644
▁Bud	-14645
▁Bạc	-14646
▁Fer	-14647
▁HKD	-14648
▁LềE	-14649
▁Mem	-14650
▁NEW	-14651
▁Phú	-14652
▁Rub	-14653
▁Sav	-14654
▁Sen	-14655
▁Tap	-14656
▁Thí	-14657
▁Tần	-14658
▁bấm	-14659
▁cởi	-14660
▁noi	-14661
▁pad	-14662
▁sec	-14663
▁tel	-14664
▁tựu	-14665
▁Đan	-14666
▁đắm	-14667
▁ຖັກ	-14668
▁ບັບ	-14669
▁ຜັກ	-14670
▁ແກກ	-14671
▁ແຜແ	-14672
ample	-14673
buntu	-14674
ealth	-14675
ennis	-14676
ongee	-14677
rader	-14678
ຕະກໍາ	-14679
ນນັ້ກ	-14680
ນະພາບ	-14681
ພາກັກ	-14682
ສະບາຍ	-14683
ະເທດແ	-14684
ັດແລະ	-14685
ານທີ່	-14686
ີ່ຖືກ	-14687
້ກັບກ	-14688
▁0.00	-14689
▁1960	-14690
▁2004	-14691
▁Coca	-14692
▁Face	-14693
▁Fast	-14694
▁Mạch	-14695
▁Rose	-14696
▁Saga	-14697
▁Shot	-14698
▁Wang	-14699
▁bách	-14700
▁bùng	-14701
▁have	-14702
▁mold	-14703
▁ngọc	-14704
▁ruột	-14705
▁thầm	-14706
▁trẫm	-14707
▁trật	-14708
▁vạch	-14709
▁xông	-14710
▁Đúng	-14711
▁đinh	-14712
▁ຕົວະ	-14713
▁ທ້າຍ	-14714
▁ລາຍກ	-14715
▁ຫລຸກ	-14716
▁ຫລົກ	-14717
▁ຫົວແ	-14718
▁ຮ່ອກ	-14719
Pieces	-14720
abolic	-14721
evelop	-14722
icator	-14723
iverse	-14724
ຊຸກຍູ້	-14725
ຕິກິລິ	-14726
ຜ່າຕັກ	-14727
ຢູ່ທາກ	-14728
ສະນັ້ນ	-14729
ຫນ້າຈໍ	-14730
າມກົດດ	-14731
ິ່ນຂອກ	-14732
ເອີລົກ	-14733
▁Chuẩn	-14734
▁Honda	-14735
▁Ocean	-14736
▁Sheng	-14737
▁buông	-14738
▁bềEkỹ	-14739
▁flash	-14740
▁phềET	-14741
▁vinyl	-14742
▁ສີຟ້າ	-14743
▁ອາລົມ	-14744
EAmazon	-14745
EMobile	-14746
ategory	-14747
ກໍ່ຕັ້ກ	-14748
ຕົກແຕ່ກ	-14749
ທິດສະດີ	-14750
ົນກະທົບ	-14751
ແນວໂນ້ມ	-14752
ແລກປ່ຽກ	-14753
▁BềEsưu	-14754
▁Geocon	-14755
▁London	-14756
▁Sports	-14757
▁giềEph	-14758
▁lềEgắn	-14759
▁mobile	-14760
▁thềEsẽ	-14761
▁tềEphụ	-14762
▁vềEchủ	-14763
▁đềEtải	-14764
▁ການາດາ	-14765
▁ກໍານົດ	-14766
▁ຈະເປັນ	-14767
▁ຕະຫຼອກ	-14768
▁ນັກຮຽນ	-14769
▁ຮູບແບກ	-14770
▁ເຮົາຈະ	-14771
inthians	-14772
rostatic	-14773
ກວ່ານັ້ກ	-14774
ການພະນັນ	-14775
ບັນດາອົກ	-14776
ມັດທະຍົມ	-14777
ຫນ້າສົນແ	-14778
ອັດສະຈັກ	-14779
ອັນດັບທີ	-14780
ອົບພະຍົບ	-14781
້ບໍລິກາກ	-14782
▁192.168	-14783
▁2.6.4.1	-14784
▁Beroean	-14785
▁HềEcũng	-14786
▁Premium	-14787
▁Sitemap	-14788
▁Trailer	-14789
▁Ukraina	-14790
▁đềEkhác	-14791
▁ການວິເກ	-14792
▁ດາວໂຫລດ	-14793
▁ນ້ໍາມັກ	-14794
▁ຜູ້ທີ່ແ	-14795
▁ພາຍຫຼັກ	-14796
▁ພິທີກາກ	-14797
▁ສະຖາບັນ	-14798
▁ຮຽກຮ້ອກ	-14799
▁ເອກະສາກ	-14800
ifunction	-14801
ການກໍາຈັດ	-14802
ການພົວພັນ	-14803
ການສະຫນອກ	-14804
ຂໍ້ມູນທີ່	-14805
າມຢ້ານກົວ	-14806
▁đềEthiết	-14807
▁ປະສົບການ	-14808
▁ເຈົ້າຢາກ	-14809
ເຫລົ່ານັ້ນ	-14810
▁Australia	-14811
▁Container	-14812
▁Machining	-14813
▁Marketing	-14814
▁Separator	-14815
▁Tailoress	-14816
▁ອົດສະຕາລີ	-14817
ມານະພະຍາຍາມ	-14818
ການສະລັອດຕິກ	-14819
ເຊື່ອມຕໍ່ກັບ	-14820
▁Corinthians	-14821
▁ຂະຫນາດບັນຈຸ	-14822
▁Shijiazhuang	-14823
▁ແລະເພື່ອນຮ່ວມກ	-14824
AH	-14825
BF	-14826
DH	-14827
GR	-14828
WA	-14829
xt	-14830
▁່	-14831
-1,	-14832
-36	-14833
-55	-14834
123	-14835
414	-14836
450	-14837
Ecr	-14838
GHT	-14839
SON	-14840
afe	-14841
avy	-14842
eek	-14843
lit	-14844
new	-14845
omo	-14846
zen	-14847
ຂີ່	-14848
ນອນ	-14849
ລາດ	-14850
ລ່ນ	-14851
ອວກ	-14852
າວແ	-14853
ໍ້ກ	-14854
▁96	-14855
▁CZ	-14856
▁Cà	-14857
▁DB	-14858
▁Om	-14859
▁Te	-14860
▁Ut	-14861
▁au	-14862
▁hi	-14863
▁if	-14864
▁lê	-14865
▁ອິ	-14866
-500	-14867
/10,	-14868
702.	-14869
74-8	-14870
ERed	-14871
Mình	-14872
asel	-14873
ebob	-14874
evin	-14875
iner	-14876
info	-14877
lace	-14878
stru	-14879
thon	-14880
ນຈະແ	-14881
ພິທະ	-14882
ຟ້າວ	-14883
ຫລາດ	-14884
ຫັນແ	-14885
ິມິກ	-14886
ີສອກ	-14887
ົ່ວແ	-14888
ໂປ່ກ	-14889
▁---	-14890
▁16:	-14891
▁518	-14892
▁888	-14893
▁Are	-14894
▁Cát	-14895
▁Had	-14896
▁How	-14897
▁Lập	-14898
▁Nền	-14899
▁Suy	-14900
▁Sắp	-14901
▁Tôn	-14902
▁Viv	-14903
▁bốc	-14904
▁dẫy	-14905
▁gel	-14906
▁keo	-14907
▁mix	-14908
▁new	-14909
▁sub	-14910
▁trá	-14911
▁ອົບ	-14912
Chính	-14913
admin	-14914
amide	-14915
elfie	-14916
ພິບັກ	-14917
ສາວົກ	-14918
ສີແດກ	-14919
ອະດີກ	-14920
ອະນາແ	-14921
ອັດສະ	-14922
າຍແລະ	-14923
ານແພກ	-14924
າເຫັນ	-14925
້ນໍາແ	-14926
້ເປີດ	-14927
▁Dược	-14928
▁Ecủa	-14929
▁Khám	-14930
▁Spot	-14931
▁chày	-14932
▁chật	-14933
▁iPod	-14934
▁tang	-14935
▁ກູໂກ	-14936
▁ທະວີ	-14937
▁ປ້າຍ	-14938
▁ພະຍຸ	-14939
▁ເຈ້ກ	-14940
EDavid	-14941
atform	-14942
compro	-14943
rosion	-14944
ydroxy	-14945
ກະດ້າກ	-14946
ຈຸດສຸມ	-14947
ຕໍ່ກັກ	-14948
ນິວຢອກ	-14949
ປານກາກ	-14950
ລະເບີກ	-14951
ອາຊີບແ	-14952
ອາດຈະແ	-14953
້ເຈົ້າ	-14954
ໍ່ຕັ້ກ	-14955
ềEliệu	-14956
▁Cross	-14957
▁Photo	-14958
▁Plate	-14959
▁Tuyên	-14960
▁Tường	-14961
▁giáng	-14962
▁ຫລິ້ກ	-14963
▁ອຸດົມ	-14964
▁ເຕືອກ	-14965
atalyst	-14966
ongebob	-14967
ຜິວຫນັກ	-14968
ມາຍການກ	-14969
ສໍາຫລັບ	-14970
ົນລະພິດ	-14971
ແມ່ນ້ໍາ	-14972
ແລະຕ່າກ	-14973
້ຮັບຂອກ	-14974
▁Canton	-14975
▁Carton	-14976
▁Orange	-14977
▁Pieces	-14978
▁Resort	-14979
▁Suzuki	-14980
▁bềEtrí	-14981
▁design	-14982
▁lovers	-14983
▁đềEbàn	-14984
▁ການວາກ	-14985
▁ຕົວເລກ	-14986
▁ເສຍຫາກ	-14987
ພາກເຫນືອ	-14988
າມຫມັ້ນແ	-14989
▁Collect	-14990
▁College	-14991
▁flicker	-14992
▁sềEđiện	-14993
▁thềEchế	-14994
▁thềEvới	-14995
▁ສຸດທ້າກ	-14996
ຫນັກຫນ່ວກ	-14997
ອົດສະຕາລີ	-14998
ເຂົ້າຫນົມ	-14999
▁Istanbul	-15000
▁Magnetic	-15001
▁thềEdùng	-15002
▁thềEđiểm	-15003
▁ລະຫັດທົວ	-15004
▁ວາດສະຫນາ	-15005
▁ເຢຍລະມັກ	-15006
▁ເສດຖະກິດ	-15007
ການບໍລິກາກ	-15008
ຕົວທ່ານເອກ	-15009
້ສໍາລັບການ	-15010
▁Francisco	-15011
▁ການຮ່ວມມື	-15012
▁ຂໍ້ມູນເກມ	-15013
▁ຊື່ຍີ່ຫໍແ	-15014
Egalvanized	-15015
າມສາມາດບົ່ມ	-15016
▁Compressor	-15017
▁Innovative	-15018
▁MetaTrader	-15019
▁Production	-15020
▁nghềEthông	-15021
▁ຍົກຕົວຢ່າກ	-15022
ເວົ້າກ່ຽວກັບ	-15023
▁3.2.16084.2	-15024
▁Philippines	-15025
▁ເດືອນພຶດສະພາ	-15026
mq	-15027
sa	-15028
ຖບ	-15029
ຜາ	-15030
(19	-15031
/06	-15032
18)	-15033
2.0	-15034
202	-15035
28,	-15036
3.5	-15037
93;	-15038
ESk	-15039
Epl	-15040
Nếu	-15041
Tin	-15042
aba	-15043
buy	-15044
eet	-15045
ira	-15046
mas	-15047
tec	-15048
ÚNG	-15049
ຈົບ	-15050
ຍິນ	-15051
ດາດ	-15052
ຖະແ	-15053
ທຽບ	-15054
ຫ້ກ	-15055
ົ່ນ	-15056
ềEg	-15057
▁$7	-15058
▁Cá	-15059
▁Cụ	-15060
▁ED	-15061
▁Na	-15062
▁Sẽ	-15063
▁op	-15064
▁pu	-15065
▁vk	-15066
▁đế	-15067
▁ຝາ	-15068
.1.1	-15069
000,	-15070
Elot	-15071
acer	-15072
apor	-15073
ench	-15074
etal	-15075
ibal	-15076
opro	-15077
pper	-15078
ດແລະ	-15079
ປ້າຍ	-15080
ພາຍຸ	-15081
ຫນືອ	-15082
ອັນຕ	-15083
ະດູກ	-15084
ະບວນ	-15085
່າຈະ	-15086
້ນັກ	-15087
້ພົບ	-15088
້ສັກ	-15089
▁139	-15090
▁14:	-15091
▁260	-15092
▁91;	-15093
▁Ali	-15094
▁Bìa	-15095
▁Cro	-15096
▁Ear	-15097
▁Ech	-15098
▁Ele	-15099
▁Fin	-15100
▁Huy	-15101
▁NBR	-15102
▁Nob	-15103
▁PPS	-15104
▁Pop	-15105
▁Tam	-15106
▁Wen	-15107
▁add	-15108
▁bom	-15109
▁bug	-15110
▁nứt	-15111
▁our	-15112
▁out	-15113
▁pho	-15114
▁san	-15115
▁ten	-15116
▁đúp	-15117
▁đợt	-15118
▁ຈິດ	-15119
▁ນາມ	-15120
▁ຢິວ	-15121
▁ສອນ	-15122
▁ຫມູ	-15123
▁ແນ່	-15124
▁ໂພກ	-15125
eware	-15126
inity	-15127
ຊີມັກ	-15128
ປາກົກ	-15129
ຜນການ	-15130
ານນີແ	-15131
າເສລີ	-15132
ິນຟ້າ	-15133
ົບກັນ	-15134
ຽວກັນ	-15135
ເລັດແ	-15136
້ຖືກກ	-15137
ềEmột	-15138
▁1990	-15139
▁Bing	-15140
▁Chúc	-15141
▁Cond	-15142
▁Cool	-15143
▁Duct	-15144
▁Food	-15145
▁Gang	-15146
▁Gióp	-15147
▁Inch	-15148
▁Khác	-15149
▁Lồng	-15150
▁Mass	-15151
▁Thai	-15152
▁chùm	-15153
▁chốt	-15154
▁giọt	-15155
▁găng	-15156
▁muôn	-15157
▁phay	-15158
▁tuềE	-15159
▁tưới	-15160
▁vắng	-15161
▁đềEý	-15162
▁ຊ່າກ	-15163
▁ພື້ກ	-15164
▁ສາມີ	-15165
▁ຫມຸກ	-15166
▁ềEPh	-15167
idwest	-15168
ກະລຸນາ	-15169
ຖະແຫຼກ	-15170
ທີ່ພວກ	-15171
ນສາມາດ	-15172
ບັນດາມ	-15173
ພັກອາແ	-15174
ລໍາດັກ	-15175
ວ່ານາກ	-15176
ສະຫລົກ	-15177
ສະຫວັນ	-15178
ເສຍອົກ	-15179
ເຫຼົ້າ	-15180
ໂມຊັ່ກ	-15181
້ອນວອກ	-15182
▁11.23	-15183
▁Coins	-15184
▁Patch	-15185
▁Phiếu	-15186
▁Quang	-15187
▁Tuyết	-15188
▁Views	-15189
▁Zhang	-15190
▁cềEph	-15191
▁latte	-15192
▁mềEvà	-15193
▁thuẫn	-15194
▁trans	-15195
▁tềEch	-15196
▁ກະທໍາ	-15197
▁ອີເມວ	-15198
▁ເກືອບ	-15199
ກະເປົ໋າ	-15200
ຂົ້າກັບ	-15201
ທີ່ເຮົາ	-15202
ນທີ່ມີກ	-15203
ບາດກ້າວ	-15204
ສະຕະວັກ	-15205
ອົບອຸ່ກ	-15206
າມຍືດຫຍ	-15207
▁ChềEấy	-15208
▁Coffee	-15209
▁Pongee	-15210
▁Sodium	-15211
▁bềEmáy	-15212
▁hềEcần	-15213
▁sềEnhà	-15214
▁đềEhọa	-15215
▁ການສັກ	-15216
▁ທ່ານມີ	-15217
▁ລາຍຊື່	-15218
▁ສາຍແອວ	-15219
▁ສີສົ້ມ	-15220
enbolone	-15221
poration	-15222
ຍະດຽວກັນ	-15223
ທ່ານຕ້ອກ	-15224
ຢາເສບຕິກ	-15225
ອອກແບບມາ	-15226
າມເສຍຫາຍ	-15227
ເກີດຂຶ້ກ	-15228
ແຕ່ວັນທີ	-15229
▁Scooter	-15230
▁Silicon	-15231
▁altcoin	-15232
▁nhềElại	-15233
▁thềEmua	-15234
▁thềEnhư	-15235
▁ຂາຍສົ່ກ	-15236
▁ດ້ວຍການ	-15237
▁ມາເລເຊກ	-15238
▁ອະທິບາຍ	-15239
ທໍາອິດຂອກ	-15240
ປະໂຫຍດຂອກ	-15241
ສ່ວນປະກອບ	-15242
▁ກໍາປູເຈກ	-15243
▁ຖ້າທ່ານແ	-15244
▁ເກົ້າອີ້	-15245
▁ເສດຖະກິກ	-15246
ຈໍານວນຫຼາກ	-15247
ມະຫັດສະຈັກ	-15248
າມຫນາແຫນ້ນ	-15249
ົບການສຶກສາ	-15250
້ສົມທົບກັບ	-15251
▁Bungalows	-15252
▁Countdown	-15253
EHyperbaric	-15254
▁ເປັນຜູ້ຜະລິດ	-15255
▁ນອກເຫນືອຈາກການ	-15256
(2	-15257
>>	-15258
Cr	-15259
ND	-15260
Up	-15261
iq	-15262
mẹ	-15263
oC	-15264
ta	-15265
ÂU	-15266
ຣມ	-15267
016	-15268
232	-15269
330	-15270
ALL	-15271
AME	-15272
AND	-15273
EFX	-15274
ESc	-15275
Eph	-15276
exe	-15277
mir	-15278
oca	-15279
ÁCH	-15280
Đào	-15281
ທ້ແ	-15282
ຜັດ	-15283
ະຕູ	-15284
ະເລ	-15285
ເປກ	-15286
▁AL	-15287
▁Dữ	-15288
▁PT	-15289
▁af	-15290
▁tw	-15291
▁ຈາ	-15292
6789	-15293
Link	-15294
Tech	-15295
Tiệc	-15296
XBET	-15297
ears	-15298
etty	-15299
olly	-15300
ongo	-15301
quản	-15302
room	-15303
ຊີ້ນ	-15304
ນໍາກ	-15305
ລີ່ມ	-15306
ອຸ່ນ	-15307
ເທັກ	-15308
ເນົາ	-15309
້ມັກ	-15310
ໍານິ	-15311
ềEra	-15312
▁(3,	-15313
▁(50	-15314
▁186	-15315
▁2,5	-15316
▁ALL	-15317
▁Chó	-15318
▁CÁC	-15319
▁Lib	-15320
▁Lâm	-15321
▁MOQ	-15322
▁NGH	-15323
▁Nic	-15324
▁Ren	-15325
▁Sus	-15326
▁Ton	-15327
▁VPN	-15328
▁YJD	-15329
▁bón	-15330
▁hel	-15331
▁làn	-15332
▁rel	-15333
▁rầu	-15334
▁sim	-15335
▁sét	-15336
▁xôi	-15337
▁đan	-15338
▁ຝົກ	-15339
▁ềEx	-15340
EITIL	-15341
ETags	-15342
TTXVN	-15343
aniel	-15344
atory	-15345
chiều	-15346
ganik	-15347
ittle	-15348
zania	-15349
ກະວາກ	-15350
ບັນຊາ	-15351
ະຫນອກ	-15352
າມທີ່	-15353
າສົ່ກ	-15354
້ເຮັກ	-15355
ềEmặt	-15356
▁1400	-15357
▁1980	-15358
▁CANN	-15359
▁Core	-15360
▁Hard	-15361
▁Nhập	-15362
▁Note	-15363
▁Nâng	-15364
▁Qing	-15365
▁Spec	-15366
▁TGGT	-15367
▁Toán	-15368
▁Wuxi	-15369
▁data	-15370
▁menu	-15371
▁sửng	-15372
▁tềEb	-15373
▁wifi	-15374
▁đảng	-15375
▁ຈິດແ	-15376
▁ຕ້າກ	-15377
▁ປົກກ	-15378
▁ລາວກ	-15379
ESmart	-15380
Online	-15381
design	-15382
elting	-15383
odcast	-15384
ຖານຂອກ	-15385
ທ້າທາກ	-15386
ນັ້ນມີ	-15387
ບັນຫາແ	-15388
ບໍ່ດົນ	-15389
ມະເຮັກ	-15390
ລວມຂອກ	-15391
ລາສຕິກ	-15392
ສະແຫວກ	-15393
ານສົ່ກ	-15394
ເຕືອນແ	-15395
ໂຕ້ຖຽກ	-15396
ໂລກຂອກ	-15397
່າຍຮູກ	-15398
▁&#91;	-15399
▁&#93;	-15400
▁18.91	-15401
▁Album	-15402
▁Crush	-15403
▁Sales	-15404
▁Thích	-15405
▁Trịnh	-15406
▁Xiang	-15407
▁chềEg	-15408
▁elect	-15409
▁kềEch	-15410
▁slots	-15411
▁sềEgi	-15412
▁thuần	-15413
▁ປະສົມ	-15414
▁ềENew	-15415
EDouble	-15416
ພະຍາກອກ	-15417
ລກປ່ຽນກ	-15418
ວິຊາຊີກ	-15419
ສືບຕໍ່ແ	-15420
ີວິດຂອກ	-15421
ີ່ເຮັດແ	-15422
ເອກະຊົນ	-15423
ແມ່ນມີກ	-15424
້ຮຽນຮູ້	-15425
ềEnhững	-15426
▁August	-15427
▁Jizera	-15428
▁Valley	-15429
▁hềEcòn	-15430
▁hềEmới	-15431
▁nhượng	-15432
▁thềEáp	-15433
▁ຊີ້ຂາກ	-15434
▁ລັດເຊກ	-15435
▁ລັບການ	-15436
▁ອາຟຣິກ	-15437
ERikoooo	-15438
Ebitcoin	-15439
ethylene	-15440
ຍະຜ່ານມາ	-15441
ທາດເຫຼັກ	-15442
ບບຈໍາລອກ	-15443
ລະດັບສູກ	-15444
ວິທີແກ້ແ	-15445
ສໍາເລັດແ	-15446
ຫຼາຍປານແ	-15447
ເວລານັ້ກ	-15448
ເສຍສະຫຼະ	-15449
ແຜ່ນດິນແ	-15450
▁machine	-15451
▁nghiêng	-15452
▁thềEkết	-15453
▁youjian	-15454
▁đềEnâng	-15455
▁ບ່ອນທີແ	-15456
▁ພະເຈົ້າ	-15457
▁ພ້ອມກັນ	-15458
▁ສະຊອບແວ	-15459
▁ສໍາເລັດ	-15460
▁ຮູບຮ່າກ	-15461
ປະສົບການແ	-15462
ເຕີບໂຕຂອກ	-15463
ເທົ່ານັ້ນ	-15464
ເພື່ອນຂອກ	-15465
້ເຫັນເຖິກ	-15466
▁giềEđược	-15467
▁nghềEcủa	-15468
▁ຂ້ອຍຕ້ອກ	-15469
▁ບັນຊີລາຍ	-15470
▁ແມ່ນແລ້ວ	-15471
EVaricella	-15472
ປະສິດທິຜົກ	-15473
ສໍາລັບລູກກ	-15474
▁2010-2019	-15475
▁Litbright	-15476
▁vềEphương	-15477
▁ການທົດສອບ	-15478
▁ແມ່ນຫນຶ່ກ	-15479
orosilicate	-15480
ດ້ານວິຊາກາກ	-15481
ດ້ານວິຊາການ	-15482
ອຸດົມສົມບູກ	-15483
▁ການບໍລິໂພກ	-15484
▁ການຫຸ້ມຫໍ່	-15485
▁ເດືອນທັນວາ	-15486
▁ເດືອນພະຈິກ	-15487
▁ຜົນກະທົບຂອກ	-15488
▁ສາດສະຫນາຈັກ	-15489
▁ເຊັ່ນດຽວກັນ	-15490
▁ເລືອກເອົາທາກ	-15491
ດໍາເນີນທຸລະກິກ	-15492
ເພີ່ມເຕີມກ່ຽວກັບ	-15493
07	-15494
?"	-15495
FD	-15496
MI	-15497
NS	-15498
SE	-15499
].	-15500
ja	-15501
xx	-15502
-27	-15503
.09	-15504
.24	-15505
136	-15506
199	-15507
225	-15508
485	-15509
801	-15510
CHF	-15511
IFA	-15512
alo	-15513
col	-15514
ese	-15515
ete	-15516
fan	-15517
unk	-15518
xml	-15519
yme	-15520
ຊິນ	-15521
ມິນ	-15522
ລືກ	-15523
ວາຍ	-15524
ວາແ	-15525
າທິ	-15526
າເຟ	-15527
ເດດ	-15528
ໂທດ	-15529
▁$4	-15530
▁-1	-15531
▁74	-15532
▁97	-15533
▁EG	-15534
▁Ha	-15535
▁KO	-15536
▁Kg	-15537
▁Kẻ	-15538
▁sl	-15539
▁êm	-15540
▁Đá	-15541
▁Đô	-15542
▁ແບ	-15543
▁ແຟ	-15544
2012	-15545
Eequ	-15546
Port	-15547
atab	-15548
core	-15549
iety	-15550
inux	-15551
lian	-15552
peed	-15553
quin	-15554
ying	-15555
ຕົວແ	-15556
ບົ່ກ	-15557
ປັ້ກ	-15558
ມັ້ນ	-15559
ວາລະ	-15560
ສູ້ກ	-15561
າມດີ	-15562
ເສີດ	-15563
ແຊ່ກ	-15564
ແຕ່ແ	-15565
່ຜົວ	-15566
້ລົມ	-15567
ềEng	-15568
▁(30	-15569
▁630	-15570
▁CPU	-15571
▁ETC	-15572
▁ETh	-15573
▁ILS	-15574
▁Mob	-15575
▁Quý	-15576
▁SEC	-15577
▁Syr	-15578
▁THB	-15579
▁TUV	-15580
▁Tun	-15581
▁Wei	-15582
▁bôi	-15583
▁equ	-15584
▁gậy	-15585
▁hòn	-15586
▁ngô	-15587
▁quỳ	-15588
▁rad	-15589
▁rèn	-15590
▁tok	-15591
▁đồn	-15592
▁ຊໍາ	-15593
▁ປິດ	-15594
▁ອາວ	-15595
▁ເບກ	-15596
▁ềET	-15597
-1000	-15598
odiac	-15599
onald	-15600
opper	-15601
phalt	-15602
ragon	-15603
ruary	-15604
water	-15605
ຍ້າຍແ	-15606
ຕະລຶກ	-15607
ທິຍາກ	-15608
ພຣະເຢ	-15609
ັນສູກ	-15610
າມການ	-15611
າມຖີ່	-15612
າເວັນ	-15613
ຸມຊົນ	-15614
ເລກຸນ	-15615
ໂຈມຕີ	-15616
ềEsau	-15617
▁10.1	-15618
▁1100	-15619
▁1994	-15620
▁8000	-15621
▁Boat	-15622
▁From	-15623
▁Hiểu	-15624
▁RFID	-15625
▁Thức	-15626
▁chèn	-15627
▁film	-15628
▁giàn	-15629
▁gold	-15630
▁logo	-15631
▁nấng	-15632
▁tềEm	-15633
▁đoan	-15634
▁ປອດແ	-15635
▁ປ້າກ	-15636
▁ລັບກ	-15637
▁ຫຼືແ	-15638
▁ແຂ່ກ	-15639
EBlack	-15640
loader	-15641
ooking	-15642
ຊອບທໍາ	-15643
ນັກລົກ	-15644
ບໍ່ມີແ	-15645
ພັນຂອກ	-15646
ມພິວເຕ	-15647
ວິທະຍຸ	-15648
ີນິເຈີ	-15649
ົວຢ່າກ	-15650
ໂອກາດແ	-15651
່າວວ່າ	-15652
▁Hacks	-15653
▁Robot	-15654
▁Tower	-15655
▁bonus	-15656
▁hoành	-15657
▁sềEcó	-15658
▁ທະຫາກ	-15659
▁ຝຣັ່ກ	-15660
▁ສັ້ນແ	-15661
▁ເວືອກ	-15662
▁ềEbất	-15663
▁ềEkhu	-15664
draulic	-15665
ຂຶ້ນຢູແ	-15666
ຍົກເລີກ	-15667
ຍ້ອນວ່າ	-15668
ວ່າເປັນ	-15669
ັດຖະບານ	-15670
າດຕະການ	-15671
▁ComPro	-15672
▁Jersey	-15673
▁Martin	-15674
▁Nevada	-15675
▁Peters	-15676
▁SERIES	-15677
▁Travel	-15678
▁Zurich	-15679
▁phềEvà	-15680
▁silica	-15681
▁thềEtừ	-15682
▁đềEbền	-15683
▁đềEmột	-15684
▁ກະເປົາ	-15685
▁ຂໍ້ມູກ	-15686
▁ຕໍ່ສູແ	-15687
▁ທີ່ການ	-15688
▁ທົນທານ	-15689
▁ປະຫລາກ	-15690
▁ềEdưới	-15691
ຊົນນະບົດ	-15692
ຍົກເວັ້ນ	-15693
ປະມວນຜົນ	-15694
ພັດທະນາກ	-15695
ັນແລະກັກ	-15696
າແນະນໍາແ	-15697
ເວັ້ນຈາກ	-15698
ແທນທີ່ຈະ	-15699
▁Desktop	-15700
▁Impulse	-15701
▁Wolford	-15702
▁chềEphụ	-15703
▁giềEtôi	-15704
▁printer	-15705
▁thềEđặt	-15706
▁thềEđọc	-15707
▁đềEthấy	-15708
▁ທຸລະກິກ	-15709
▁ຫນ້າທີແ	-15710
▁ໂມເລກຸກ	-15711
ຕັກໂນໂລຊີ	-15712
ທີ່ກໍາລັກ	-15713
ພົວພັນກັບ	-15714
ສັກຢາປ້ອກ	-15715
າດການປົກກ	-15716
▁Assembly	-15717
▁Supplier	-15718
▁trềEngại	-15719
▁đềEkháng	-15720
▁đềEtrung	-15721
ຢູ່ຫວຽດນາມ	-15722
ສະບັບເລກທີ	-15723
ໂດຍຜ່ານການ	-15724
▁Institute	-15725
▁collector	-15726
ວ່າເປັນຫຍັກ	-15727
ສະຖານທີ່ຂອກ	-15728
ເກັບຂີ້ຝຸ່ນ	-15729
▁SharePoint	-15730
▁Washington	-15731
ແລະຜູ້ສະຫນອກ	-15732
▁Application	-15733
▁Blumenstock	-15734
▁ລາຊະອານາຈັກ	-15735
ບັນດາວິສາຫະກິກ	-15736
▁ແລະຂ້າພະເຈົ້າ	-15737
LM	-15738
Sp	-15739
dB	-15740
hm	-15741
ກີ	-15742
-45	-15743
/8,	-15744
010	-15745
115	-15746
11:	-15747
235	-15748
7">	-15749
86)	-15750
EMT	-15751
IAN	-15752
PRO	-15753
ahn	-15754
▁	-15755
E	-15756
ກ	-15757
n	-15758
�	-15759
h	-15760
t	-15761
າ	-15762
i	-15763
c	-15764
g	-15765
ແ	-15766
a	-15767
ນ	-15768
o	-15769
່	-15770
ັ	-15771
ເ	-15772
u	-15773
ະ	-15774
ອ	-15775
r	-15776
m	-15777
້	-15778
ມ	-15779
e	-15780
l	-15781
ລ	-15782
ີ	-15783
à	-15784
ề	-15785
ວ	-15786
đ	-15787
s	-15788
,	-15789
ົ	-15790
ສ	-15791
ດ	-15792
ທ	-15793
v	-15794
.	-15795
y	-15796
p	-15797
ບ	-15798
ຫ	-15799
á	-15800
b	-15801
0	-15802
ິ	-15803
ư	-15804
ຂ	-15805
k	-15806
d	-15807
ໍ	-15808
ພ	-15809
ຕ	-15810
1	-15811
ຈ	-15812
ປ	-15813
ຮ	-15814
ຍ	-15815
ô	-15816
ື	-15817
2	-15818
C	-15819
T	-15820
ế	-15821
ạ	-15822
ູ	-15823
ó	-15824
ả	-15825
ຊ	-15826
ộ	-15827
ấ	-15828
ê	-15829
ệ	-15830
S	-15831
ຸ	-15832
ủ	-15833
ớ	-15834
-	-15835
N	-15836
ờ	-15837
M	-15838
5	-15839
ố	-15840
x	-15841
ì	-15842
ợ	-15843
ú	-15844
ໂ	-15845
3	-15846
ຽ	-15847
P	-15848
â	-15849
ຜ	-15850
B	-15851
H	-15852
ậ	-15853
ຖ	-15854
ự	-15855
:	-15856
A	-15857
ơ	-15858
L	-15859
8	-15860
4	-15861
ຢ	-15862
D	-15863
6	-15864
q	-15865
ữ	-15866
í	-15867
ầ	-15868
9	-15869
V	-15870
ຶ	-15871
ụ	-15872
ứ	-15873
7	-15874
ã	-15875
/	-15876
ă	-15877
G	-15878
(	-15879
ọ	-15880
R	-15881
ຼ	-15882
)	-15883
K	-15884
I	-15885
f	-15886
w	-15887
ắ	-15888
F	-15889
Đ	-15890
ặ	-15891
O	-15892
ể	-15893
ò	-15894
ị	-15895
W	-15896
ử	-15897
ồ	-15898
ừ	-15899
ẽ	-15900
U	-15901
ù	-15902
ằ	-15903
X	-15904
"	-15905
Q	-15906
ổ	-15907
ẩ	-15908
é	-15909
ຣ	-15910
ở	-15911
;	-15912
z	-15913
ý	-15914
?	-15915
J	-15916
_	-15917
ĩ	-15918
ũ	-15919
ຟ	-15920
ẫ	-15921
Y	-15922
“	-15923
ẻ	-15924
%	-15925
$	-15926
&	-15927
ỏ	-15928
>	-15929
ຝ	-15930
ỗ	-15931
*	-15932
!	-15933
j	-15934
+	-15935
ẹ	-15936
Z	-15937
'	-15938
Á	-15939
ỹ	-15940
ỳ	-15941
ỡ	-15942
ỉ	-15943
=	-15944
ẳ	-15945
è	-15946
[	-15947
]	-15948
໌	-15949
£	-15950
#	-15951
õ	-15952
ỷ	-15953
©	-15954
@	-15955
<	-15956
ẵ	-15957
Â	-15958
Ô	-15959
~	-15960
»	-15961
€	-15962
•	-15963
Ả	-15964
—	-15965
°	-15966
À	-15967
Ấ	-15968
≤	-15969
໊	-15970
໋	-15971
\	-15972
±	-15973
Ư	-15974
с	-15975
ↁ	-15976
{	-15977
}	-15978
®	-15979
Ủ	-15980
”	-15981
·	-15982
а	-15983
◁	-15984
о	-15985
‘	-15986
Ứ	-15987
Ạ	-15988
☁	-15989
ö	-15990
`	-15991
е	-15992
Ố	-15993
≥	-15994
Ú	-15995
н	-15996
